0f
f3
33
f4
df
e6
c3
0b
fc
f8
14
d6
22
27
28
eb
23
13
f4
29
53
01
d7
d7
5a
1f
dd
c9
0c
d9
2a
06
dc
d4
21
f5
da
15
17
02
02
1f
f8
b5
fb
dc
0c
fa
0a
fa
36
d0
ed
05
0b
0b
ee
01
e1
2b
00
c8
f4
ee
0b
e4
f7
06
db
01
1c
23
08
f4
2e
e6
2a
10
e3
ec
11
c2
04
08
0c
1a
27
e7
0a
f8
c7
ec
17
35
09
22
d2
32
28
1b
fc
10
fd
0d
ff
e5
1d
f1
01
26
29
e9
ee
e8
e1
00
fd
11
e5
be
1a
44
0d
fe
f7
37
e3
fc
fd
04
f7
ce
04
e5
0e
f9
dd
f3
01
e1
fe
ff
1d
de
f9
1b
0b
ee
e1
df
1b
f3
21
f2
ce
f5
ef
1a
fe
2f
c1
fe
29
ea
e4
e9
06
d1
08
01
19
22
13
ed
e7
2f
1f
06
da
de
f5
ee
df
fc
1e
f6
ef
ef
0a
c5
ea
f2
e7
1d
3b
fe
10
ef
34
28
05
fc
af
17
1a
0d
fe
16
e5
fb
f6
02
0c
e8
be
1d
2d
ce
f5
15
18
15
e7
d8
0a
e0
0e
e6
10
fe
03
ea
17
0a
d9
04
08
08
e8
1a
01
c0
2d
f5
e6
ff
fe
26
d1
05
d9
12
e3
00
0e
db
f8
0d
e8
df
10
e8
2f
33
d2
e7
0a
04
e6
cf
b8
35
ec
b2
d5
d6
d5
fb
f0
f6
46
cd
20
fe
00
da
ef
10
df
3b
ea
24
d2
f5
03
d1
04
0d
06
f0
c9
d6
e2
f5
0c
e7
ee
df
e4
e6
06
f4
0a
f8
07
cc
e8
e8
fe
c9
01
3f
eb
0f
ef
1b
f6
fb
f0
f6
1c
03
f0
26
f7
e1
1f
13
ce
07
db
23
30
06
22
fb
19
23
03
08
e0
de
47
de
3a
cf
4d
fd
06
21
f9
26
14
03
c3
0d
1d
11
e9
11
dc
07
19
20
e3
06
f6
e0
0d
fa
04
02
0b
2f
08
ed
16
1b
3e
c1
26
f4
0a
47
0a
18
02
fa
e5
06
04
e7
05
dc
be
fb
ff
d2
f4
02
cd
d5
19
fe
fd
fb
ea
1c
f3
01
eb
18
34
f2
dd
ff
03
e8
00
06
f2
fa
eb
fa
28
01
c8
18
06
35
f8
e5
bb
08
20
15
13
07
08
ff
19
ff
0a
ee
f1
04
15
12
d3
de
0a
e8
d8
05
fd
de
2e
0c
03
17
f2
f9
09
ec
ef
05
d4
09
1c
d9
32
29
f7
ed
eb
10
1f
0e
d1
07
f8
30
f4
ef
fd
d4
1b
25
22
ec
01
fa
fa
f6
21
eb
05
f6
2b
21
fd
11
e6
13
db
18
19
fc
23
d0
2f
fe
3c
10
1d
0a
d0
09
08
df
00
e4
e1
dc
09
2e
e2
e5
e7
10
16
e7
cf
e8
2b
da
1e
1b
0c
1c
ec
15
f9
e9
0a
e4
06
0e
d6
3d
eb
f9
34
20
bf
17
fe
32
1a
0a
09
ff
22
da
1a
d4
fc
dc
1d
0d
e8
ef
fb
e9
da
db
25
1f
12
ef
f9
ed
f5
ea
2e
04
eb
f8
00
06
dd
e3
ce
d4
fe
0b
12
d0
14
f3
1a
f6
37
e4
1a
e2
c4
ef
f0
17
15
04
04
c9
1d
2b
e4
22
cc
f7
00
03
ea
e2
f3
e9
fd
22
0c
d2
f5
e8
ce
2a
01
1d
01
ea
fd
3e
d4
fc
0a
04
0c
f4
02
0f
08
f5
de
45
ca
eb
04
1a
09
c7
27
e0
cc
e8
01
04
0f
e3
1f
d1
12
f1
f9
14
31
f7
27
15
10
0c
14
e4
36
e1
f0
e0
d6
ea
07
06
e6
19
22
18
d5
e0
fc
01
0b
fe
1e
1b
05
2c
3b
07
fe
1e
c2
ea
1b
03
15
e3
cc
db
fe
f3
f2
11
14
ff
0d
31
00
e5
21
f7
f9
07
f3
e4
f5
26
08
fe
ec
33
06
05
d7
f0
ed
09
12
d3
e5
ed
cf
02
1a
02
33
f2
0a
fd
15
05
ef
1f
f3
13
f5
11
03
03
e0
f5
30
15
e9
09
f3
07
de
eb
cc
ff
f2
09
13
ea
f3
e2
28
e8
ed
40
f5
26
d9
09
f1
24
00
04
c3
ee
22
07
18
b6
da
f9
fa
01
24
bd
00
ef
0c
0c
10
e2
ea
e7
27
ec
0e
fd
27
fd
0b
02
d7
f0
f1
22
e7
db
e1
16
fc
0f
e6
ce
0b
0b
0a
0f
f6
e0
05
07
1b
0f
29
0a
15
08
00
1a
d8
0f
6d
d7
09
07
18
aa
fc
20
dd
ed
23
e3
be
f7
25
e3
f0
04
f4
19
2c
13
f1
fc
f8
27
ff
fd
e6
f9
fa
06
f1
e2
ee
0a
f7
00
05
38
ea
d3
e9
16
04
03
0d
03
28
2a
fa
f4
f3
cd
09
01
14
13
ac
0a
e7
1d
fc
ee
f6
0c
0a
2b
15
06
17
fd
f8
1b
ee
e7
d1
24
f4
e8
ff
e3
22
0e
f9
f6
fb
e7
25
fa
db
e4
2a
1a
f7
23
eb
29
f8
10
df
4c
ed
fe
07
e3
24
06
f6
26
f9
09
ee
d0
0a
fa
ea
11
17
33
d6
11
cd
e0
1e
19
04
d7
ff
f2
fa
38
18
18
0c
02
f8
fc
d4
0f
10
ed
f0
0a
fd
ea
0a
ef
3c
04
ff
0a
e5
22
26
e3
f8
e3
15
0e
29
e5
01
14
3b
d1
12
24
06
c0
d3
ec
0b
f2
18
f2
f5
e3
da
07
fe
0b
f2
25
0f
eb
18
f0
3a
3e
db
f3
e1
f7
09
18
19
01
0b
0a
c2
16
fd
20
18
0a
0c
34
06
fe
01
c5
fe
2b
f0
03
26
16
2a
28
1a
df
f2
01
df
fa
04
e1
f2
42
14
13
08
1e
f9
de
39
1c
01
41
f2
f2
0a
f7
f4
09
0e
f8
16
06
08
06
1b
ec
1d
19
0e
dd
f7
d0
d2
11
d6
12
e7
07
f9
e8
00
de
03
14
1d
f0
02
3a
f4
12
eb
0a
2f
fc
06
cc
f0
c7
05
df
1f
32
09
f9
de
06
22
fb
05
ea
ce
f4
d5
0e
f7
d0
0c
f4
c0
f5
ec
4c
28
f0
55
e7
f9
fd
ed
02
24
f8
c9
13
ba
d6
29
cb
09
06
da
1e
02
1a
e5
09
d9
d1
1d
19
ef
05
f5
ee
ff
0d
03
0e
29
00
0f
0d
c6
16
cd
fb
cc
1e
2b
10
03
fd
11
e1
f1
2a
2f
fd
19
fe
10
06
f7
f1
0a
e1
e4
1e
06
23
e6
ef
3f
d9
f5
db
e6
11
fe
eb
f1
2a
2e
13
e2
fc
0b
0c
f1
22
da
0a
0e
24
20
1c
30
17
b6
ee
eb
d4
1b
d7
07
38
17
23
e7
1a
2f
17
22
11
0e
f0
23
d7
16
0f
09
fd
f9
fb
ee
c6
f7
ee
e9
04
11
15
f8
f8
29
da
e5
e3
06
fe
f8
16
08
61
da
3d
0f
08
0d
19
17
04
1c
eb
27
02
fb
ea
3d
f8
fc
1a
ec
ea
05
18
fa
fb
0e
1c
d4
13
f7
00
16
1c
04
bb
ff
f4
1e
1c
26
e7
04
b0
f6
3e
16
f0
19
d8
0d
b6
10
21
e9
1e
ca
03
14
fb
21
f8
00
05
f0
ff
f3
fa
df
06
0b
19
f7
dc
06
fc
20
13
14
2b
d3
07
0d
f6
22
1f
ec
2b
40
08
0e
1b
f7
0d
04
02
02
32
f4
de
e2
2e
19
fb
df
22
f9
3c
f7
8a
20
01
13
1c
03
e8
e5
16
26
f5
35
08
02
fe
13
ce
de
08
0c
d7
f9
14
2d
00
c5
0b
23
e7
0c
1f
36
f5
0f
53
10
0d
ea
e7
ed
03
31
2a
2f
fd
2c
c9
1e
0f
0c
db
1c
03
ff
02
c4
d5
0a
07
c9
06
d5
23
34
28
e4
e4
cb
27
fa
ef
e5
f4
fc
fb
ea
c6
0e
fe
be
e9
e3
43
e7
d5
fc
d3
26
09
cd
e0
eb
14
0a
e9
fd
00
fe
14
e1
f5
0a
27
eb
e7
11
11
11
13
29
39
fd
f6
08
0d
fb
d7
ee
e1
c6
ea
dd
e1
e7
09
ef
e7
19
f9
18
2d
e9
db
fd
0c
27
ba
15
12
f2
12
fa
f8
e6
08
db
ec
20
d7
07
2c
d0
f7
17
e4
27
0a
46
f7
05
01
28
28
0a
02
e0
fe
ec
18
31
de
19
22
06
0e
07
01
22
e5
27
05
fd
1c
fe
fc
e9
f5
0a
10
08
fe
21
f6
f7
db
1e
fd
04
13
ee
dc
f3
1d
11
ee
f3
e8
f2
e5
d8
0c
e8
fd
0b
10
00
e7
00
01
08
02
f2
f5
ec
ed
f3
1f
f1
ed
fe
2f
0b
f5
04
06
dd
05
d8
f0
cc
2a
31
03
01
ed
02
f8
03
0a
10
27
e3
fb
0b
fb
e3
f6
e0
0a
ed
f8
f5
09
eb
03
19
05
fb
f0
f3
ff
27
f6
f2
e9
0a
f1
10
02
e4
07
1d
13
0b
3c
19
1e
21
e6
44
ec
1e
f4
20
d3
f4
ac
04
0f
f3
fa
ed
f9
ca
fa
10
da
fe
24
14
09
2b
1f
18
f6
37
1f
19
e9
1a
1e
10
04
e6
e9
e7
d7
12
ea
0f
09
18
0f
1d
0f
0e
04
e5
ec
29
14
b3
0c
fc
de
fb
f2
45
e2
04
f4
fe
19
f8
f7
de
f0
05
f6
ee
13
da
dc
01
fa
07
1b
31
f4
01
e5
0b
d6
26
14
da
30
33
1c
1c
dd
03
05
d8
e6
04
15
e7
da
30
df
f9
da
0e
f3
09
09
ef
f3
03
03
26
10
fa
f2
de
b3
1b
0a
e2
cf
14
f1
f5
06
eb
08
e1
db
10
32
12
ed
05
3d
10
d5
ef
27
fc
fe
df
c4
21
2c
19
04
cc
f9
3c
08
15
d1
f3
d4
04
1b
06
fb
e0
0b
ef
f3
0f
e5
ec
ff
b2
0b
c3
eb
04
02
ea
09
d7
f3
f8
f0
27
d8
02
fb
0d
35
2e
1a
f0
fc
20
ea
07
e2
ec
31
21
eb
38
c6
ce
dc
e3
f6
26
f4
f2
fa
fe
13
28
d2
fa
cc
12
f9
48
dc
13
1c
0e
22
16
c5
2a
e7
15
1f
24
0c
f7
09
0f
26
12
ea
1d
17
01
e4
0f
04
32
06
09
e5
23
03
f4
11
08
f5
e4
f2
1b
19
04
cb
18
15
fe
02
df
3b
2a
ec
e8
0b
ed
da
25
fc
08
d8
f9
3b
23
17
1f
0b
0c
12
16
16
21
00
32
05
fb
f8
2c
22
1b
fb
f4
02
f4
21
e4
e9
24
f7
13
1c
ec
de
e0
0a
ee
24
1d
02
df
1b
ce
33
0c
04
1b
13
f0
1d
f9
df
0c
12
d2
d1
0f
19
ed
26
f0
fc
01
03
e7
11
2e
11
1c
13
e5
dc
0c
f0
1e
fa
ef
f0
e2
14
f9
f0
39
da
02
0c
f6
ff
fd
e8
01
ef
42
f4
1a
17
0f
ec
17
df
f8
fb
0f
32
04
06
09
fb
ea
c7
ea
0e
ec
fd
e1
05
d0
f9
ed
c7
33
07
cf
eb
08
15
12
ef
eb
ff
ff
df
e9
0f
fb
20
38
fc
e4
09
3e
29
eb
23
ee
28
23
fc
e5
f0
08
4c
f8
1b
fd
0c
0d
f6
ed
1d
f0
ea
09
ff
da
3d
01
17
d9
06
17
20
ea
f2
09
f8
0e
f9
33
00
07
e6
38
17
07
d1
d7
e1
00
0c
ed
db
f9
f9
e1
1a
10
ed
0a
f7
c9
dc
11
05
d8
fd
f4
19
37
11
01
d6
02
24
ec
06
ee
d2
3f
d0
1d
25
14
0c
01
f3
fe
18
1c
0f
12
19
27
d4
f4
dd
0c
2f
d5
e7
ff
0b
f8
13
2f
04
e7
52
c7
ea
05
f5
e6
09
d5
fb
fd
d2
e2
40
f4
21
09
d9
08
ea
f2
f2
09
09
bc
ff
01
f1
fa
1a
08
28
09
e2
01
01
ff
30
ed
1c
0e
14
ca
fc
0e
01
0b
ff
02
de
00
01
05
02
f3
ec
e6
d7
b5
04
e5
01
fd
d7
0c
1e
f8
d7
fd
06
d6
28
2c
e1
23
1c
1b
f8
29
f6
21
23
e5
ee
fb
ef
fa
19
1c
46
ee
15
e1
15
15
0c
15
de
29
fa
fd
01
1c
06
df
db
e9
16
f4
df
2a
ea
00
04
05
38
2f
01
05
c9
08
2b
07
14
f4
16
e0
f9
fc
08
c1
04
d1
00
ef
dd
db
18
ff
1a
f0
fd
17
07
f7
cd
34
de
ea
20
f6
fe
fb
df
09
23
d9
02
69
e0
fd
f4
fe
f8
ee
dc
f6
3f
0e
22
11
e3
0b
0f
f7
d4
d6
fe
fb
24
0b
0d
13
16
d0
fc
16
da
f7
18
2c
ee
e4
f2
d3
20
11
ea
0d
fd
0c
d7
e9
01
d8
14
15
15
fe
1f
02
ec
04
f5
3b
f5
23
01
d6
00
de
2d
f5
28
09
da
fb
fa
da
10
ff
df
02
19
0f
ef
12
ee
0f
db
2f
ec
08
1b
fb
cc
f0
e6
1c
11
33
0f
e8
0d
dd
fe
0a
2b
f0
2f
13
e2
f3
0b
e4
2b
ff
f0
1f
13
e3
0d
08
0e
18
0e
e9
0e
f2
fa
00
07
da
d0
f5
18
26
10
ec
de
04
db
cb
f0
03
fa
06
db
e7
ef
f0
0d
12
12
f8
07
e0
dc
f6
0e
c4
fa
f8
0a
e2
ec
13
fc
f5
de
f0
d2
db
04
cd
fc
df
0f
ef
21
da
f4
fd
e0
1b
0e
d7
11
f0
10
d2
0c
03
07
09
0e
fb
db
33
16
bc
d9
fb
fe
ea
0b
0d
f0
cf
2b
f8
d8
d4
e5
05
cb
f8
ca
da
2b
0c
9a
e0
1f
00
0e
f3
f4
d8
de
ab
da
f7
ec
0d
05
23
fe
0c
ed
d5
e4
e4
19
fe
cd
33
08
f0
09
0b
ee
fa
15
15
fc
cb
0c
f4
05
c6
c7
0c
16
df
c6
11
1a
2d
18
e6
ec
1c
06
ef
19
13
13
ec
26
fd
e4
fe
de
ea
1b
fc
0e
0e
c9
07
de
30
f0
f6
dc
0f
eb
df
eb
03
02
db
19
f6
31
00
d4
3e
02
23
0c
1f
09
00
f5
f4
15
fb
1c
17
07
11
f6
09
1d
42
08
0b
fb
02
3c
13
14
fc
dc
f1
e4
0e
fb
26
07
d2
e7
29
20
10
09
16
e4
09
0b
0d
f6
1a
04
df
06
07
16
e3
e2
0f
fb
3a
0b
d2
d7
0b
ea
20
fd
08
08
e6
e3
e8
16
06
f5
fc
09
ea
ea
cb
0f
15
f9
e7
00
eb
e6
f4
f5
c2
10
f9
f6
1d
09
c7
f0
e4
10
e8
27
f8
ee
f7
04
e5
de
08
e2
0e
3b
e5
14
16
3a
13
12
f4
14
0c
ec
bb
ec
0b
15
f9
d0
f5
07
e9
c7
eb
fe
f3
ec
e1
fd
fc
23
fa
1e
f2
df
2a
0c
2b
d0
f2
1c
07
e3
d0
14
06
f2
f9
26
cd
16
d3
26
2e
14
f3
14
05
fd
17
e7
ff
fb
fe
ea
08
31
d0
0e
09
db
e0
e0
cd
1f
e5
03
fd
08
01
d6
ed
fa
f8
ee
18
ee
1b
0e
ff
0d
f0
f1
0a
1a
00
1d
19
21
f5
e6
c6
38
ea
fd
2c
e5
db
15
e2
ea
1e
db
2c
f8
ef
04
31
03
fd
21
e7
0d
f7
bf
f3
fe
ef
fa
0d
0b
ff
ef
fd
13
e6
ed
d0
3b
cb
d2
1d
fd
0e
01
f3
2b
f6
fd
0d
ee
16
21
12
e9
1b
1c
f5
d4
d9
f9
39
19
e2
0d
fa
fa
df
eb
17
fb
25
ec
03
14
06
1f
d0
15
13
e8
17
f7
d5
fe
e9
09
34
2a
03
03
0d
1c
f9
dd
20
de
fa
06
2b
1b
0c
d7
d1
ed
c7
e5
fb
ed
fd
46
09
02
f5
e8
f9
cc
38
10
f7
e1
e8
13
fd
ed
17
fd
f1
30
1c
e4
1d
ec
dd
09
15
0c
ff
28
2a
f5
08
e2
21
01
06
f3
31
dd
04
b2
f8
01
ca
f4
db
1c
fa
f8
fa
cd
db
de
06
1a
d8
12
e0
00
e7
2e
00
d2
df
dc
ed
ff
fb
fd
03
e1
04
f9
fd
15
d9
0c
fa
f1
1b
fc
1d
ef
04
09
0d
f6
e4
f2
04
e8
22
e0
db
18
f7
18
13
0e
2f
1e
0b
fa
1d
27
eb
20
ca
1b
ff
f8
0c
01
f5
fb
03
0c
00
fc
fb
f2
2a
a6
c8
cf
18
28
1e
f3
02
03
e0
c8
08
dd
f5
f9
a3
fc
ed
14
f1
f4
e6
1a
37
fb
04
0f
f6
ec
d3
d5
0d
df
ed
26
d4
ed
16
0b
ff
1c
2c
f1
fa
00
bd
fd
4a
11
08
d9
e7
ec
f2
f5
f1
10
f2
02
b8
e7
ed
e8
04
2c
e9
14
2e
ec
f3
e7
08
ef
e9
15
bd
15
01
07
d0
19
fb
41
19
dc
f7
15
d2
fc
01
fb
08
0a
e6
28
03
e1
15
14
de
02
0f
fc
f5
33
dd
2b
f0
10
bc
fe
c8
12
18
fd
06
e5
e1
01
15
e8
14
0b
f7
bd
3c
13
e2
1f
ee
de
e6
21
fb
09
f8
0f
1b
07
f9
0f
fd
f5
10
fc
15
0d
ee
0e
f9
f5
d3
29
09
ea
2b
02
0a
25
c9
1e
e5
0b
34
32
df
f0
fb
0e
ec
d9
f4
df
de
ef
20
03
00
10
e3
dc
01
0c
ec
e1
20
0b
1f
0b
e7
d3
ee
36
1e
ea
08
f7
ba
01
ff
02
e5
ee
1b
25
ed
32
17
0a
0a
12
0c
f1
ea
e3
13
f4
0f
13
e9
12
d1
eb
0c
23
ed
e7
13
1f
f9
4e
16
18
e9
0b
39
0e
02
0e
01
20
3b
ec
09
e2
1b
2d
13
f7
1a
d6
f0
fd
15
18
10
0f
f7
18
26
03
f2
fe
23
e0
f4
12
1e
fc
1f
04
12
11
18
0c
ff
f3
f5
f0
07
ce
1b
2b
10
e6
00
fb
d3
d4
13
c1
0d
f2
e7
2e
05
26
e9
fe
f8
2e
dc
13
21
e6
04
0b
f3
ed
09
2f
1b
2b
38
23
ea
38
17
08
1b
18
f7
1e
e9
0d
15
17
0f
08
f0
e7
16
fe
23
bf
fe
fb
e9
16
48
ef
e1
2c
01
ef
23
24
ff
d5
00
e5
0c
13
e0
03
fe
f8
3a
13
ef
f3
f5
06
08
08
d9
07
13
06
db
0b
fb
fb
fa
e3
d3
e2
c9
d3
2c
41
fb
ea
e2
3b
e5
1a
f9
0c
cf
fe
0f
ea
f5
16
2a
05
f9
fb
e5
f5
09
1a
da
0d
f2
f0
0b
08
07
04
0a
12
d0
0f
e2
10
d5
0d
d1
29
13
de
0f
1e
12
31
12
0a
2f
20
ff
e0
05
ef
20
c0
0d
d2
33
37
32
00
11
fc
e6
08
0d
34
1e
ce
05
ff
0b
eb
08
fe
10
30
f5
f4
f9
21
d4
ff
c7
1d
04
19
f4
e9
0d
07
10
ee
e8
d5
f1
e2
49
d7
cf
1e
d5
16
0a
1e
f1
f1
e8
0d
0e
18
0e
0e
e4
eb
10
f7
03
1b
38
ec
20
04
e3
1d
05
0f
f0
1c
e9
0d
e1
fe
22
03
d2
ff
2f
07
27
f2
00
0d
12
0e
26
0e
26
02
f7
fb
24
07
04
f1
17
46
f4
18
cc
fc
fc
f6
bf
0a
da
f6
f3
03
dd
ef
ee
1a
35
27
f2
fb
f7
13
14
d2
11
e8
d4
11
1d
ec
dc
13
f9
1b
0c
0b
f5
27
fa
1c
e2
ea
d7
22
f0
ff
ff
12
f1
ed
27
06
ec
28
fa
0f
ea
00
ff
e8
1c
0e
de
f2
f8
e3
ca
3c
d4
33
51
f1
05
e9
1a
04
f4
eb
f4
22
fe
f6
1c
de
ff
2a
b3
29
16
18
ff
1a
fb
12
f0
12
e9
f0
0b
0a
00
07
06
d5
0c
f8
0a
e8
24
09
11
d8
ec
fc
0d
f0
f5
e9
11
fa
34
b7
3e
12
fe
29
f1
15
fe
2f
e4
ed
ee
f7
06
d8
00
f3
f4
07
12
e6
13
04
d7
bf
f5
03
02
0a
dc
e0
c5
13
11
f2
f9
03
e0
35
f9
d0
43
15
e8
1c
22
0a
08
2a
03
16
cd
20
e1
e8
f4
11
e3
fc
f5
2d
fb
31
01
0b
ef
32
f3
f4
0e
d4
13
00
ef
0d
05
ac
fc
13
ee
02
c8
ec
3c
05
17
f6
f9
de
eb
06
14
e8
1e
df
33
08
d8
28
08
fa
f1
fc
02
e9
fa
e6
06
0c
fc
9f
08
22
c7
15
04
f1
29
13
ce
dc
e9
04
fb
f9
f8
38
f0
b0
2f
30
e1
02
19
20
ce
dc
07
f6
f5
37
e7
1c
18
eb
f5
0c
ff
de
db
02
f3
02
eb
fb
df
f0
13
01
ea
f0
0e
fc
ef
16
04
0a
f4
11
de
d0
2b
e4
ec
13
ee
2a
01
0c
1b
0e
e5
11
c9
07
01
0d
0b
02
20
ea
f4
1a
b1
e1
30
d5
e5
1b
1e
06
fe
06
fc
47
e8
05
0a
e4
14
e2
09
07
ec
fa
01
01
19
f9
33
d8
29
d1
06
17
e9
ce
0a
fa
fb
f3
0e
01
f8
fd
fb
02
23
15
0f
dd
f7
fa
fc
20
d4
f4
d9
e4
09
e8
20
d9
38
0a
f8
1a
2c
2f
c5
03
0c
dc
2c
24
09
0b
18
e4
fa
26
10
eb
10
e5
f9
12
fd
15
1c
35
2a
0c
07
f0
ea
06
12
e5
17
21
df
02
ff
f1
ee
db
03
fe
d1
31
fd
f3
1b
09
f3
cb
18
28
11
eb
0d
ef
04
d1
53
1d
11
f9
02
c7
f7
e7
1a
02
dd
2e
0d
fa
c9
25
ff
17
1e
1f
20
16
18
0c
17
e3
17
0b
2a
ed
df
0b
ff
0d
d4
e8
ee
0b
fd
28
c8
13
e6
1e
f6
08
df
17
e1
03
f4
ea
0c
f3
2f
d1
16
14
07
ec
e0
b8
06
19
0c
d8
d9
24
17
19
08
00
16
fe
fd
09
f8
fa
31
1b
ec
f2
37
0d
16
17
ff
ee
2b
c3
d8
d0
e9
1f
e2
d0
f4
d4
d6
01
28
eb
2e
11
1d
10
e2
10
e6
10
fe
fd
0b
16
09
01
db
ae
19
da
31
d8
11
09
e8
ce
ed
17
0a
ef
e8
f5
ee
ed
e7
ff
0b
0b
19
25
2e
27
10
00
01
df
fb
2a
ee
0c
04
e4
07
03
1c
fc
05
fb
1c
21
00
19
cc
18
ed
12
0b
fc
fc
f2
12
1c
e2
f7
0c
db
0e
f6
00
03
23
ec
14
1f
ec
1b
fd
d9
e7
e7
03
17
03
d0
34
02
20
f5
1b
0a
f5
10
1e
2c
15
11
d9
12
23
15
fc
ff
14
dd
f7
0a
e0
f7
fa
e2
36
12
0d
06
17
1a
fa
d1
19
30
fe
10
f4
fe
34
13
1e
4d
f3
fa
ed
ec
2d
29
d0
22
1b
f8
de
e0
c9
f6
26
11
0a
d4
16
15
11
f1
fa
19
f1
d6
fd
fe
f3
fa
20
09
20
00
17
e0
fe
20
43
10
04
1b
0a
14
de
fd
f6
fb
37
e4
26
ef
fa
31
fa
1c
1d
e0
40
2c
d8
e5
d9
00
d3
e8
0e
ed
ef
48
0b
1e
ff
e8
f3
15
20
e2
2a
12
17
34
f7
26
06
e5
14
14
20
1b
1c
0c
e4
1c
0a
fe
2d
1b
e5
07
12
d6
ee
e9
15
1e
1b
26
05
c8
09
10
1a
f9
d4
2e
32
10
17
03
fb
13
ff
db
f0
ed
26
ec
cf
0b
e6
f0
fe
1b
ea
0c
ee
01
f4
0d
dc
08
16
02
03
1e
0f
f9
19
ec
1e
c2
11
10
19
fa
0f
49
15
f7
ef
fd
fc
f8
fc
1d
03
cb
42
13
19
ef
01
01
24
ee
d3
e5
2e
da
0c
d5
fe
04
dc
e5
f5
2c
ea
f3
0e
08
d9
12
22
cf
f3
e3
db
e2
04
25
cf
f0
0c
2d
ec
e1
e7
02
15
ee
dd
f8
1f
e3
1f
15
19
1b
d7
15
21
e5
f9
ee
11
27
e9
e2
05
fb
d2
eb
23
0b
43
be
f9
fc
15
05
14
e5
f1
f1
f3
de
d4
19
02
07
14
dc
25
e4
db
23
33
f7
eb
1b
14
04
f2
10
11
2e
32
d2
04
0e
06
06
19
f6
e8
d2
fd
c3
01
dc
27
2d
34
02
0b
ee
00
07
e6
ec
fd
16
f2
ff
02
fd
f2
e3
11
dc
ea
19
ee
31
f3
e8
08
28
f6
0b
df
df
e9
f2
f2
0a
44
0a
e5
e6
fa
04
15
e2
06
32
de
ff
ea
11
cf
ea
4a
e9
06
15
ef
25
ef
f2
ff
28
f0
e0
29
f4
e1
1c
12
00
d6
d6
ef
cf
0d
12
0c
05
f0
c8
1d
04
05
f3
f8
02
13
f8
0a
35
d9
04
e7
0d
02
3d
1a
ea
d0
3b
0a
1d
00
12
ff
3c
28
fb
f9
f2
0c
36
eb
e7
b9
05
19
c0
00
14
10
ed
0d
ea
11
f6
ca
e5
29
17
10
1a
0a
23
e7
0e
22
fe
fb
02
13
0d
f7
1a
e3
ec
e8
1c
12
fa
e8
40
d7
c9
f6
0d
01
05
d2
08
0d
14
e0
f6
f5
0f
fb
1d
e9
0c
0d
0c
1a
04
fa
e6
08
cd
ed
17
ee
e7
0a
20
f6
e6
01
f1
f7
0f
ee
03
18
fd
3d
f6
fd
1f
11
e7
f0
0e
09
d7
e7
0d
e0
2c
05
e9
34
08
d6
b2
0b
da
12
2a
1a
ed
17
e4
df
fc
f9
e2
16
f1
15
f8
f5
0b
05
0a
dc
ff
ee
e2
06
ea
e2
0e
30
e4
0d
0d
ec
18
0a
ea
14
ef
0a
39
e8
0b
4a
04
ff
f1
df
f6
ed
dc
f6
2c
e8
18
09
fa
06
dd
0a
01
19
16
e6
af
df
da
0c
f9
03
24
11
e7
01
b4
fd
f6
e9
1a
1c
25
f0
20
04
0b
e1
0a
05
e8
f0
e3
10
26
e5
01
02
0c
2f
f0
10
09
f5
07
22
f4
1f
02
02
ed
46
1b
e7
d9
03
05
f1
fc
06
05
07
15
13
04
19
f4
07
1c
18
0f
ef
ea
ee
1c
df
f6
25
24
0f
c9
07
ed
b1
f7
0d
1a
2f
15
2b
24
32
06
fe
f6
f1
ed
f4
fe
be
f9
17
de
00
e8
fe
dc
fd
14
00
05
11
1b
21
0b
e7
29
d9
0b
dd
d6
ea
17
15
15
e3
df
15
22
ff
04
d8
18
ec
2a
03
12
28
0e
28
12
02
26
38
19
dd
28
16
d9
f3
f1
fa
f4
fe
d0
0a
b9
ea
0d
09
ed
0e
1a
1e
d4
d5
f0
2c
ef
04
08
08
12
20
e4
dc
25
0c
2c
f6
08
f8
10
e7
ed
ea
f3
07
06
11
01
f4
e3
19
04
e2
06
13
0b
03
e0
fe
fe
1b
d8
ff
3e
da
12
ee
f9
f4
08
ef
04
06
36
d2
24
08
f4
09
dc
f5
14
fa
0f
02
c9
d7
fc
ec
2e
fa
3f
e7
fd
ef
0c
04
00
db
f9
0b
0f
14
f4
0f
31
04
e8
f9
0a
0e
d4
f3
2e
f7
03
f1
e6
ef
07
f2
ef
12
fb
09
04
d9
ea
c3
eb
ff
1a
ed
fa
05
2a
31
14
df
0d
df
1a
26
09
ee
e8
de
1f
fc
dc
28
1e
cf
41
1b
10
04
15
f7
14
eb
f9
0d
10
4f
04
e3
1e
fc
12
08
13
f5
09
d8
dc
ea
f3
cf
fe
fe
e1
10
f1
fc
01
13
02
0d
13
08
01
ff
e0
e9
e0
24
f9
d8
0c
f1
26
1a
fe
10
17
3b
01
2d
49
16
ef
1d
fe
09
f6
f7
07
0b
01
0c
dc
0d
ff
f0
2c
2f
ee
06
37
1a
ed
dd
f4
db
f0
12
0b
de
20
c7
27
db
fa
f3
15
e2
f4
f2
ef
33
d5
27
f6
f8
d5
ad
d8
f3
fc
ed
37
f5
ff
20
cf
f0
d7
04
e4
d4
e3
17
eb
e5
ed
08
11
f5
de
ed
ec
11
1f
e3
f5
00
0b
ed
fb
f5
11
17
04
06
de
d5
15
d1
fa
ea
c2
0d
bf
0d
e1
d0
03
f9
cf
17
f5
0d
04
4b
1b
02
09
19
f6
f9
f3
f2
1c
a2
eb
ff
17
ae
13
19
c1
e3
16
1d
0f
f8
ec
4d
ef
06
36
0a
03
ff
e3
fa
e6
0d
dd
23
ed
ff
fe
27
f4
ff
db
e5
ea
fb
d4
f3
0b
fc
da
d2
df
d7
0b
24
1a
c0
f0
dd
0c
f1
f4
31
f5
15
d1
17
e2
1d
fe
0f
21
0c
12
18
f6
e1
05
e9
0f
06
ff
f2
06
18
10
15
dd
e0
0a
14
08
01
0e
09
48
f6
c6
f3
f0
0b
ec
04
23
e5
de
1a
05
f5
2b
11
fb
38
c4
e9
10
ef
fc
15
ea
20
e6
16
36
eb
f4
04
d2
dc
ed
08
fa
12
c7
dd
07
09
e9
11
d2
fb
fc
fa
f0
fb
08
13
e4
f8
0c
f5
11
f8
ff
d8
28
2d
04
0c
fd
f0
f9
01
ee
0b
06
29
1f
ee
fe
12
04
06
df
21
14
ff
15
06
23
e3
1a
cd
0b
04
28
07
07
f2
0b
ec
d5
fe
d4
ff
36
1d
e4
fa
e7
22
f1
fe
eb
3a
11
e6
23
e4
d4
03
09
2e
1c
d7
f2
e1
c6
18
db
f9
f4
ec
23
11
33
e0
ff
e1
2a
20
c0
17
06
d6
c4
1f
ef
f6
28
0d
01
f1
0c
44
c1
c0
26
ff
e4
e7
40
eb
ef
0c
1d
1f
2b
f1
e0
e5
35
02
ff
35
04
14
f2
1c
0e
14
ff
0d
fa
1f
0f
21
18
0b
00
18
f7
06
fc
da
13
0b
ca
07
0e
10
15
fc
e7
0b
33
1e
0d
38
e3
2e
e6
dc
e1
08
05
07
e1
f1
21
f7
f2
00
00
18
fa
06
ea
d9
e8
ff
05
18
d0
f1
f3
f3
17
06
07
45
35
1b
f9
eb
d4
0c
02
12
d6
dc
14
0d
14
e6
0b
fb
12
fb
aa
ef
f7
f0
0c
27
fc
2b
11
15
fc
e2
dc
db
f4
fa
31
1e
e9
d0
06
e8
f8
36
f9
12
35
e4
e7
09
1b
0c
1e
c4
21
04
21
df
bf
01
28
e7
00
e9
00
fb
08
d2
e1
17
fc
e7
fd
19
00
e7
f9
de
0f
e0
17
03
00
ed
fd
35
d7
16
07
d2
03
19
dd
04
bf
14
d4
f8
f3
fe
04
08
e3
04
e5
f8
01
e8
ff
33
f5
d1
07
e8
f2
07
e6
22
15
ea
03
64
e3
e2
1e
19
fa
21
fb
3f
f1
0a
fa
d0
d4
06
1c
34
fb
1d
fb
f1
13
14
f1
dd
15
ff
fc
e6
0e
03
03
ed
05
d6
e4
d1
24
f4
e7
df
be
f6
0f
de
de
f7
ff
09
c0
10
29
d5
f5
f4
d3
d8
e1
ec
f0
21
fb
13
1e
f8
39
fe
fa
f6
d7
07
1b
e9
e0
b9
1e
23
06
0a
e4
e5
13
f9
ef
fa
25
d1
44
10
20
f4
cd
ce
25
f5
f4
de
eb
27
e9
df
ec
11
28
e8
f0
11
e8
c8
f9
e6
07
02
f8
1c
52
ed
dd
0b
f0
04
f6
ec
1e
12
04
f8
f2
f2
27
d5
f8
eb
2c
11
2e
e2
17
df
0d
f4
0f
dc
e8
09
0e
fe
f7
f3
09
05
fe
c6
fe
30
da
e5
eb
07
2e
fd
0d
f1
ef
0d
fb
f3
f0
ea
f3
d7
17
04
ff
1b
e3
21
f3
11
07
cf
da
f5
d6
f8
26
07
db
34
06
e0
03
07
1c
cd
e1
e2
13
d9
dc
3b
ed
ed
15
1c
16
48
da
fd
f1
fc
bb
32
35
e2
14
01
31
14
00
22
e0
2a
14
08
fb
0e
00
19
f9
fb
d2
17
ef
22
e4
0d
de
1b
0d
0d
37
ed
f9
01
21
10
04
ff
d8
12
07
40
16
1c
0e
20
19
f0
05
10
20
eb
21
dc
06
fb
fa
c8
f8
cb
fc
30
f0
07
07
28
1a
14
1f
de
f6
0c
00
04
0f
2b
32
da
d5
f6
ef
e2
f5
cc
f3
f9
17
b7
e2
f0
f8
15
1e
e8
f0
11
43
f9
2f
cc
1e
fb
fb
fc
f4
d9
e9
13
dd
0c
e1
0f
f3
0e
18
17
f7
ca
f4
18
01
0c
11
0b
34
fe
f4
0b
30
15
fe
2a
2f
e4
11
ef
ce
0e
0b
0e
15
20
0b
ed
0e
ef
08
f4
08
ff
e5
f7
b0
f2
f0
08
1a
f4
ef
cc
ec
04
1b
1b
23
f5
30
0a
1b
ed
d3
e8
04
e7
dd
15
fd
f3
00
13
dc
d7
1e
0e
eb
15
e7
f3
04
3f
19
01
14
07
41
1f
26
0b
c9
06
15
2f
fa
0d
13
37
21
26
1f
03
30
29
12
fa
f4
05
f2
2b
00
02
e9
f3
2b
d9
fb
03
0a
04
f4
e1
11
01
13
f1
0b
f2
f0
04
12
ea
ee
e9
e4
0f
13
cb
20
cd
1b
cf
1e
f5
10
09
f8
dc
11
eb
18
f1
03
09
ea
1a
df
16
17
42
04
1b
19
e7
d5
d3
11
09
fc
1a
07
07
e1
f8
2a
d3
ff
07
eb
1c
f2
eb
21
19
17
0a
1f
e8
17
d1
f6
1c
21
cf
f3
f1
db
e4
fe
fd
3e
17
c3
e3
eb
e3
fd
e4
13
d6
01
f4
e3
dd
07
1b
17
fc
d3
31
17
07
fa
00
29
eb
d9
fe
09
eb
30
bc
2d
db
37
17
f3
ea
e5
06
36
eb
26
1b
d2
e0
0b
12
0c
2e
08
f9
ee
ec
3d
e9
11
04
19
1c
db
c9
e9
c1
16
15
98
f9
16
f3
e7
eb
e9
e8
04
0b
ec
dc
0f
da
1e
06
fa
3e
44
fc
0c
09
e6
fc
05
d8
b9
00
3e
fe
fc
10
06
cb
fe
16
4b
f3
da
f8
0c
0a
f2
dd
2e
f1
f6
17
f9
d2
24
e7
fe
20
c5
23
d6
f6
25
f4
fb
fc
00
d4
0d
f3
14
e4
e7
fd
00
ff
d9
18
ea
f6
f9
3f
09
17
d6
f0
f6
e4
eb
30
1e
ee
08
18
06
45
f0
06
e1
e0
17
db
2f
d9
f7
10
02
49
44
d9
da
fb
d9
e5
f2
3b
18
0b
2a
1e
01
02
f1
36
ff
db
f6
e2
e6
0e
e9
f7
e2
e8
e5
0c
f7
1e
12
e5
04
f1
e7
02
f1
0c
f5
23
20
da
f7
c7
2a
15
11
f9
df
1e
e7
fc
de
03
f9
23
ec
dc
df
14
10
1e
d8
3f
27
07
bf
10
fe
f6
25
06
b6
fe
2f
fe
28
ff
20
f2
12
f4
ff
01
23
08
3a
2f
22
3d
f8
06
df
19
13
28
ee
2e
ff
ef
03
1c
e1
dc
f1
fb
fa
f0
e7
c2
f9
e1
f8
10
f9
0a
e4
f4
e7
01
14
df
0f
ed
06
f5
f6
dc
be
05
df
21
24
f6
da
f1
ea
f6
16
08
04
0f
f4
30
e1
f4
13
19
fa
1e
0c
e1
f0
1c
d1
30
39
0e
22
fe
26
0e
03
f8
40
d8
04
12
bf
11
d0
ee
1b
0f
03
ec
2b
da
20
e1
f5
fe
e6
4a
ff
10
aa
e8
df
04
01
c8
12
cb
db
3e
f8
df
10
f7
d5
f4
37
03
06
e5
cc
0d
09
0c
3d
14
d6
d4
f0
de
1c
16
33
fd
e5
0e
1c
08
13
f2
ed
08
df
02
06
f0
fa
fe
12
09
f8
0a
fc
d6
d7
19
f6
cc
2e
d6
fd
01
ea
0b
fc
d6
f0
0f
0a
c4
24
14
33
2a
1d
e8
07
fa
f9
d4
1e
37
e2
02
d6
ee
e2
28
fb
31
03
fb
ea
2b
13
2c
f4
fe
f4
20
1e
19
01
1f
de
06
18
cb
fe
e2
ee
2b
0f
f4
08
f4
fe
c8
cc
f7
b8
ec
e0
fc
fb
da
10
f1
2f
21
16
13
cf
f0
22
db
37
24
2f
ff
e0
f6
1f
fd
df
e2
fc
16
21
1f
17
07
de
28
15
e7
1f
0b
32
f2
fe
08
cb
f9
06
17
c1
ef
12
e7
04
f3
df
01
d2
02
ec
03
ef
fb
da
16
23
fe
22
02
15
ec
f7
f9
32
2c
02
ff
30
1d
0c
36
0e
2b
1b
d2
1f
e9
f2
e6
e3
33
05
16
e8
e8
2d
08
ff
48
c6
fb
01
1c
f7
11
18
dd
f1
d4
06
12
fd
11
ee
01
05
fc
ee
02
1a
ee
0b
15
f5
29
fb
fd
a5
e9
1f
09
f7
1c
25
ea
14
dd
1c
b8
d2
f4
00
f6
16
0c
09
06
dc
23
de
41
e2
0f
05
19
0a
ed
0a
0f
02
00
11
1c
e7
fb
3a
08
2b
1e
18
0b
f0
10
18
42
f4
00
f0
f3
1c
e7
05
35
df
d8
f9
b8
e3
e3
03
ee
09
1f
d8
ed
d4
27
ff
f9
ec
f9
eb
f5
3c
13
e4
b4
d0
00
f2
ea
eb
fe
e0
24
10
f3
03
e1
10
f4
2d
ee
15
f4
19
0e
38
3a
f0
19
b9
09
06
06
08
d7
11
d9
f8
f5
ea
29
db
de
2b
07
01
10
ef
05
05
09
23
fb
f4
00
f1
fd
fe
f1
08
d4
17
f3
04
eb
00
f9
31
24
db
4b
24
ec
b4
08
ec
f7
e4
0c
f9
f6
05
01
d9
0b
01
3f
f0
21
ff
f3
1f
e8
ef
fa
1d
03
0b
fa
fa
23
38
10
0f
f4
e8
f9
0d
f8
03
00
04
25
de
f3
ca
d4
d6
fa
11
0f
c2
0a
16
c5
0e
fb
48
ef
05
ee
2b
b8
e1
c2
39
25
db
09
1e
48
ef
0a
00
d5
03
e7
f8
07
fa
03
18
c5
16
d6
fb
0c
28
e8
09
b6
f0
eb
fd
14
0e
18
00
0a
f9
05
17
f3
11
24
04
27
1f
11
d1
f8
0e
e8
2d
e9
d3
0d
0c
1a
13
fa
fb
25
ef
f1
1f
13
f2
f5
15
df
11
fb
1b
0b
38
e6
f2
2a
15
0a
3d
e3
fa
e8
22
fc
4b
23
01
be
f6
e7
fc
05
1f
eb
3a
f7
07
fb
07
14
0a
07
fd
1e
1f
2a
0c
f5
f5
fd
df
f1
f8
0a
f5
01
06
cb
5a
35
f5
b3
ea
dd
16
1a
da
e7
19
01
fd
2e
ee
23
16
4b
06
04
ec
3b
07
22
f7
19
fb
f4
07
f5
fd
30
03
e6
11
c7
ea
11
ea
19
08
ef
10
18
25
03
0b
0d
e8
c6
28
03
fa
41
2d
fe
2d
ef
19
dc
e2
e9
40
df
f5
05
30
ea
e0
1b
1f
1c
04
ed
d3
ff
e5
05
fe
34
19
02
08
e8
f0
f6
f8
02
13
22
ee
10
18
f7
12
02
ff
21
25
f0
12
05
cd
c2
23
14
28
ec
e6
c7
d2
05
d4
12
ec
e0
ed
35
27
12
f3
1b
0e
1c
0f
1d
17
e4
09
2d
ec
04
44
24
3f
1d
27
e5
d4
07
24
ef
f0
e8
35
05
f9
e7
d7
de
20
15
dd
fe
28
27
0f
ce
fd
21
01
e7
e6
f7
ff
18
02
1e
f8
e4
0f
12
e6
ea
da
10
38
f6
2a
fe
e2
14
ec
0e
0f
15
fb
04
eb
23
21
ef
f6
f4
f6
f8
de
d9
d3
f3
14
eb
eb
04
1f
0e
09
fd
f1
0a
25
2b
e7
e2
df
50
27
3a
1d
f0
0b
22
16
f7
f1
ef
d8
f2
f5
07
3d
2a
f5
f4
0f
e3
ef
f6
27
35
1d
04
00
d6
19
05
09
f3
19
11
e6
bf
fb
e2
13
ea
e5
f2
0f
12
0b
33
d9
0e
f2
01
13
bc
fe
0e
fb
fa
02
f0
1b
14
ee
f8
de
ea
fe
0d
da
44
ec
ea
0d
03
19
f2
05
24
20
06
1a
d2
33
e1
d7
18
14
13
c7
0f
0f
15
bb
e0
f8
28
28
ef
d0
0d
39
03
eb
f2
10
3b
df
02
04
f9
21
ec
ee
10
bb
e1
ef
cc
2e
fb
ec
29
1b
f6
35
1c
d0
e5
f1
ec
04
1a
dd
ff
0b
f3
e4
da
07
20
de
03
f3
f6
16
1e
1e
0b
e7
d6
02
01
eb
01
1a
0e
0c
04
f4
0b
06
c7
14
00
18
17
08
18
fc
04
1a
d3
fa
1b
d9
01
10
e8
fe
ee
f8
04
21
fa
25
1e
00
1f
e4
0d
21
f6
ed
1a
10
19
0a
b4
2d
ff
16
eb
e8
cd
08
e8
1e
23
15
ee
dc
ea
fb
e0
2b
0e
c4
1e
fe
da
04
d0
db
06
27
fb
1b
cc
00
13
19
dc
e5
01
0b
21
05
44
24
f6
f4
f5
f3
2c
32
19
fa
e2
14
d9
e5
20
e5
17
1e
f4
e3
e0
fe
f4
f7
22
13
fc
f5
f1
1c
06
e2
16
1a
18
ed
03
13
f1
f3
0d
e8
06
f8
27
03
ef
c8
f4
c1
16
d8
0d
07
0c
05
fc
27
17
23
ff
06
27
ed
26
09
32
08
cd
e6
17
da
0d
f6
f4
00
e9
e1
fe
fa
27
13
ed
e8
e6
f8
19
1a
2d
ed
19
01
f4
ec
f4
ed
19
f6
ec
16
db
29
d4
0d
1a
14
17
e2
ff
df
f7
15
f7
1d
06
01
13
fa
ff
e7
0c
ef
fd
43
d8
ef
ff
cc
09
1c
24
3b
19
1d
1c
fb
dd
dd
c7
ff
fa
12
c1
de
f5
36
d7
22
18
d5
fb
e3
d8
fd
ed
d7
f7
14
f7
05
39
ee
f8
f4
f6
35
13
fd
0c
03
ec
0b
22
d8
f9
01
ee
dd
da
f0
f0
08
59
dd
e3
ce
18
10
e9
33
02
f4
0e
1c
ce
cb
cb
10
13
1f
13
0c
c7
c5
15
0a
17
1c
17
10
eb
10
b8
26
2d
fc
f6
fc
fa
0c
ed
fa
10
06
ff
3c
e2
2b
f9
e5
f4
08
e0
df
f8
f0
fb
10
d8
ce
12
0e
db
ec
d9
fa
06
14
ff
0e
2c
40
e6
48
cf
2e
1b
e2
0d
31
df
ca
58
1e
2e
0a
f7
ee
d6
d0
e6
12
18
f9
09
0a
36
f5
06
00
1b
e2
1d
46
1a
07
07
0a
e1
fe
f6
d7
e7
eb
3e
0a
f4
fd
32
02
d7
f4
0a
0b
e2
1a
0f
24
fa
05
05
0b
0a
15
e4
f3
de
20
fb
cd
e5
ee
10
1d
e0
ec
15
cb
f9
e8
e1
0c
0a
00
ce
15
da
e3
10
e7
36
f6
c7
1f
d7
d4
09
fc
fb
00
04
f6
01
fd
eb
ee
05
f9
0f
0d
18
cc
1e
05
fc
14
0d
c5
0e
f8
f5
3d
c5
03
1d
e2
19
e5
fd
e0
36
c1
0f
f3
19
fd
01
dd
da
fd
f5
16
22
1f
e9
37
07
2b
d7
05
ff
eb
1d
fa
16
df
e2
0f
ff
10
00
e9
1f
dd
05
1b
e5
24
ed
28
29
e5
15
0b
d9
26
f5
f8
2c
15
00
ff
f9
00
fa
18
28
04
f0
d1
ef
16
28
2e
01
ef
e5
01
01
4c
03
03
be
db
d8
eb
04
18
0a
03
11
eb
15
28
fb
dc
15
ed
1f
ea
f5
e5
10
0e
f9
e4
ea
0b
d2
e7
17
f1
04
f8
1a
ff
ef
f1
f9
ef
15
f8
2b
2b
e4
1c
e8
11
01
1f
f7
f0
d4
0f
fd
06
1d
df
01
f0
22
ff
f4
39
eb
0f
f5
20
05
18
cd
20
06
f7
f8
07
27
f7
e2
07
00
06
3f
1c
f6
fd
f7
de
35
f3
e8
f4
06
d3
e0
21
be
03
12
07
48
19
0d
f5
d1
f5
e6
e8
12
13
25
e2
17
da
fc
0b
0d
dd
f6
03
ea
fa
e9
ee
f3
f8
29
e3
1a
fc
20
ff
33
48
fe
da
e9
15
3c
1e
d9
2e
f6
d4
f8
dc
06
ed
1f
1e
d4
00
27
11
12
09
0e
06
47
cb
01
f5
10
f0
fe
e5
d9
03
d0
ce
16
23
0f
0a
ed
3d
fd
3d
1c
11
1c
e1
44
f7
08
3f
08
1f
15
0f
15
18
f9
2d
f7
cd
d5
d3
13
1e
03
03
e9
fb
c1
0a
e8
eb
f4
0d
10
06
2d
f6
dd
17
29
00
fa
fb
ea
00
ee
1b
d5
ec
de
11
ef
e7
f6
0a
d2
0d
03
f5
20
f3
1e
1c
07
fe
41
e6
04
fc
fb
16
21
3a
13
29
1b
0f
25
d6
1f
fc
0d
f2
23
e0
31
18
f9
fe
17
1a
27
c7
fe
18
21
11
0b
ef
17
f5
13
e3
04
08
d7
32
46
bf
cc
18
07
ef
ed
06
42
29
04
06
f7
39
f9
11
24
ea
22
1d
1c
ff
e5
d2
f0
39
fc
0b
e6
08
1f
d9
01
e7
29
1c
be
fa
20
11
12
10
0b
0e
ff
1f
19
c5
16
2c
f9
08
ff
3c
f3
06
cf
fe
25
e2
f6
06
35
0c
ee
f5
04
ed
dc
29
ef
00
18
e3
0c
03
18
e9
ce
e1
fc
10
f1
f1
15
d4
1b
fc
df
e0
f4
1c
26
d8
17
ef
2b
1a
21
f7
07
0d
c5
1f
08
e3
1e
09
fc
29
f2
dc
23
f2
e9
10
25
1a
04
18
3c
f7
1d
0b
0a
0f
e3
15
fd
08
f6
07
1b
d4
f3
1e
06
db
14
0f
f3
da
e4
2f
ec
12
26
fb
f0
10
d2
11
fd
1b
ff
0e
36
d3
d0
0e
f4
d4
37
ee
19
24
db
d0
2b
da
25
04
13
da
e4
ed
01
e3
cb
0f
e5
0c
12
e4
3b
1f
19
29
07
f8
f0
fa
f6
03
cd
2b
c3
06
1a
30
06
0c
e8
30
17
b5
0c
16
ff
ef
0a
27
15
ec
27
0e
eb
c0
1b
02
1c
d9
e9
f3
f7
0d
0a
e5
02
2d
3b
f8
f8
04
f5
e9
23
ff
dc
b5
31
f6
09
f8
bf
27
2f
e9
22
0f
f8
f8
1f
24
0f
fb
e5
1d
17
03
1e
03
f8
d6
c8
e5
2e
d8
07
0d
2c
07
d5
d8
07
f8
36
03
06
08
02
20
c9
ff
38
ec
f3
1d
17
df
14
ed
d0
e3
2f
26
09
ee
19
12
e8
e7
e8
e5
e4
de
13
fe
17
ee
ec
e5
fd
05
39
0c
00
2a
f4
15
11
04
f2
ec
05
fa
eb
13
e3
47
f1
15
f2
e3
f5
c5
26
0e
02
f0
42
ff
05
e1
ec
fc
25
ca
f7
f8
0b
ed
fa
12
d3
f2
c4
35
e5
24
da
dc
28
1e
f2
1c
ed
28
0e
c1
ed
06
2b
13
d1
cf
1b
d2
60
37
1a
0a
2a
e2
08
09
0f
24
1e
d7
02
c8
f9
f3
0e
e8
f1
fc
f7
10
26
22
0c
ec
21
32
e1
f0
15
08
fe
03
cd
e7
e8
0a
f7
10
c4
12
15
23
fc
f5
cf
06
94
ec
fa
f8
d0
05
f0
de
06
33
ff
04
f9
0e
fa
33
0d
e0
14
f6
1c
13
0f
0d
d6
5c
f8
ef
2c
2a
f3
20
e4
05
0c
ee
13
f5
ed
dc
2c
db
08
fb
cd
0e
00
f2
08
f9
e3
01
fd
fc
29
0d
f5
06
18
e2
e6
08
05
df
eb
44
18
e0
f1
c0
21
d2
e0
ec
be
07
1a
06
2e
0d
0d
bf
ed
07
03
04
13
1e
f8
c6
f3
de
0a
f5
1f
f5
1f
05
f8
35
e9
fa
19
2e
14
0d
f9
09
1b
1a
0f
df
21
14
ee
db
0d
da
fc
d3
f8
14
0b
fc
eb
cc
06
0e
f9
14
0a
06
c7
0c
1b
fe
e1
1f
fd
dd
ed
20
01
0e
05
fe
0e
e3
bb
06
cf
fc
fc
1e
eb
02
e4
e5
ce
f5
0b
dd
33
d1
f8
0a
ec
e4
fd
e5
b9
f0
13
c9
c5
e0
f7
09
ed
11
f4
e7
08
01
30
df
e7
e7
da
c5
d9
03
d2
1d
f0
d4
fc
fb
01
e8
e3
fe
13
c6
1d
f7
10
31
0a
df
fb
ca
d5
07
f7
35
e4
27
fb
f2
18
21
00
e1
ce
fa
ee
0a
e7
36
f2
07
07
f2
e1
13
ee
e1
ec
18
06
03
b8
f5
05
f3
ae
f7
cb
f0
0f
17
15
e5
0e
f0
e9
d3
d4
11
03
d3
05
fd
f4
d3
0f
e0
05
19
07
03
c2
fd
fd
36
0a
03
19
0e
05
dc
ec
f8
10
22
35
02
34
f8
0c
f4
2d
f9
0d
d9
d9
0a
db
e9
0c
d8
0d
0a
f5
22
cc
34
e9
c4
e8
11
0f
fe
35
0c
d8
05
0f
f9
f5
1e
ef
01
fd
e5
fc
e4
07
00
e9
e5
2c
0e
f2
05
12
e9
f9
2e
fe
15
00
13
13
02
17
13
1f
d6
14
fe
14
2c
18
1b
fe
1f
02
ca
17
e9
1a
f7
f4
10
15
08
dc
df
07
1d
e3
09
01
d0
f4
f4
20
fd
2c
14
00
0b
05
05
f8
f1
e0
0c
3b
dd
f7
2f
0b
f0
20
f9
00
ec
16
2a
01
13
38
fd
0a
07
b4
e8
f9
d4
0d
13
04
1b
03
fc
04
16
15
41
fc
64
e1
fa
ff
09
0e
f1
08
ff
0b
fb
e8
da
dc
df
08
e9
0e
e7
ff
f8
d1
00
f5
0b
33
04
20
e7
06
0d
24
e2
07
17
04
0b
04
f7
20
fc
c9
2d
15
e1
ef
d1
d7
ff
df
08
15
0d
1b
ff
fc
16
fb
fd
2d
f3
d7
18
f4
f0
f3
f5
fb
37
fa
50
e5
ed
d9
14
09
1a
1c
f8
ff
ca
f1
f0
0a
e1
e1
1e
da
c4
16
f5
fa
0f
0a
12
19
0e
30
15
23
d6
e5
e5
e7
07
fc
eb
19
08
b8
fc
f2
db
f9
1d
21
1c
fa
eb
e2
fd
f2
e9
f7
12
0c
dc
09
ef
e5
e4
20
09
da
f1
0e
0a
e9
fd
eb
cd
fe
fe
fc
1f
ff
ce
f9
30
15
16
e0
04
34
16
28
1b
f8
1f
0e
05
f8
fe
01
0b
ff
0a
13
fe
e7
16
16
01
d8
ea
e6
24
22
e6
09
24
d9
e8
de
ff
ff
dd
30
1b
06
29
1e
2d
f1
1f
1c
05
0a
24
dd
ed
32
ea
00
fa
28
18
0e
0f
21
33
d8
24
ef
fb
16
ec
d7
fb
3a
fd
e7
14
04
09
05
04
26
16
f3
f9
20
da
de
f3
05
01
ef
01
11
f2
f5
f8
10
19
fc
14
28
28
19
25
09
1f
24
11
eb
f8
d8
1c
0c
1e
03
0f
e8
17
d8
e5
e9
10
de
16
a3
2b
eb
f6
2b
f6
e1
cf
dd
35
13
d9
ff
f1
fd
02
06
ea
fc
d8
eb
df
17
4a
33
16
fb
30
2e
1f
d0
0f
34
ed
25
ff
04
f8
2b
21
ff
ee
e1
e8
d9
f7
fb
02
e9
1a
13
d6
29
00
03
23
f3
04
06
09
3d
d7
07
09
dd
ee
1d
10
12
f3
04
d5
00
f2
f8
e1
cc
f7
05
e8
f2
10
0d
f6
e9
ee
19
13
05
e7
1b
fa
28
e3
f2
12
02
e2
e8
ee
01
00
05
14
12
0b
e2
0e
1f
f9
dc
c3
17
12
16
18
23
1d
20
03
c1
15
ff
fa
e3
09
fb
cb
f3
fc
f9
cb
e3
ef
db
1c
08
0f
20
fd
ff
fd
05
c1
1f
f9
29
15
21
f7
0c
e8
1e
f4
d4
f9
0b
db
0f
d5
09
26
f9
0c
0c
f9
21
fd
11
c7
cf
2b
35
0b
13
ee
19
e5
37
24
ee
ea
1f
cf
27
d4
0e
08
0b
0e
0f
41
23
ea
ff
18
12
de
d2
01
f9
dc
22
33
40
f7
f7
1e
cc
eb
0a
21
f9
20
0c
ca
e5
df
04
f3
17
d6
1b
ee
f0
2b
f6
32
02
20
f7
44
00
14
dd
1f
f6
16
d4
e8
39
ef
00
03
10
02
32
d1
f4
31
fe
1d
f7
0b
bf
0c
01
19
e7
0d
07
f9
07
f6
10
06
d8
dc
03
0b
d9
2e
01
1e
da
08
09
ee
58
f8
a1
f9
b2
de
f3
1e
f0
02
33
07
16
1d
04
da
e1
f8
1b
0b
06
f9
2e
f3
00
0c
15
1e
13
d6
fb
04
d7
0d
f8
18
f6
19
15
f8
f0
20
f3
3f
23
dd
3f
26
03
f3
f6
26
c5
0a
c7
07
0f
2c
08
24
0c
dd
fb
0a
e6
bf
0a
f4
f0
f3
24
0e
01
0b
01
05
01
fb
ee
15
06
05
17
e3
d4
ea
fa
14
27
ff
14
4f
06
da
e2
f8
fd
1a
0f
e2
f9
3b
f4
e3
f7
e1
f1
f3
ee
d5
06
29
fd
0d
da
f4
e8
f6
15
fd
1c
0c
f5
f8
dc
25
2d
fa
cb
f6
e2
08
19
07
1c
e4
0c
d1
2f
06
29
20
c4
07
26
32
0b
ee
1e
c2
06
01
15
ec
f6
18
03
20
10
ff
31
27
15
c0
46
18
f7
d7
12
24
0e
0e
e6
23
2f
18
f0
14
f1
26
f8
f3
13
f6
1d
ea
3e
da
0c
0a
ee
d1
07
26
1e
0e
d9
e5
c2
0d
07
f6
21
e4
0a
dc
e1
ee
1f
fc
fb
0a
03
e0
ce
eb
ff
e7
e6
0f
ea
08
49
fe
03
f5
02
e6
e2
fb
cf
f7
00
22
e5
fb
3d
17
00
1b
fb
fb
0b
21
0d
2e
f4
19
ca
f8
e3
d9
03
ff
07
00
fb
23
f4
2d
12
f2
f3
cc
fd
11
1f
f5
2d
eb
ee
ea
be
23
1b
fe
f2
e4
01
e8
27
20
dd
23
06
04
ee
d2
fe
e2
d7
0b
d5
e8
01
e4
f9
ea
00
0a
fe
e9
f4
b9
1d
12
17
18
d5
23
17
25
f6
07
f5
1a
f1
32
00
0c
00
fe
ee
0f
dd
1d
13
fb
08
10
0a
46
e3
f6
d6
f9
f1
01
20
04
f4
e1
f2
13
15
00
0b
f9
fb
47
1d
2e
01
e5
eb
1e
f9
cc
ed
f8
e7
fd
01
0b
f6
12
e3
f1
f0
bb
da
10
d5
e4
08
f7
ed
e5
02
21
01
24
e6
c2
01
e3
1f
e0
02
04
0c
30
e5
07
fa
16
e0
03
c8
cb
e5
04
ea
df
f6
cd
25
fc
00
25
ba
04
11
d4
fa
13
00
30
04
fe
06
02
c7
f6
e6
04
14
f8
11
f6
ea
1a
fa
ed
f7
0b
f7
04
34
e6
09
17
f9
09
0c
fe
29
05
f8
20
fe
04
f8
11
e2
e9
0c
22
ee
27
0b
f3
2b
26
1a
e2
1c
2a
fc
11
fd
e8
21
f2
06
0c
0e
24
c2
c9
ca
17
18
1a
1e
e3
f4
05
f8
21
dd
f6
f0
1e
f0
bc
e9
24
15
cc
08
d9
46
2c
0f
ec
f2
22
21
21
12
ed
20
0c
d8
e8
14
29
23
17
09
ec
f9
f9
02
ff
e2
e1
05
e8
08
00
33
f5
19
1d
33
0c
2f
ef
2e
2d
fe
d8
03
14
ce
05
f5
f1
11
e9
11
ef
0e
00
04
23
d6
ec
0b
18
15
dc
e3
0c
0b
2a
1a
00
0e
f3
ed
40
f2
fb
dc
08
d3
12
fd
c3
34
f5
e3
0d
11
12
0b
e7
18
f6
03
db
08
f7
1e
0f
08
1a
f0
cd
f8
3b
ee
33
ce
e4
10
08
30
de
fb
f3
de
0e
d3
00
d4
02
f0
04
e0
0d
e7
42
f4
f6
ff
e6
1f
00
fa
02
ef
04
2a
ff
08
1a
21
e6
e5
2e
f8
eb
e7
15
0d
ea
22
2a
d0
f9
e8
fe
fa
07
09
f2
e7
24
07
f8
28
20
ef
23
f2
02
e2
d7
20
0e
f1
22
f4
f6
fc
04
ed
f3
1f
05
db
e6
eb
1e
0c
0b
11
12
f3
03
14
f4
e2
f7
f5
fc
f4
1b
cc
fe
16
ed
f0
ee
07
28
e6
f8
02
ec
f5
29
d5
3a
15
19
05
de
e3
1e
ea
30
ff
30
03
e5
05
c8
e4
f4
02
da
f2
e9
fb
10
08
fc
c1
2f
03
25
e6
35
1e
0b
17
e7
15
00
0c
05
f2
02
d7
23
d3
e6
dd
1a
01
28
04
1a
bd
03
d9
0f
10
f7
20
e5
e1
fd
e8
fd
e9
15
fe
df
2d
43
04
23
fb
f8
ec
fd
ef
d8
28
1c
15
13
e3
00
da
15
1b
04
0a
e2
24
fa
ec
f2
ed
1e
f7
cb
17
2a
39
26
e8
d7
e8
d4
d4
14
ec
fa
f1
2c
c6
0c
fd
c2
e6
cd
03
2b
01
d1
20
fd
14
0e
12
01
09
f7
f6
bf
19
09
27
f9
23
ec
d3
df
e3
06
09
00
18
38
2d
dc
05
ed
0e
da
11
e9
19
cc
13
10
0e
05
f0
12
26
fb
ed
f5
eb
2c
3a
0d
ec
ec
f5
05
de
ea
f3
e7
2c
fe
cf
f2
17
fe
f2
21
15
3b
36
f1
f1
10
04
fd
d8
d1
0a
13
29
1b
0c
0a
2a
3d
f0
e8
22
fa
ff
0f
05
fc
22
16
03
f3
c6
0c
13
f2
37
fe
dc
09
f0
12
15
17
08
0d
06
dc
f7
2d
f8
ec
0a
2e
e7
e7
03
c7
eb
eb
0e
fd
15
e6
12
33
dc
1c
08
d3
ea
17
10
d2
e8
eb
d8
16
eb
f9
0e
1f
e7
0a
2a
f5
e9
fa
1f
e7
41
c5
e4
ec
1e
1d
36
ba
16
26
f9
fd
c6
e0
f5
d8
1a
01
01
17
f8
11
c8
39
c3
05
07
e2
ff
18
e3
21
30
0d
01
23
17
15
fa
0e
db
e2
e4
03
e6
04
0c
19
0f
f1
09
2b
ea
f3
d6
46
42
fb
0b
03
0c
19
03
f6
03
17
2b
0d
14
0b
f7
f7
01
07
0d
13
00
f9
12
ef
06
15
03
19
13
e9
05
2c
df
f3
d8
fd
02
d9
fc
f5
10
29
be
0f
0d
09
f7
12
43
11
d8
44
f6
0e
f8
f5
20
cb
0d
f4
10
d1
12
0b
ee
17
f3
1e
10
e5
25
13
05
04
06
fa
27
bc
f6
00
d4
29
f0
e8
ff
0b
fa
f5
04
ce
f8
d3
31
e4
22
d6
df
f4
35
10
fc
4f
02
12
ed
2f
dc
db
e4
1b
1c
32
f5
0d
f9
ed
07
42
fe
0b
f2
16
ff
08
03
ec
fe
1b
0a
1a
dc
fd
0b
fe
e0
ef
30
ea
dd
29
33
d1
f8
17
e9
06
f5
11
f9
ef
14
d4
1a
ff
40
0c
07
d3
00
1c
ff
fb
44
ed
d3
fe
3b
3f
06
04
f9
f9
3b
f0
05
da
2b
f1
2a
fe
ef
eb
02
f1
ff
13
21
d6
e3
0a
ec
f9
f5
24
23
e3
fc
e7
fa
f6
59
05
0f
26
26
05
02
11
df
2f
fd
eb
e9
17
04
d1
ef
e7
0c
d8
d3
ba
46
e4
0b
d5
0d
f1
00
00
d4
fd
fd
39
e4
cc
fc
10
0a
f9
08
1c
dd
fc
10
cb
bf
f8
0e
e1
1c
ee
2a
d0
0a
b9
1d
d9
09
fd
20
10
f1
f6
01
07
f6
1d
ff
1d
e5
f7
fe
13
16
f8
08
24
0c
06
fa
ea
f2
fc
06
12
06
1d
01
24
fc
f5
07
02
e4
2d
f9
1a
2a
e1
e1
09
20
18
08
d4
e9
f2
09
29
f1
fc
e1
ef
f1
d6
dd
1e
f7
05
e3
05
1b
01
21
0e
fa
3a
06
06
12
26
e7
eb
18
03
23
e7
fd
e6
c1
f8
08
1c
ee
f3
ec
12
1c
f0
dc
ed
08
0f
35
ec
06
05
15
09
f7
20
ff
ea
f9
d9
f3
f9
ba
e5
d7
f8
ef
31
e8
15
e9
f7
f8
f4
de
a6
fe
0d
a1
d0
11
0a
0c
0e
f4
1f
0b
ec
f3
e6
41
ec
42
02
31
02
0f
f2
d9
02
ef
02
f0
e7
19
0c
c5
dc
ef
0a
05
25
01
fc
fd
ed
05
0b
fc
fb
02
e3
08
0f
be
f7
06
01
fe
c8
ee
ea
18
ef
d5
d9
c8
06
e9
06
1e
20
13
d1
07
da
05
f5
f6
05
18
17
d1
dd
b9
bf
f2
0c
13
1f
dc
f5
d5
e3
0f
c0
f7
f9
10
0c
37
22
29
01
0c
ed
46
26
f9
09
dd
09
18
02
ee
eb
f6
08
ef
ee
db
c9
e5
1e
f5
05
ef
e2
f6
f6
fb
29
09
2d
df
d6
03
03
0f
eb
1e
0f
f2
ec
24
f4
09
e4
15
da
12
1c
0d
1c
d8
08
bb
fc
12
25
e9
e0
01
14
dd
ff
e4
ec
07
ee
e2
22
0a
08
fc
a8
20
04
16
1c
3e
18
f4
df
e0
d7
02
12
ee
e8
0c
00
04
d7
e5
ea
15
bc
ed
3d
06
20
0b
02
2d
dc
08
33
26
31
ed
1c
18
e3
02
d4
f4
10
2b
1d
f7
cd
fd
12
f7
0d
33
1a
fc
18
f4
d5
f5
18
ef
06
ee
0b
12
c5
de
12
11
fc
11
dd
00
f5
ec
f8
13
02
f6
20
ec
f0
03
de
cc
eb
ee
ff
33
22
d8
eb
c8
f5
34
e9
e8
01
f2
ff
de
e9
f4
14
22
13
0f
18
10
f4
21
ff
0e
07
00
e9
31
34
3e
06
df
18
04
dd
e3
f1
fd
1c
11
d4
eb
0b
0a
05
2a
c8
de
1c
f2
f6
e5
0e
10
11
11
2d
f0
02
ce
16
04
e9
0b
3d
d6
08
e8
dc
31
f6
12
14
f0
f5
12
17
0f
f7
f1
2b
f5
04
e2
bd
f9
2a
f7
df
fa
c4
cd
f9
11
e0
d6
fb
1b
16
d7
f2
08
28
08
ea
f7
ea
e5
d3
12
e0
14
dd
db
f7
e7
04
ca
14
ed
d6
f3
fb
0a
f7
fd
df
d9
31
0e
e7
03
10
1a
07
3c
d7
07
fa
06
04
f5
fb
0d
ee
0c
01
c8
13
dc
fc
1a
e8
e2
12
08
1e
09
cb
fc
3d
c1
05
0e
2a
0c
53
40
db
0c
06
06
06
f5
f5
30
db
e4
2e
f9
f3
f7
da
ec
e0
f5
21
e1
08
1f
f3
ee
2c
17
06
2f
da
de
e9
e2
e7
fe
d4
f7
03
c9
e2
0f
07
f7
e8
13
c6
d6
2d
21
0a
f3
dc
f9
ec
12
14
20
0e
0d
1b
d6
11
dd
fb
ee
0c
3e
f0
06
f6
0b
33
06
f0
c1
f1
e4
04
f1
f1
1b
54
38
eb
e9
04
f2
c9
ef
eb
1c
fe
cb
dd
0e
db
ef
00
d5
f7
ea
fa
15
fc
20
f5
d8
f3
f5
1f
1e
38
0f
c3
07
03
11
1b
18
ee
ce
d4
bf
06
f8
dc
1b
d2
54
d5
1d
1f
01
13
27
1d
f9
0a
04
cc
31
20
ee
ee
27
e9
cc
e7
1c
01
0d
dc
2b
06
17
20
c8
11
0b
20
df
46
00
ee
03
22
06
d3
0b
04
c1
31
ec
0c
00
17
e5
04
e7
ea
fa
0e
0d
d2
f3
3e
10
f6
10
25
e6
1e
ed
1b
1d
20
1a
04
27
f1
ca
ec
ee
e7
17
f8
fa
1a
d1
04
1c
0f
f0
10
f7
1f
ff
d1
0e
0e
04
ea
f6
0e
06
12
00
d0
07
07
3a
c6
0b
f5
4b
e9
e2
ff
fe
2d
18
dd
17
16
db
f7
0b
05
d9
1b
f9
41
d3
24
e3
dd
d2
ee
02
fb
03
18
04
30
f9
0f
0e
29
f6
3b
f0
da
ee
ec
12
02
fc
16
ee
24
1b
f1
de
04
18
09
fc
13
08
e3
13
ea
d7
d5
17
f0
fa
c0
0e
eb
15
22
f5
0e
f9
f2
db
19
cb
f8
01
0a
fc
ed
eb
ff
2e
30
e2
ea
ea
fb
f9
e5
d4
0e
f0
f9
f0
de
d7
15
0a
17
fd
01
f9
07
13
aa
04
0b
e6
2c
df
00
11
e9
de
e7
df
f9
f8
f5
f1
0e
0a
dc
ef
f3
18
05
e3
c4
08
ee
1c
db
05
3b
16
04
ef
0e
14
cc
eb
e6
d2
dc
01
fc
0f
13
0a
fb
00
cb
eb
04
0c
e6
f7
cd
09
da
02
fa
df
2c
fe
04
0b
06
04
00
fe
35
09
00
e2
02
30
d1
02
f2
dd
f9
ea
20
ff
1b
36
fc
e2
01
ea
21
29
fc
0b
0e
de
17
14
0f
2d
ed
f2
e4
fd
eb
28
1c
0e
be
d6
f2
d9
23
07
ed
39
bf
f1
22
cb
09
ef
f0
fc
10
d7
1b
11
eb
e5
f4
fa
11
18
f7
e0
1b
04
c2
18
17
09
fe
22
1a
fd
10
15
e9
04
fc
1f
c7
08
d8
1a
f7
f2
e5
cd
ff
fc
e5
e5
06
23
ed
15
f1
07
f8
dc
eb
00
ce
00
e9
0f
e0
25
02
11
18
f6
e6
c5
28
f3
05
d6
02
ff
0a
d2
0b
10
ed
0c
07
ef
ef
e5
e0
e5
e1
10
04
f6
15
ed
2d
15
11
19
02
f0
13
f2
f8
d7
24
13
2d
2b
d8
11
e1
dd
e2
d5
cf
03
d0
4b
26
07
0c
0f
e7
e3
1c
e6
31
d6
f8
e3
03
05
05
1a
11
18
f6
03
29
16
fd
db
f7
ed
f5
30
1d
09
e2
f5
f1
dc
13
e6
d4
1c
09
14
e9
ce
f8
ec
fc
eb
ee
fb
fb
10
de
d5
0e
ff
19
10
e3
f7
f4
1a
10
f1
d5
14
cd
e1
3a
22
0d
20
0a
f6
34
02
2f
eb
dc
dd
f8
f6
e9
20
10
39
fe
e6
fd
00
26
11
26
13
15
ff
11
0d
f7
f7
df
e8
d4
09
28
ce
e2
c7
f9
5b
fa
fa
1a
d9
23
f2
f9
0b
ef
eb
f0
31
0e
e3
10
a8
e6
e0
e7
d4
fa
ea
00
c2
e9
20
fc
1a
ce
c7
e4
24
f7
15
f6
25
f0
01
09
15
0a
27
0e
00
fb
12
f4
e6
21
06
1c
0e
f5
03
cc
0b
24
b1
14
1e
1e
20
17
27
34
18
f4
0b
1c
f3
09
12
e2
0f
e7
ed
f4
11
2d
d4
f3
f3
08
e3
e3
fc
ef
f5
0c
10
e2
32
19
ea
e6
03
01
f9
e6
dc
e2
fd
f4
0c
ef
11
db
de
19
f5
06
cd
0e
39
dc
17
45
fb
ed
21
0b
06
32
fe
c7
03
05
d3
ea
1b
07
25
d9
bb
ff
da
00
f4
fa
dc
07
08
01
ee
fe
27
e7
07
25
fd
22
f4
fd
f1
05
44
df
f9
0f
20
11
10
07
12
31
51
1d
0f
00
26
25
06
0a
ef
10
fd
11
0c
a9
d0
12
f6
0b
d6
e1
0e
fd
ed
00
ea
00
02
e6
1f
f3
00
ca
f7
0e
01
2a
09
ca
ff
02
12
28
15
dc
05
d5
1b
01
e0
11
c0
f1
1d
13
43
1e
20
24
1f
18
fc
de
ea
05
0b
2e
10
f4
fa
0b
fe
dc
e7
48
17
f7
d4
16
f9
2c
ed
1e
f9
0a
fe
b2
dd
fe
04
32
06
d1
06
cd
0c
ed
ef
e5
00
26
07
24
02
e1
06
18
0a
e2
f4
ff
28
ed
cb
04
dd
c4
13
0a
f0
f0
07
17
17
26
35
d2
14
f0
d5
00
07
1f
e5
24
f4
1a
f3
e3
fd
02
01
f8
14
fc
f2
21
e1
1d
1d
f4
12
e4
29
e6
fa
e2
be
f0
1d
d3
e2
12
fa
12
d9
1f
2f
da
f1
ba
f0
ef
10
ea
16
e5
11
0c
f4
ec
c8
f9
2c
ed
ec
00
15
03
11
e0
04
30
c1
f4
14
f7
06
13
10
0f
06
06
e8
e0
f4
0e
08
20
01
ee
f7
1f
fc
e8
fe
2d
de
18
e8
11
22
1c
00
d1
0d
f3
06
e9
23
f0
16
da
0c
07
fc
f4
e9
1a
22
0f
15
df
e4
fb
eb
dd
f7
ec
f3
0a
ed
ed
00
1f
1c
06
f1
f5
02
04
d2
e2
09
e5
1d
0d
ef
0c
d0
fe
e5
fc
f8
ce
06
1f
ef
f9
07
32
10
b1
ef
29
1f
12
d4
39
d3
f2
fd
f1
f8
f0
27
26
28
04
fc
0e
d8
04
e8
e6
0d
d5
0f
2a
f7
9a
e0
ee
2f
f7
00
34
d3
16
1c
03
08
fa
fc
0e
1a
11
f0
f4
d5
24
c8
39
e6
22
e8
e3
e4
06
ee
fa
de
17
26
18
13
18
3c
e4
ce
2d
cb
3c
30
2f
0f
0b
f5
f4
46
14
0f
fa
02
24
f3
ed
11
ed
02
dd
0d
dd
e9
f0
e5
22
ff
f7
09
de
d8
df
00
d7
ed
1b
0d
fa
cc
1b
03
11
23
f5
e8
35
00
00
f4
ca
09
db
0b
f1
e3
44
ed
1a
19
19
23
04
0e
08
e0
01
f3
0e
ed
0a
e8
f3
28
30
ee
29
06
c2
da
00
02
dc
ea
f6
dc
2d
16
0f
2a
d2
f1
e5
c9
bf
ec
e9
04
20
ee
be
04
24
dc
0e
e0
14
03
32
35
fd
d3
e7
fb
ec
e2
2d
26
cd
05
ef
35
22
3e
2a
e8
fb
1f
fe
b6
b5
f9
ed
f5
01
1f
19
f0
c3
f9
2a
0d
f7
12
f4
fc
00
22
de
0f
07
f5
02
03
ce
01
d8
04
e5
bf
df
0c
f1
3f
08
09
14
fc
ea
ee
17
12
1c
1e
0f
e5
1a
e3
01
10
c3
23
f4
e8
ee
f2
07
c2
cf
1e
f3
be
f3
d4
15
0b
f6
0f
2e
0d
d3
14
ee
dc
10
06
1e
fb
e9
d2
db
db
09
f8
09
1c
0e
fa
c9
d0
e0
1b
15
ce
df
25
1d
09
fd
f8
09
06
1d
f8
1f
06
f4
fe
fd
00
f3
20
27
fb
fd
e1
f3
f2
41
e6
0e
fb
16
25
fd
1a
de
f3
24
16
02
d3
fb
f6
0f
f4
18
32
0f
0a
fa
e3
dc
f1
09
ef
f6
ee
1e
cc
2f
00
e3
c8
c3
01
f0
d8
ee
db
21
ef
1b
f0
0f
0f
20
21
d8
2e
17
eb
db
23
ca
12
f9
f6
fd
f2
cd
f4
ff
ed
f5
00
d1
f7
13
f8
d9
00
e3
eb
0a
ef
fc
d5
ea
0d
df
0a
fb
f3
cd
d8
27
23
19
0a
04
e1
21
32
d9
e6
fc
00
05
f8
dd
01
f7
f0
db
44
ef
bd
30
e0
1f
e9
e9
e5
2f
bb
0a
0f
16
eb
f1
a5
fd
13
36
f7
f6
d6
fd
01
12
e9
07
f2
ff
f8
03
31
f5
11
fb
1b
0c
01
06
f8
fb
d1
fe
ca
17
e8
f2
ff
ef
c1
dc
18
f6
01
01
16
b0
ee
d6
ea
0f
1d
15
09
0b
2e
00
04
19
2a
fa
d4
26
f8
2c
17
01
1d
21
00
e2
d1
fa
12
12
2e
02
44
22
08
36
de
00
1d
56
f4
ed
25
17
05
fe
d8
e8
07
07
00
1c
e9
0a
4c
d5
14
cb
1b
41
d8
f6
e0
04
ce
fb
cc
eb
23
28
e6
f6
f0
ed
db
0a
eb
ea
fc
08
d2
22
07
f3
eb
e7
01
ee
d1
05
f5
20
05
00
e5
10
15
fb
2e
0d
3e
fb
01
1b
cb
eb
d6
df
c0
14
fe
01
ff
e0
d3
0c
ea
f2
dd
12
e8
09
06
f8
2a
03
ed
cf
0f
0e
ef
eb
2a
0b
38
de
07
eb
34
0a
f3
06
f8
0d
d2
f5
04
df
da
f5
21
fa
da
fe
18
0c
02
fd
e8
15
f3
20
1f
20
f5
07
eb
09
ce
cd
d5
2d
06
31
de
f4
ed
f7
f3
eb
1a
06
e4
3b
e3
d9
0f
0d
e7
f6
d8
10
fb
16
d0
2f
ef
1b
1b
13
ea
f2
09
05
ec
25
ec
04
cf
de
28
ef
13
ed
df
02
05
d9
f8
df
05
15
e3
0a
db
e7
21
0a
0e
03
1d
ef
ef
ff
d4
d9
e3
f0
de
f8
f2
ea
05
f6
11
27
02
19
f8
2a
da
f2
da
2d
1a
02
ca
13
0b
0f
f3
0b
f2
1a
0a
0b
19
08
00
04
fe
f0
04
10
22
ef
fd
f9
2c
15
26
0f
0a
14
2d
0a
ec
fc
ef
14
f4
dd
cd
f2
05
f0
fd
06
05
2a
e6
1a
23
e7
2b
1c
1a
ee
fd
00
38
db
ea
09
13
16
01
f4
f8
e0
09
fc
e5
18
f4
1e
f6
e8
25
f2
03
0b
f9
0a
13
01
fc
f3
16
14
1f
1a
37
e9
38
06
0a
f3
d3
26
eb
e6
f3
f1
c4
31
eb
01
d6
f1
fe
fe
20
d3
08
40
c6
16
22
18
d2
00
10
1a
39
30
15
20
df
0e
0c
fe
13
fc
f4
0b
1d
ea
fa
15
49
01
03
03
2d
dd
f0
06
0f
0f
07
f8
e5
f6
27
1a
e6
30
c9
ec
fa
17
15
fe
18
f5
dc
e5
f6
18
c8
ec
f1
22
c7
d0
f8
cf
f0
2e
16
1e
da
f8
cf
e5
d1
fc
1a
e4
ed
19
fb
09
04
e7
0a
eb
18
ec
06
e1
d8
fc
ed
07
ff
0f
c0
ec
26
f6
1b
07
fa
eb
20
02
10
04
1c
0b
d5
13
d9
19
2d
ea
10
d5
12
de
04
de
2c
ef
e7
f8
22
dc
ee
06
d2
17
fb
e2
12
d3
03
0e
c4
09
d0
f5
ed
10
11
d2
17
d7
d2
25
04
fe
f4
ff
fd
0e
0f
10
f4
ed
03
ef
36
11
fa
3e
e8
2e
f5
e2
36
05
ec
12
f0
f1
1e
ca
0f
02
05
e4
11
f0
20
10
10
2c
1d
2b
14
f7
fd
fb
f1
03
0c
19
02
fd
ff
f2
0a
fd
ee
3c
c7
fc
0b
0d
01
bc
f2
12
ec
03
f9
30
1e
e4
03
24
23
f6
31
2e
d2
f8
b5
f4
fb
b4
16
dd
e4
16
1f
f4
de
f0
e1
1f
15
d8
db
e0
0c
3d
dc
15
fe
11
ec
13
e2
de
26
e7
fa
ec
33
2b
fc
fa
05
0f
fe
f7
2c
f4
b8
1a
e3
1b
ec
fb
f0
d8
ee
d7
05
0f
fe
f3
f7
f7
2e
22
0b
14
f4
2d
fb
fb
0d
03
18
02
03
0a
00
12
36
02
e5
04
b5
e8
1d
eb
d1
fd
20
df
bd
f6
ee
e2
1d
21
01
fa
f4
ef
07
e9
08
f9
ea
d5
01
16
11
0e
04
11
01
0a
f1
f9
fe
12
f0
f8
fb
e9
06
2f
f9
e8
0c
0c
fa
03
17
f6
1b
01
e1
f1
02
08
fe
0b
05
d7
0f
eb
d2
16
e2
e4
fa
43
e0
d1
e6
ea
12
1a
e9
c5
fa
13
11
2e
18
f1
22
1b
03
d2
dd
d6
ee
1a
ec
fe
12
e0
14
07
21
13
d3
f2
26
0b
02
f2
ef
0f
f6
f0
15
03
0c
01
f8
19
fd
16
15
ee
c6
14
eb
04
f4
f0
1c
ea
e9
1b
18
0b
e2
eb
11
01
14
11
fb
e7
fd
04
1e
0c
23
f3
e1
ed
dc
f2
10
1e
e9
10
0a
f8
0d
fc
0d
e4
ca
f4
db
05
19
0e
2d
11
12
0c
fb
28
0a
0f
f6
1f
17
f4
1e
fd
16
02
11
13
1d
dd
11
3a
17
08
f1
2d
25
f1
f9
f2
04
e5
f9
ea
e8
ee
d9
fa
13
14
2b
03
15
ea
e9
df
fd
fc
09
e3
fc
e7
00
29
be
eb
2a
03
ed
07
e7
12
37
f4
1f
fe
0d
28
b7
17
ee
08
02
24
08
f2
10
fe
f8
fb
fb
52
06
0b
dc
f2
f7
15
e3
f8
10
10
e5
fa
fb
d7
40
1d
e8
e7
11
07
2a
ce
03
d4
ed
0b
f8
dd
3e
18
02
38
44
f0
00
f1
29
ef
ec
19
41
f6
14
01
3c
e4
03
f0
e6
03
f0
d7
e0
0a
00
24
e0
e3
11
fd
fb
3d
e7
f3
d9
0f
f0
ee
ed
da
25
1f
45
00
f1
1f
04
1b
00
1d
17
10
c9
f2
06
c0
14
14
f9
25
1f
2b
03
3c
ef
ff
e3
fc
cb
d3
e4
eb
e5
e3
05
f2
05
1e
c7
12
ee
ec
fa
1f
1e
33
13
15
26
fb
07
0c
2e
e1
00
06
20
c6
21
e7
2c
09
ec
e2
fe
44
d3
17
e2
25
13
f4
07
e9
0c
09
ef
fe
f1
fc
eb
36
e0
1f
f6
00
1e
ca
fc
f7
15
fa
05
ff
06
d7
10
ff
12
eb
e4
35
ef
e7
d4
03
ec
da
09
fe
06
ed
18
eb
ca
1c
de
fa
bc
2d
f7
d9
ee
06
fc
ca
07
f1
0e
f2
e7
f4
06
04
15
1b
1a
09
0a
12
19
ef
05
12
f2
18
d2
f2
09
0b
0b
fd
0f
0a
f5
f2
19
22
c5
1a
f8
1f
dc
04
bf
f7
f8
df
e7
15
1e
1d
ee
f3
f6
e9
11
eb
0f
f0
3a
d3
34
02
02
3c
1c
21
f7
03
0d
04
1b
d0
01
18
09
0b
15
06
ee
13
fb
10
d2
fd
08
e4
18
29
f2
d9
3a
c3
03
ef
ef
ee
08
fc
ce
ed
14
1e
d3
2b
f4
20
09
03
1a
dd
19
1c
d7
1d
11
d7
db
05
0c
10
3c
10
01
19
01
ed
12
ed
f5
0d
ce
e3
f5
f7
e1
f6
1b
e0
f0
11
f6
f6
d8
dd
d6
0e
13
0e
be
cf
df
f2
07
d5
38
fd
ec
d6
0b
22
fe
2b
d1
f4
0d
1a
ef
15
0c
cf
de
0f
f5
ea
e4
00
14
20
47
e6
fd
1c
03
3a
07
e9
ed
d6
39
1b
d0
df
03
16
0f
ea
02
e5
09
1b
e3
18
0a
eb
f8
d7
f9
06
14
04
d8
2a
11
00
12
db
d0
2e
f4
14
24
fd
36
ea
fc
26
e1
0d
ea
06
04
de
ed
0c
ec
04
dd
b5
e4
09
e9
1a
16
e9
17
ee
d2
f4
ef
e6
04
0d
1c
15
16
e2
0c
0c
ea
cf
1d
23
08
0e
13
f4
1b
e9
fd
01
05
cc
c9
05
20
c7
d2
f5
0b
fa
0e
03
ee
ff
e7
da
2b
f7
ff
42
ec
fe
00
fb
c7
23
fa
e3
0c
fd
f0
0d
fe
d9
dc
05
0d
04
01
2a
ea
c1
26
25
41
f4
d6
27
d6
ea
19
fa
b5
f2
1a
e6
19
f2
0e
2d
09
0c
04
01
16
e9
49
08
e8
1f
e3
cb
e7
ee
ee
ef
e9
0f
ec
15
dd
16
da
09
f5
00
c5
20
fb
e6
00
ed
e8
15
08
21
e8
e4
1f
dc
fb
06
4a
27
dc
d4
e6
16
35
e2
0a
f7
e7
0f
f9
12
e3
28
b9
19
0c
d0
37
d9
4f
31
f9
04
14
f1
0c
dd
d8
f7
19
fa
f1
16
f2
27
09
23
b8
fd
03
da
c3
cf
34
fb
b9
0a
08
2d
27
2a
ff
2d
3e
23
16
1d
14
f9
cd
dc
1f
22
f2
33
06
4c
00
36
f7
2a
db
d0
f8
32
17
28
0a
f9
16
fa
1e
d9
e8
25
09
cc
11
f6
3a
f1
35
f7
fd
f6
c9
ed
e6
03
ea
2f
dd
de
f0
16
db
f9
19
0d
e7
0f
f9
2e
f8
f5
0d
ed
43
0a
0c
e9
56
0c
fd
06
18
ca
08
fd
09
1f
f1
f9
d4
07
2a
43
fc
eb
04
08
59
0c
02
0b
09
f1
d6
1a
ed
33
fb
16
bf
dc
ea
21
e6
28
f5
f9
38
fc
1b
f2
34
1e
d2
1c
f1
da
02
20
22
05
1d
00
d3
ef
f3
e4
f9
d6
17
07
18
3a
0a
11
eb
ec
31
e5
2b
e8
f9
eb
06
f7
08
10
11
1d
d3
e9
10
e0
16
fb
ca
e5
f7
dc
f8
1e
e1
0c
ff
38
0a
23
e8
f7
e3
12
36
02
da
18
e5
f6
ba
fb
2f
eb
ff
0a
31
1e
ff
34
06
21
d6
c9
1b
d7
d6
db
fa
22
0e
e5
f8
ea
09
f2
13
10
1f
f1
0c
ef
ce
0a
ed
e1
db
11
0b
0a
1d
e9
15
11
dd
23
e5
00
04
ff
f5
e6
e7
dd
02
2b
b5
e1
09
02
0d
ec
18
e7
09
34
de
09
02
ce
ee
1c
f0
fc
31
41
dd
3b
22
e4
06
04
fd
0c
ff
f6
f0
e4
29
da
09
2e
25
ff
16
42
15
f0
2b
f7
e1
b3
f8
09
f3
19
17
e0
d9
df
24
eb
35
db
1c
01
22
1c
01
e8
e7
10
28
35
dc
cc
c2
1d
d7
db
eb
10
14
da
c9
10
27
08
ee
06
f8
30
11
0c
cb
08
18
18
31
09
f0
03
f5
ec
06
eb
f0
3b
2a
12
13
05
1c
fc
01
12
f9
fe
f6
d0
f6
09
e4
d2
0c
fb
0f
dd
33
0b
1e
2f
02
f2
f1
f8
f6
ee
1a
ec
18
0c
2b
00
f5
ff
f6
e2
30
fc
12
0b
02
1d
04
23
05
0c
07
ef
23
16
ee
13
fb
db
f1
14
0d
e4
17
ff
ef
1c
d2
d9
eb
01
cb
f7
02
fc
1c
0b
df
1b
f2
0b
f2
16
c3
f7
10
24
f8
18
fa
0c
11
35
eb
d6
01
c8
ea
13
00
e2
00
f7
e3
02
d2
eb
dc
22
f9
07
29
ed
1f
05
0d
31
f5
e0
2d
0e
f3
01
1a
42
0e
f1
dc
0a
0e
00
fe
f6
ea
f9
06
e0
45
ec
2a
fb
03
1a
11
0c
01
27
0d
df
fa
ee
ee
f0
43
06
0c
1a
ee
1c
00
1a
f8
04
f5
ed
e7
ed
0f
e7
11
24
d9
1c
20
12
0d
38
f4
10
e5
1e
1b
08
3a
14
d8
fc
40
f5
12
f7
1a
22
dc
e9
0a
ec
11
c7
08
1d
26
17
16
1d
40
fb
08
1d
f5
17
0d
f8
f2
fa
e0
09
d8
f4
d3
d0
04
06
23
e5
f7
00
fd
fb
36
f4
28
1e
f8
65
e2
19
05
13
ee
09
c9
dc
0e
d8
fb
07
e8
f1
ed
11
f1
dc
00
0d
db
d3
eb
1d
02
fb
0c
fd
37
15
14
fd
d1
f7
f4
c9
04
35
e0
bb
1e
df
ce
1a
24
df
ef
02
c1
09
e3
16
14
18
18
02
06
db
08
fa
04
d0
cc
f9
e9
1b
f6
f8
dd
2a
d1
f0
18
06
05
de
db
24
18
fb
e7
dd
b8
ec
eb
e7
12
ea
04
dc
e6
f8
0f
fb
01
01
19
ee
12
19
03
0b
1d
ef
db
0b
b8
e9
df
1e
dd
08
df
f3
e9
15
17
f2
fa
ea
16
f7
00
04
32
1a
16
1d
18
15
0d
f6
c5
13
d9
ce
01
f6
de
f3
fd
ec
f7
0a
0a
15
1e
0f
ea
02
22
e5
0e
4c
19
13
f8
0c
c8
ca
21
0c
ff
ec
e1
fb
ea
e2
11
ff
ec
f2
dc
f6
23
15
e7
f5
dd
f1
f6
22
30
09
23
0c
0d
f8
1f
02
14
f9
fb
0b
fd
0d
02
f5
03
e2
bc
f9
fe
fe
e5
f8
e2
f8
eb
0e
f3
fc
f5
f4
26
d0
f3
e7
04
e9
27
cc
f9
ea
08
f3
fe
24
f1
d6
ed
d5
e3
f3
fd
fd
f1
f0
fa
03
f7
ed
e9
d1
f1
43
15
20
2f
09
03
f6
27
f4
0f
00
18
02
fa
10
22
fa
d8
e5
34
f8
0d
f9
02
11
c7
ff
26
ec
f9
e7
dc
22
3c
1e
dc
f6
29
f3
28
dd
0b
1e
08
01
f4
01
1d
fc
0a
d9
f9
1d
2b
23
15
0e
15
01
e2
e4
03
2b
1b
13
17
e2
04
21
1e
f3
fa
15
15
e4
d5
d0
0f
f2
e8
f3
08
ff
08
06
e3
07
e0
00
1c
f1
f7
39
e5
db
f5
0d
01
f1
0c
1b
e5
02
03
fe
18
e7
ce
d8
d4
21
18
0c
e5
f9
09
cb
13
d8
f7
c1
0e
2c
18
18
13
15
d9
ed
16
12
bf
e8
e1
ee
c6
13
27
11
11
e8
b9
ec
fa
0b
e7
23
10
35
1f
39
f6
fd
1f
1b
05
08
df
13
f2
ee
f7
fd
03
de
d6
04
e6
c6
13
25
f6
eb
05
07
08
f5
f2
e5
12
0c
f4
1d
1d
f2
20
0e
03
f7
ec
15
14
19
12
2d
1c
07
f6
2b
42
07
f0
e9
40
0b
20
20
1c
0c
32
e8
11
fc
f4
f4
f2
18
1e
eb
05
13
ef
f0
08
01
27
33
d7
f3
0c
f1
22
2d
21
14
1c
d1
ee
f6
e5
35
f4
e1
fd
25
e8
c2
f3
c1
d5
1a
e5
19
03
f6
02
1b
f4
00
fc
f7
1d
06
f1
18
fb
13
d0
05
e7
eb
f8
20
e6
ed
f0
18
fc
07
10
07
f0
04
40
2d
04
0d
fe
e2
f2
e7
dc
01
dc
0e
10
eb
d0
cd
fd
ef
e3
35
2a
ea
ed
ee
e7
11
25
3e
f8
e1
ea
fc
f4
d2
b8
e4
dd
f9
e3
dc
f7
f7
14
36
04
f2
f1
01
0d
03
dc
df
ed
ec
f0
f2
d2
f1
cc
f2
0a
eb
e0
00
07
e2
ee
f6
0b
17
d1
f7
f3
08
f4
f4
16
1c
27
14
10
f4
ed
f0
f5
e3
27
e8
2a
1c
08
ee
29
e4
fb
0b
21
0a
de
24
10
f4
19
d3
f9
f3
ef
04
2a
0c
e8
fa
08
22
58
d5
ee
01
2b
12
09
2f
0c
e8
1a
d6
e5
eb
0e
d2
fe
1e
2a
21
30
d2
c2
dc
e0
21
07
f4
0e
1f
dd
fd
17
fb
1a
29
f5
0d
d3
fe
3a
13
f4
ff
19
12
19
14
09
15
12
18
11
16
0c
e2
ea
24
07
f2
f0
e1
fd
08
12
1f
f5
2b
20
ef
ed
fb
2f
f4
f9
f1
ea
b7
ea
16
ee
e4
18
08
1a
ed
e8
fe
ef
24
fa
00
ef
0c
12
f8
eb
f9
f3
00
08
d2
41
15
00
40
0d
04
ed
0e
e8
0a
ce
1f
1d
e1
fb
04
07
02
fc
13
16
1a
a0
0b
ed
fa
e6
0d
22
d8
11
f2
f5
2b
f4
e3
f1
1f
f0
0f
d7
13
08
0b
24
e7
f5
f1
13
08
fe
0e
fe
fa
18
ee
d1
25
53
c5
f8
f4
d9
d5
d3
06
ef
04
ea
0b
0b
ee
06
f8
50
0a
fc
09
28
14
23
14
ee
15
dc
ef
0b
05
f1
13
38
0a
0b
de
f0
3c
1e
2b
df
26
16
29
12
44
f3
fd
e4
f8
19
28
f3
f9
2e
0f
16
f6
03
25
34
df
21
fe
c2
e3
f3
c1
fe
eb
00
19
e0
1f
31
f5
db
10
0d
2b
fa
00
f6
e5
d7
fd
f1
c9
0c
e7
ff
20
0a
f1
d1
2c
1e
41
f8
e0
42
07
16
0d
f8
f9
2f
cf
f7
f6
e6
e7
ee
28
0d
20
24
f0
fa
f0
0a
fc
f8
e2
f8
fc
0a
0b
0a
32
e0
2e
1f
ae
27
ff
ec
27
e5
21
1b
e5
f6
e8
e6
2d
11
0b
1b
fb
e3
f1
fa
e9
ce
d9
f1
12
05
ff
0c
2b
2d
f4
ea
2b
fa
19
09
17
07
ff
d2
f7
07
c4
fc
09
2a
db
35
fc
f4
10
e0
35
2c
1b
21
0a
13
04
09
0b
ce
32
0b
1e
10
12
1f
11
f9
21
f7
ee
17
20
08
09
07
11
04
f6
16
07
ce
de
29
54
15
fd
e6
28
1c
25
02
fc
02
ec
f1
ee
49
1c
ed
d4
f8
02
17
f3
e7
e6
01
0e
d0
0c
02
00
04
f0
03
cb
fe
15
fd
f9
05
0e
18
ff
04
e4
e5
db
11
1f
df
b8
03
ff
fa
e3
f3
f8
10
17
02
e9
d5
e8
e2
1d
d2
fd
06
18
06
fd
0a
05
d3
fd
0a
1b
2b
d1
fe
dd
e9
b6
d0
ef
dc
e6
0a
10
0d
ef
4d
04
fb
e2
ff
f6
e5
ce
4f
ed
da
15
1c
05
da
0b
3e
23
07
fc
01
07
07
01
15
fd
35
f5
0d
ee
23
fa
fc
fa
e5
0b
d1
ec
1f
21
c7
05
f4
ee
f0
db
03
4c
0e
0b
14
f4
f0
ff
ec
2d
cc
fd
e3
ed
13
de
f2
2b
08
e9
f1
03
f2
0d
0b
fd
07
12
eb
e3
e1
c7
de
d4
f6
1d
f3
fe
fb
f9
e7
17
10
f5
d2
ee
20
fe
b6
ee
f3
ed
eb
1f
04
f6
ca
cd
e8
cc
fe
e4
f5
1d
ea
0b
f9
f7
02
f6
13
19
d3
0c
02
15
17
0b
ed
08
fb
39
0a
2a
ef
07
d0
e0
d0
13
fa
e9
f9
27
cd
ea
18
00
f0
05
01
e2
e5
27
29
f2
21
a5
0c
e6
fe
ea
e2
e3
f9
da
18
e0
22
e6
12
e3
1a
22
ee
0d
0c
c9
09
04
00
f1
13
4c
00
f5
09
f6
5e
cf
22
ee
ef
02
2d
ed
da
e8
d5
f1
20
0f
f9
00
06
fe
2a
c8
10
f4
f0
22
fe
f8
13
f1
1d
24
f7
05
c5
28
35
07
06
fe
df
2a
df
16
09
dc
f3
3a
18
1c
11
cb
ea
13
12
d9
01
e4
fb
1a
f5
1b
06
11
3c
f1
1c
f2
19
0a
0c
e1
fa
ff
14
0a
12
35
dd
0b
11
21
f6
b8
d8
de
45
e4
05
eb
05
2c
1a
15
f6
f7
fe
f3
09
0d
1f
e0
fb
07
e4
dd
02
1d
07
19
09
3e
b7
32
fa
27
d1
d6
d0
f8
07
05
e9
b8
01
34
f2
23
0a
e3
2b
fe
f8
19
0e
fb
fc
05
fc
0b
d4
25
fc
ef
16
c2
0b
11
f3
fb
e6
e1
3f
0a
05
de
c3
09
ee
1a
12
04
0b
db
ef
dd
07
ed
12
f7
47
e5
09
24
12
f0
07
18
ce
55
f8
1d
08
14
2f
e7
d7
f9
fa
cd
13
dd
06
1c
ef
2f
e5
f3
0b
2b
0d
3e
48
f9
f9
6b
44
1e
da
09
fd
03
39
10
47
0f
17
f2
fb
e5
fc
e9
09
ea
2e
1e
b3
08
de
eb
04
1c
d6
02
03
15
d7
c7
0d
ef
ea
18
ee
f4
23
1e
45
0b
0c
f5
2b
1f
dd
16
ff
3f
2d
be
f7
26
f5
03
ee
fc
64
2e
22
18
13
ee
f6
f4
ec
00
cb
f4
ec
ef
3c
e4
e5
d7
4b
31
1d
19
56
19
00
3b
fe
12
d8
f5
08
fd
f6
16
fb
da
2c
fd
fd
f9
1d
20
d9
2a
f7
15
f1
26
01
17
0c
0f
29
1d
10
2c
ef
31
11
ef
eb
01
dc
fb
08
02
fe
09
dc
1d
22
ef
fd
17
b3
10
02
1f
ec
c6
12
08
01
12
f5
1e
1f
f0
e8
e3
c7
f2
ee
c9
f1
cc
27
31
16
d7
d4
f6
f2
d3
e3
19
da
d0
1d
22
09
00
ce
d9
be
03
0b
22
0c
05
1b
cb
fa
ce
f0
e0
0a
e0
d9
d8
dd
ef
11
dc
1e
e3
e0
11
06
e4
d3
fa
26
1d
df
e5
9e
33
e1
c2
db
ee
f7
e2
0e
30
10
0d
d9
24
e7
05
13
f6
f5
0a
07
f2
12
00
2e
12
2f
e3
19
10
e3
0f
eb
e2
0e
f5
2b
f7
f8
e2
0b
f9
28
04
e9
e8
ba
04
04
d8
de
1e
01
dd
12
05
db
1b
dd
f1
f1
f5
03
d7
f2
0e
ff
1c
ee
00
0d
04
27
1f
dd
01
41
b8
15
36
fa
fc
0f
f7
0b
31
46
f5
07
ea
f0
fb
f1
f8
09
13
01
f8
ea
d8
e0
e4
13
e5
09
e1
14
df
fc
fb
e0
0d
d1
e0
12
fb
e2
d0
ae
33
e5
14
f6
3e
21
f6
00
35
e5
0d
17
20
27
ca
ff
1c
13
e5
f5
18
0b
13
02
02
e1
17
04
00
ed
02
22
35
26
d9
bb
26
d9
f8
f9
00
fd
ff
17
f7
f7
20
fb
e5
f8
06
f5
c9
10
04
11
28
cd
11
29
00
03
00
28
02
ea
f8
cc
fd
b8
14
2b
d8
13
ea
2e
2c
f9
f5
ef
22
d2
f9
e3
08
f4
f3
2f
ec
1a
e9
f5
fc
f4
16
1d
19
2f
02
29
b6
f4
da
09
e4
d5
ef
1c
09
20
ee
ed
fa
0b
f9
05
1d
e6
2b
ee
24
e4
e5
11
d9
e5
e4
3e
04
38
e2
fe
dd
1c
f4
22
f9
ee
dd
fc
e1
1f
f0
f7
03
13
07
0c
21
f9
01
d5
f5
2e
32
2b
f7
e3
f5
1f
e9
29
ef
07
10
33
fa
0f
e4
0e
06
df
f3
cc
e1
07
ed
28
f5
f7
c5
21
e1
ee
fb
1d
18
1d
c8
e9
1d
dc
da
01
d0
10
07
d8
ea
10
cd
fe
02
e1
e8
1e
e3
db
d1
f7
26
04
cb
ff
0e
39
48
37
02
22
f5
07
ee
02
0b
20
10
df
28
2a
e9
d9
02
f7
f5
e5
e5
09
c8
ec
1b
05
cf
f0
d0
f3
11
e8
e6
20
cf
14
18
d9
25
f5
d6
ee
c9
0f
f0
08
f7
e2
ed
ee
dc
f8
e3
f8
17
ee
d3
fa
14
20
33
09
ea
2f
02
03
0e
00
3a
ee
ee
08
c5
d7
15
f3
e7
e5
bd
e5
f7
eb
1b
0b
05
e9
0c
d1
11
fd
3d
de
13
e4
fc
ed
16
f4
23
3a
e7
2e
e9
10
fe
38
10
02
f4
fd
ff
bd
09
04
0f
11
f8
e6
ff
07
03
06
ef
fe
de
db
0f
2e
fe
fe
f0
15
d1
02
11
dd
ff
f3
05
dc
28
02
00
0e
ff
e4
ba
18
e0
26
f0
fe
15
15
09
22
e1
06
f3
ef
e6
17
06
1d
01
cb
05
fb
d6
e9
11
e2
e6
14
f0
e7
d8
11
d4
18
34
f8
07
ef
1d
e4
f4
f9
d5
d5
f4
f6
c3
01
e1
1b
e9
16
f0
f2
d7
fb
d7
1e
f0
cc
09
e9
fc
22
0e
01
20
10
f5
11
05
f5
00
17
fc
e2
19
36
09
0f
c8
15
fa
06
2b
0c
f0
1c
16
ea
21
f4
1d
0c
39
fb
01
f2
f4
d5
f8
f4
f4
f6
35
04
d0
f4
05
00
04
2f
ff
f0
2d
1e
07
f7
1f
0f
0d
13
0d
da
f0
07
19
e1
ef
e6
1d
00
2c
ef
10
0d
07
df
2f
f3
0f
38
ec
04
0d
1c
53
1c
01
e4
2a
3f
f3
01
e0
0c
0a
e6
2a
08
1f
e7
10
0d
f2
2c
0a
e6
0b
fb
0f
f7
df
f8
13
f2
2e
e6
1c
07
fb
0c
3b
e8
ff
d6
17
0a
18
42
11
dd
f5
bc
11
4b
fa
27
13
f4
05
f8
0e
07
1b
01
e9
23
f3
da
0d
13
d0
dc
e1
18
d4
17
f8
13
d6
03
0a
14
06
2d
32
00
24
f2
11
eb
29
04
ec
1a
00
e9
05
02
f5
df
eb
f9
f4
f3
f5
e5
fa
fd
f7
18
f4
fb
09
f2
04
14
e7
e0
0b
1d
ce
0a
f4
15
e9
0a
1d
f1
0a
00
0f
c0
25
10
1c
ef
f0
c2
d8
f6
fa
f1
37
c6
1f
f6
10
08
e8
f7
e3
02
06
fa
17
08
ce
08
f4
f9
10
f6
05
04
ea
0c
d0
fa
fa
f2
d1
db
03
e3
cd
26
17
bd
0c
f3
f2
de
f7
fa
db
09
e0
13
f6
f3
f9
ce
0d
ff
e5
e5
18
d6
05
ef
2c
d3
00
46
d0
f3
e0
e9
f5
d5
d8
ef
db
fe
d3
fa
e8
ef
03
0e
d8
cf
22
14
f4
d3
16
ec
0f
13
e9
1c
0d
ed
0e
f3
dc
e4
13
06
e4
ff
f3
0c
17
0d
16
1a
50
db
03
22
d6
fd
ea
16
fe
2b
13
00
0e
0b
3c
16
13
ee
df
04
ed
f1
04
0d
f1
1b
ee
f8
e7
de
c5
06
02
0f
f9
2b
09
d8
01
35
05
08
dd
c9
14
12
e4
f7
08
f4
e2
08
f7
10
e7
27
17
e2
f4
e7
1e
d9
eb
ef
d2
10
28
12
f1
03
03
0b
c4
05
1b
da
fc
f1
08
f7
e8
f1
45
15
f2
f5
db
22
fa
f3
03
32
28
2f
f2
f5
d3
e4
e4
1f
f4
32
14
16
f8
0e
f0
05
06
ef
00
cd
24
2d
f8
e2
ef
f3
fd
dc
07
f1
02
16
17
f2
e5
0b
e7
fc
e4
3f
bf
fe
37
d8
dd
c5
24
f6
0c
f5
f9
07
f4
f2
f4
0c
fc
ee
f3
07
1c
13
24
d7
02
34
f1
09
f6
1b
e4
0a
f7
e4
e5
0a
dc
08
09
1e
19
1e
13
f7
0d
1d
56
22
2a
f3
f0
e9
d9
ed
f5
b6
da
e3
21
ff
16
c1
e7
e2
0c
22
01
fc
f4
ec
df
f1
fb
0f
26
d3
10
dd
f7
06
17
1e
28
f3
03
0d
18
0d
14
19
47
f4
01
27
f8
fa
07
0d
18
00
ed
f9
2d
f8
24
1e
01
1b
eb
1d
31
c8
05
fc
0f
fa
dd
0b
c0
fd
c0
b5
f5
f5
27
db
1a
02
16
07
01
24
2f
03
bb
05
de
ee
17
11
05
13
05
15
06
fc
f1
db
0c
ed
c9
e3
07
e9
0c
f4
0b
10
01
23
0c
37
36
db
0e
0f
fb
14
f8
f8
00
f6
0c
02
f4
23
0c
fd
ea
16
ec
f0
e0
e3
e0
e6
e0
bb
1a
21
35
20
23
07
e9
30
fc
f8
c6
f9
de
f5
f6
ff
13
d3
0a
dc
04
ef
f0
f3
f0
fb
01
29
f4
15
f3
10
07
d7
20
22
2c
ec
13
e0
e4
f6
f3
c9
cc
11
04
de
fc
dc
ee
16
0b
da
08
fc
0b
dc
f1
08
07
cc
12
f1
f8
d0
06
27
06
12
d7
00
0e
f7
f9
14
28
f0
d7
ad
2b
e3
f4
0b
16
28
0f
1c
0e
1f
d7
03
0c
19
0e
d8
f8
1a
0d
00
b8
f9
0b
ff
de
dd
05
2d
0e
9e
f2
1a
0e
cc
1c
09
f5
10
1c
f7
fe
13
1e
0d
16
f8
03
dc
0e
09
e9
06
14
09
de
0f
fd
d5
05
e8
fc
e1
f0
0b
ed
f2
fb
ff
eb
30
f2
1e
05
1b
15
eb
f3
f9
dd
e3
00
e0
01
11
fb
f6
21
f3
cc
e0
d0
06
07
fc
db
0f
e0
f0
21
fc
0a
19
12
fc
03
0b
fb
25
c7
0a
20
11
eb
e4
18
e1
fc
22
da
03
03
19
15
fb
eb
ff
ee
f8
e9
fc
03
ee
1a
fa
c9
18
0f
10
28
f2
04
32
21
01
df
ff
21
02
02
d9
10
0e
3a
d1
e3
ec
e7
ee
cb
d4
d1
11
30
d4
dd
2c
2c
ff
26
1a
f9
38
f4
f1
06
dc
1e
4b
29
f4
e7
10
33
f9
e6
25
11
3c
02
15
e7
ef
14
1e
f8
0e
fc
fd
cd
09
10
f2
f3
1c
f4
28
14
f5
3a
bb
c7
08
cf
0e
16
f3
df
0a
f3
27
f5
0f
bc
02
fb
06
02
fc
e2
06
f3
d3
e8
05
fe
ec
e0
07
ce
f5
fb
f5
0a
06
15
1d
ea
d3
03
11
cd
03
d7
ff
fb
f5
dc
f0
17
05
f7
16
0e
48
eb
ed
f1
2f
fb
13
d9
05
d6
f6
1a
24
0e
03
26
13
ef
08
f1
fc
d5
10
18
17
e8
1a
c1
4b
fe
ef
18
df
f0
f2
29
f7
10
de
fc
d9
e3
03
30
f5
19
26
db
1f
f7
f3
dd
fd
24
e0
08
f7
2a
e9
e5
0c
f3
fb
05
df
f7
fd
1d
00
f1
f1
13
d7
d8
02
cd
02
f0
0b
24
02
ff
df
f3
10
e3
2b
1b
fd
14
f4
ca
02
d9
e6
16
14
00
00
00
05
0c
28
14
fc
f6
e4
1b
d6
23
05
fa
fd
10
39
e6
ef
da
06
14
e7
fa
03
1b
2f
f8
e7
f7
e6
ef
fa
ff
0c
33
21
05
fd
46
20
fc
35
00
fe
ff
1e
00
e1
1a
f2
f8
05
15
ef
14
db
f1
f0
f2
f2
e9
0b
14
f7
26
04
dd
0b
ec
08
e1
0f
33
0b
dc
05
20
ee
15
28
30
1d
bd
f4
ff
fa
20
36
13
0f
12
e8
fa
e5
01
ca
0e
07
15
00
f2
09
1e
f3
f6
4f
f2
0e
09
13
dc
d8
3a
18
09
f0
fc
0a
0a
f7
f3
40
10
e3
06
fa
f1
e5
da
f9
fd
08
d0
25
f7
08
13
08
12
09
26
e9
12
d0
00
38
06
fe
19
f6
eb
0f
19
ed
ee
10
1a
fc
f2
01
fd
f4
08
ff
10
ea
f6
fc
0b
be
dd
16
f2
0a
2b
1c
e8
24
07
ed
ed
d8
0d
3d
0e
cc
11
fa
fa
b7
0a
e0
18
13
18
18
ef
e8
ca
34
02
fb
1a
10
f4
14
e7
e4
f5
f9
0b
01
1e
f8
e3
ff
fb
09
44
f5
d1
0d
f7
16
eb
e8
0a
e9
17
2f
db
e5
36
dc
1e
d1
e5
b7
16
12
f3
e8
0e
33
01
26
0b
ee
1d
04
f2
f8
f7
fe
32
1f
18
ee
c9
f4
f0
04
09
f6
09
ee
e4
e0
03
08
e3
1b
1b
e3
14
e9
d9
01
ec
13
e3
ec
ef
00
00
ee
f5
24
0c
22
fb
db
e3
d2
04
1c
1f
05
13
fc
f1
ee
f1
12
dd
07
ec
d0
f2
07
22
0b
9d
0e
f1
cf
18
09
01
e4
01
05
fc
f8
c1
23
3a
04
f0
2b
fb
e5
3b
dc
0c
17
19
f9
e2
1f
06
13
17
ee
fd
f4
cd
f5
0f
17
fa
30
e7
0e
0b
49
26
2b
0b
0d
24
f8
0a
1e
e2
22
0d
0b
09
0b
17
e4
d0
f1
fc
fa
e6
f3
12
02
0a
02
02
10
2f
01
1e
31
23
0d
ce
24
dc
03
37
f4
06
fb
e3
e6
f1
eb
ea
ea
ef
f4
e9
02
cd
e5
cd
f8
2c
ea
3d
35
12
dd
b7
ea
f1
c1
25
dd
2a
24
de
e4
17
1c
e3
f4
f0
2a
e4
02
08
15
25
2f
48
27
d3
2b
2b
f9
08
fc
07
e9
04
04
c9
16
e9
0b
e3
30
ec
f1
e5
15
ff
01
19
11
04
f0
da
fa
14
58
20
f6
de
f0
03
d3
05
1e
05
f9
19
18
1a
1b
f4
00
ec
fa
15
1c
eb
cb
06
17
e9
2b
0f
00
e4
f8
ee
cd
1c
e5
1d
4e
2b
de
1d
fe
14
d4
ea
c8
24
de
19
d0
ee
fb
f9
1c
ff
1e
15
11
16
ee
ea
13
28
02
0a
f3
06
05
0d
17
04
2f
00
1a
10
26
01
39
01
0f
ed
3e
02
ee
f9
ba
e7
05
d0
ec
00
f1
09
f9
1d
24
ee
e7
d4
01
16
07
11
ed
ea
d8
13
03
07
cf
03
f2
d4
e0
d8
2c
f5
31
0d
dc
20
1c
0f
12
11
11
16
d0
3a
e5
ff
0d
d6
ef
ff
f0
0d
07
0c
e2
dc
f4
ec
f0
e7
01
12
e6
05
23
14
d0
fd
fe
f4
3e
aa
db
2e
fd
ec
0b
0c
15
ed
ee
ed
19
f2
f4
0f
09
1c
ed
16
18
fa
dd
29
f2
14
36
f5
50
d1
df
31
e1
2b
00
f2
c7
0f
f9
0e
21
f5
e0
e3
e3
0d
0c
01
2d
0a
0b
11
e7
16
ec
1f
0d
07
13
f9
c3
f5
06
19
26
22
27
ff
fd
0d
2c
09
ec
14
26
f0
e4
0b
f8
e8
fd
e2
fa
2b
18
f5
e0
10
e2
03
e4
fa
3e
f3
fd
05
03
05
bf
20
08
38
0a
4f
1d
0a
06
e9
f4
06
2d
1d
17
06
fe
f6
00
de
f4
ed
f8
c2
19
03
da
f7
e2
21
d3
36
24
ec
ee
1f
27
cb
04
fa
ff
e8
fe
df
e8
fa
12
c0
13
fa
ed
f2
fb
2a
06
2f
0f
00
f9
ca
d3
04
e9
1d
0f
03
14
e4
19
fd
f0
1c
f3
06
07
e7
01
2a
16
24
04
09
e2
eb
3f
fb
09
f2
f1
d9
e5
f6
09
06
ff
fb
02
ff
18
1c
fc
18
f7
ea
f3
0f
00
d2
e7
f8
f1
13
17
c8
ff
02
e1
ad
08
17
28
1e
2b
eb
d3
13
01
05
1e
10
12
09
1d
df
2c
04
0c
f1
0e
f7
ec
e4
ff
01
14
19
dd
c6
cd
24
03
03
f5
cd
41
ea
0f
f0
f4
10
e0
25
d8
00
03
18
32
f6
d5
21
f8
19
0c
c6
03
f8
0e
1b
29
1f
00
f5
f8
e3
a5
ce
0f
e2
e8
17
d4
24
06
13
00
21
e9
bd
ff
0b
e1
0a
1c
d6
09
cb
c6
18
cf
c0
19
ea
f9
ee
23
eb
e1
d4
0a
07
36
fa
e9
17
11
05
09
e4
0c
0c
fa
12
00
16
fd
f6
c9
f7
28
15
1a
06
33
23
de
1b
02
15
31
dd
0c
f4
e7
f2
eb
e7
0b
10
f5
0c
e1
1a
1b
30
18
21
e4
f9
fd
e9
d8
1f
f8
e1
da
bd
fa
10
18
03
da
0e
0c
11
fe
06
f7
20
ef
19
fa
e7
03
f4
29
fd
07
17
ea
16
30
08
3f
1d
c9
f8
e1
ec
21
2d
07
f5
01
34
21
e7
ea
0e
06
13
0c
e7
d6
ca
dd
f7
07
e3
27
fd
d2
f3
e8
f5
08
ec
3c
fb
0b
09
10
eb
00
17
18
06
f6
c6
10
15
09
ab
dd
19
0a
14
08
28
dd
f8
f1
04
e5
18
fa
2e
1f
0b
e8
e2
34
da
e2
ff
13
13
f2
fe
21
ec
0b
fb
1b
f3
ff
ee
e1
ee
00
f2
0b
19
20
1d
41
1a
10
06
ef
1c
fc
c8
14
da
ee
e7
f2
ff
f8
03
e7
1a
11
f9
30
fb
e2
01
ea
1c
c8
15
15
09
0a
0f
33
f4
da
35
ed
21
02
f8
2c
2a
f9
e8
fe
1c
00
35
07
f3
11
ec
08
10
ef
11
2c
03
ed
d2
ed
25
fc
19
24
f1
05
be
f1
c9
1e
07
e8
0e
f5
08
27
f3
d3
e0
f6
0d
fc
00
12
f6
fc
df
03
e3
f1
ec
26
e2
1f
12
01
fa
36
e4
e6
d2
cd
e3
d0
00
d8
e3
02
df
da
cd
24
e3
06
15
06
14
c9
12
fc
09
1d
ec
f7
d5
fa
e1
17
d4
e8
13
24
f9
12
03
f6
12
d2
f4
0a
f4
d5
ae
03
f7
e0
0f
0e
00
27
03
cf
e3
fd
fe
27
dc
2e
26
f1
12
06
09
cc
1e
fc
cf
0c
dd
01
dc
e3
0f
43
24
f7
1c
05
e1
11
28
ea
2a
d9
fe
04
43
f2
03
29
22
03
1e
11
de
b3
dd
10
fe
06
a9
32
2d
0b
f9
d8
18
ed
07
22
f6
fe
fc
d1
11
f3
13
ff
fb
03
ee
f8
f3
05
fc
19
df
54
05
f6
0d
17
0a
f6
0a
fe
11
f4
ff
01
f7
ff
37
e1
39
2f
11
19
ff
04
d7
19
f4
e9
e3
0b
d6
2b
fb
17
e7
51
fd
e6
02
e4
d6
15
ff
29
10
1c
ec
0e
f1
2b
f2
f6
f6
08
0f
ea
2e
fd
f1
22
ee
f8
0b
0a
cf
15
0f
03
f9
04
fd
ff
ec
0c
f7
2f
fe
df
fe
02
f9
20
01
10
f9
ef
fa
23
fa
14
0c
0f
e7
20
10
ea
ce
07
eb
0e
da
14
fb
df
03
e5
39
fb
21
27
fd
f6
16
f2
e3
17
ea
1c
fd
2a
0e
02
b1
1b
f3
e9
da
f0
db
02
f4
0e
d4
dd
f0
02
f8
24
22
f4
10
04
04
ef
1e
0a
f5
eb
07
06
0b
ef
41
e0
ea
f8
c9
23
fe
e6
02
0d
06
d0
17
0c
21
02
df
2e
c4
15
22
15
da
fb
ec
fe
e3
ff
e1
e7
22
08
03
d5
01
ff
0e
e5
0c
d2
f0
03
25
07
31
09
f4
f3
fe
32
dc
f4
03
2b
f5
0a
c6
02
e6
e3
ea
e5
dd
c0
fa
fa
d9
d7
32
0b
f5
0b
12
ea
d5
eb
05
1c
16
37
f2
11
0b
23
ce
05
c4
11
1d
e0
de
fd
fd
11
ec
0c
ee
ce
01
f4
da
0c
dc
05
fd
05
fc
01
d5
25
0c
10
07
1a
29
fc
10
e0
e6
1a
fd
e1
f9
fc
db
dc
0a
11
dd
06
07
0e
05
dc
11
07
e8
f6
f4
05
e6
2b
f3
ff
1d
d7
23
f9
1e
f3
25
11
ef
d0
03
fb
e9
c3
17
fa
ff
2a
31
fe
f7
38
fa
15
fc
dc
06
f4
30
32
01
1a
16
ed
c5
29
37
1d
32
e1
ad
f1
05
fb
e5
37
f4
03
d6
18
22
ed
01
fd
cf
12
fb
17
24
f1
ba
12
e8
0b
fa
15
0a
da
f8
e1
1c
e7
1f
2f
0c
e6
f0
30
01
f9
00
13
0f
f1
fb
f5
09
17
1f
f4
e9
06
0b
16
0f
0b
e6
e2
e2
d7
1a
d0
f1
e8
ca
1d
1d
18
48
23
06
00
d5
eb
0b
1e
cd
04
fd
08
b6
1b
d4
da
1c
f7
e7
11
05
f3
ed
1c
00
ff
f5
d4
14
d3
e7
0c
20
e6
f0
11
06
ab
0b
1b
1f
ff
e7
31
f2
0d
13
0f
f4
d4
07
1c
2d
19
dd
fc
02
22
f6
f5
10
18
21
23
02
0b
1a
08
25
dd
01
02
21
e4
f2
32
25
f7
dd
eb
0b
e3
24
03
c9
14
33
f7
28
de
18
0d
2b
0b
ee
09
59
21
d9
ca
e4
d0
33
0e
23
28
29
0e
ed
1a
d8
ea
32
f9
e9
f1
d3
de
1b
05
0c
07
fa
e4
ea
d4
00
03
f1
fc
05
08
02
ec
fa
11
f3
0b
18
17
28
15
ec
e5
0d
08
d5
07
05
02
02
1c
21
30
20
35
e6
ff
41
eb
f1
df
32
13
d7
d8
11
21
d0
09
33
bb
f7
2e
eb
2b
a2
be
2e
03
fb
d6
fd
32
ff
d2
e6
e6
11
16
2e
f6
2c
0a
db
ec
12
d6
ee
1f
0d
fa
0a
01
95
d5
0e
00
1c
08
be
23
d4
cb
ee
e6
0a
02
f1
03
3d
cb
0c
ed
f6
0d
00
fb
06
fe
de
e1
12
1a
eb
cb
12
08
ef
d7
dc
05
df
e2
00
f3
05
df
fc
d5
1c
e7
08
16
17
dd
23
e8
fe
f1
05
00
f1
f6
17
2f
fc
25
ea
c8
f2
04
e0
12
05
de
ee
e6
07
e6
ea
26
f2
fe
09
15
d4
fa
d4
f8
05
f6
32
09
eb
f8
ee
ce
01
00
1d
e8
1e
1e
f0
1b
4e
19
fc
22
39
20
e2
15
23
ff
06
29
eb
fa
09
07
0c
fa
05
21
f5
15
f9
09
05
eb
d8
17
00
c9
33
f5
da
07
4a
df
1f
39
ff
ff
24
03
eb
06
11
ce
fd
da
01
f1
e3
04
04
26
0f
e3
f7
ea
0f
17
0c
0c
04
e5
f6
02
15
0b
dd
fc
1c
fa
e2
db
f0
03
12
f9
06
d7
f0
db
fa
27
fb
0c
0c
e1
e1
15
03
04
e9
1c
f6
26
d9
18
10
19
f7
df
08
fe
19
33
fb
f6
0c
ee
fa
16
f6
e1
09
2b
cd
27
04
ff
f8
13
03
01
ed
14
14
f7
09
f0
16
11
df
ed
06
f5
d6
f7
5b
10
36
fa
19
e9
25
15
fc
1d
09
eb
fd
f0
00
13
f6
0d
00
e7
f1
d2
ff
e9
20
d0
fb
2c
df
f9
26
24
f5
2a
0c
0a
0c
23
17
03
fb
ee
0f
f4
ef
19
ec
07
f2
01
00
c0
01
20
00
e7
f0
38
db
ef
13
ee
2f
09
15
00
0c
fa
1c
1a
ca
f6
f5
09
ee
04
cc
c9
4d
ec
01
d9
f1
29
05
15
1f
e7
e1
16
08
f5
f9
03
f0
ec
02
f7
02
1c
ee
f4
07
f9
0d
f7
0b
0f
f5
0e
f2
0f
ff
0e
49
b9
f5
22
0c
df
14
ea
fe
ed
d9
0d
f2
04
49
14
0c
0e
ed
11
1e
18
19
01
18
e6
f5
ea
30
ff
19
f7
2a
f1
f0
3f
d6
01
e9
25
10
b6
00
2a
23
f9
f1
23
d8
01
0d
14
e1
2a
f5
ed
ee
dc
12
11
3c
f0
fa
19
e7
fd
f6
fd
08
fa
04
20
18
30
08
f7
e1
fc
00
0e
d5
28
04
02
1e
e0
e5
08
1a
31
fe
1e
37
2d
ef
10
fa
18
13
e8
c9
f1
b7
e5
02
f2
2a
23
18
09
ec
fa
e5
19
0f
1f
03
20
47
e4
22
04
26
fd
03
fb
d8
1e
12
f0
ee
1b
2c
3a
04
03
fa
10
e0
d5
0f
23
18
f8
f0
14
26
25
3a
13
31
0d
d1
40
ea
41
04
09
fa
0f
10
fb
1f
06
2e
ed
c6
15
28
16
e1
17
c1
de
ea
05
11
07
ea
0d
12
c0
f3
fa
0c
01
16
19
fb
04
14
13
ed
44
22
f2
e9
18
e4
0d
e8
f1
d6
00
f8
04
f4
1f
17
0e
f6
08
62
1b
1f
ff
e7
db
fb
ea
fd
e2
ed
07
ed
37
f7
e8
09
0b
ec
f2
2b
26
0e
33
f3
27
0a
e8
f1
1b
f6
dd
ca
fb
2a
43
df
28
0c
c6
f7
1a
f7
f1
e1
03
17
fe
0e
03
0b
f4
ea
fc
07
e3
0c
f5
c3
0f
e5
e8
02
f3
dc
e2
14
03
10
0a
0f
f7
01
1f
04
05
e6
ea
c5
ec
f9
e0
fc
0a
ff
26
0f
16
28
f3
08
04
dc
e4
f9
d0
06
f1
f1
fd
eb
df
05
e9
c5
d9
f3
01
f0
c5
ec
14
04
37
0a
fc
0d
11
c7
f9
09
10
01
03
f6
f3
fa
e7
e5
ed
e6
f9
0c
0f
05
f8
04
08
16
01
34
03
d5
0a
ec
18
03
12
f7
0e
13
b3
0c
0e
d8
2b
f7
f4
1f
31
14
20
05
f5
f9
e2
11
e9
e9
37
e7
e6
ed
f9
df
e9
f6
03
e7
13
f1
0c
13
fc
e5
01
28
f5
40
f5
fa
0b
11
d2
f1
e3
e7
da
f6
24
d5
fe
d8
eb
b4
e1
02
e5
f2
20
07
25
26
f9
f1
e2
e7
f8
fb
e1
1b
e1
ef
03
03
e2
e6
d6
c8
d0
04
cb
01
f6
0f
ee
eb
20
40
07
f5
fa
0a
e1
14
e8
e7
fe
1e
16
10
14
fd
e9
f6
f6
fc
f4
0d
22
d8
d3
1e
11
f8
f3
bd
d2
ea
08
3d
f0
20
d4
32
ea
04
23
25
29
0c
05
d4
20
e5
b8
e5
1b
fa
fe
0c
14
13
ca
f1
0d
f4
24
0c
ef
f0
db
09
22
16
31
e7
e5
c6
f2
09
00
1f
e6
ce
16
cc
f7
e7
f9
22
0a
e8
10
1d
fa
ec
ee
f5
cf
08
f8
dd
3f
38
f2
23
ef
f6
0b
eb
07
11
f0
4c
17
00
26
1a
d8
f1
12
e1
ee
de
dd
fa
fd
04
05
e6
fd
ee
f0
00
0e
f3
e1
ff
07
0d
f0
17
de
fd
fd
d2
f9
0c
06
cf
19
f6
0a
06
ea
c1
05
10
eb
e9
e1
20
02
f1
0b
ff
01
1b
17
0e
28
2e
f2
ec
4c
c5
d7
16
1b
02
f7
3e
07
34
fd
cc
f9
db
e9
f1
00
fe
e8
2a
d3
fe
05
d2
fb
05
00
0b
1d
db
3d
ef
e8
07
f0
0f
03
ba
f5
2b
de
11
dd
16
18
eb
e5
df
fd
1f
e9
2e
eb
41
d6
28
2b
03
01
11
f3
e0
0b
1b
e3
07
26
cc
ce
fb
f7
13
0c
2a
eb
42
e5
27
f4
fc
ee
19
21
d9
05
09
06
10
18
ed
25
e6
20
22
f6
27
fa
fa
13
1a
21
fb
fd
0b
07
16
d6
fd
0c
18
e9
10
2c
02
25
02
e7
e8
e7
0b
0d
e5
e6
fd
e1
fd
04
f3
cb
e9
20
1b
09
0f
01
f8
52
f6
f2
01
f6
05
1e
15
1e
e9
02
f2
f4
ff
22
0a
33
c9
f3
3c
02
01
0e
fe
18
41
e8
fa
c9
d5
25
cc
ea
c9
f0
07
e2
e1
d9
0b
d6
12
df
e9
05
ef
03
ec
26
d3
04
34
f7
1f
f8
f7
ea
16
e8
f4
ee
20
04
e2
f7
59
f7
05
2b
e5
ec
18
fc
df
f2
0e
0f
19
23
e4
17
e2
11
e5
28
2f
2d
c3
d9
f9
07
d7
19
fd
df
0f
0c
e9
f5
fb
2e
04
fe
df
e3
f3
f6
13
1f
1a
18
0f
fe
1a
33
f9
ad
1a
1e
ed
e7
ef
0b
e9
05
fd
00
19
e5
ea
02
1c
17
ef
fb
06
fe
e1
10
fe
04
f9
f4
f2
3b
22
e3
ce
00
45
37
f3
1e
10
0e
dd
09
09
f5
0e
05
14
01
f2
c3
c1
dc
29
1c
03
05
e9
0d
e7
06
ff
0d
1f
fa
e6
0e
06
fa
fc
06
0c
07
dc
05
e4
eb
1f
0d
f9
1b
e2
1f
e7
2f
65
01
f3
06
11
fd
f5
f2
e9
06
15
dc
d7
04
dd
29
12
fe
f6
17
fa
10
f9
1c
25
1a
f1
ff
34
fe
29
fa
1f
0c
12
e5
e5
e2
09
27
f2
06
e1
ec
c7
f5
f7
0b
1d
fe
de
08
fa
d7
06
25
08
1b
d9
f0
08
f7
18
e3
e9
f8
ed
fd
3b
fd
cd
f6
16
04
ff
1f
0b
d3
fb
49
fd
17
02
36
1c
2d
0e
f8
04
0b
e6
14
1a
13
f0
25
f2
05
05
ee
ef
f0
e9
04
fe
13
1a
c9
f2
0d
f5
1c
f3
d8
15
37
2c
da
24
0b
dc
24
03
ed
d5
ed
18
15
14
e6
df
27
f6
2b
d7
2b
07
18
3e
0c
ee
29
fb
04
05
34
10
fe
02
0c
25
03
e6
0d
d0
06
2a
10
08
18
04
c8
de
eb
fb
d7
fa
f3
0f
f5
3c
ed
e3
10
1d
ea
1a
1b
1d
16
f6
02
f3
0b
03
f7
3c
42
03
e8
26
30
0d
c3
0f
d5
ae
0c
0b
14
07
fb
f7
fa
22
0d
0e
ec
0e
e9
f6
e1
e2
f6
3a
17
ee
f7
ee
2f
e4
f8
f4
01
15
e6
ff
13
06
cd
1e
fe
11
1a
e7
ed
be
e2
e5
d9
3f
0a
0a
02
d8
06
e4
e6
33
0b
0a
14
f2
11
e3
01
29
0f
00
03
fc
f3
ed
1f
18
df
02
28
dc
f9
11
11
f0
2e
04
01
fa
f7
f1
00
f1
f6
fc
49
d9
dc
eb
31
1c
c5
0a
f8
10
eb
f6
df
d1
ed
42
f7
f9
1d
23
e7
ea
13
06
dd
15
f6
0e
c5
09
0c
11
db
fd
e6
14
1a
fd
ea
08
32
ec
01
0e
e4
28
1e
e4
27
28
18
2e
1b
ff
14
f4
f3
ed
e2
1c
2c
1c
ed
00
f7
04
f4
25
18
26
ed
1f
c8
f1
f6
e6
11
13
e8
0d
ec
04
0b
f4
e0
e4
20
0e
f2
2d
f6
2e
fd
0a
e5
f0
1a
d6
c5
e6
f5
20
e5
0e
12
0d
31
fd
17
e7
fc
0a
07
3b
31
0a
fa
1d
17
09
f5
f1
00
0b
e8
e0
d5
2e
2d
03
0e
f1
e4
16
fa
ff
f2
0e
fb
15
0c
09
08
c5
db
30
2b
21
2e
f4
e1
04
10
e0
ff
09
ec
e4
07
28
19
ce
00
e5
28
58
ea
07
e2
27
29
fd
00
f7
28
e5
fc
0f
fa
03
fd
ea
00
ef
fa
15
f4
e0
e8
d5
e1
f8
36
17
e6
da
dc
02
23
1d
e6
f9
f6
28
1a
0d
f6
39
f1
ef
ee
d3
1a
16
11
dc
28
f5
d3
f0
fb
f9
e2
ec
00
e7
f4
13
f1
03
2f
f4
2a
ee
49
0d
fd
ec
1c
fd
e0
f6
f9
27
12
d6
11
10
1b
fb
21
0c
08
fb
f6
0f
da
15
0b
e9
f4
e2
ee
0b
f3
e7
0c
0f
e8
37
d0
00
eb
38
1a
49
f4
12
ee
e9
d7
da
dc
19
17
27
e4
1f
ea
1d
e9
00
fc
15
0e
02
05
ed
26
fe
f5
f3
3b
0d
18
fb
df
2e
cd
d9
fe
dd
df
06
00
ff
f5
0a
18
fc
e6
15
47
f5
04
0c
d0
f6
25
fe
c4
09
0e
0e
f3
3c
ca
fe
2c
fd
00
08
06
22
f1
04
10
06
c8
f5
1f
34
df
09
fb
e7
25
0e
24
ff
ef
39
0a
e9
e3
e0
d8
cf
1a
e9
05
d5
e7
02
18
0c
f7
e9
fe
fb
0a
19
e4
12
07
fc
22
17
eb
1b
01
47
16
2e
05
0f
cf
12
f8
f1
e1
e9
3b
0b
0a
ee
df
e9
eb
ef
da
f5
b5
13
34
bf
fd
e3
fa
ec
fe
01
00
0d
22
dd
1c
12
e5
12
2b
06
f5
fe
ff
ea
f8
16
09
07
10
31
0e
fb
46
fb
ff
dc
1f
03
37
17
0f
f9
f3
02
c7
02
e2
fe
f9
0f
e1
e7
09
f4
02
e3
27
fa
11
1b
ec
e5
eb
de
f5
ef
f6
13
23
23
10
f9
12
0f
12
21
08
2f
15
25
13
f1
00
f8
14
1a
24
ad
d2
d3
2b
e8
e6
16
15
df
0e
40
f3
db
f0
0e
e5
01
ff
a9
d1
17
0b
14
0c
1f
fe
fb
ed
ed
0f
17
e2
fb
c2
fa
fa
2b
1b
d8
f4
fd
2a
3b
f9
27
0b
f2
e2
f5
c4
04
fd
f2
e0
cd
23
14
23
10
2b
fc
c2
16
16
e0
fe
f5
0e
eb
e0
1f
1f
fd
d5
08
0c
ec
f4
04
03
1b
e6
16
e7
09
19
06
15
c2
00
ec
f6
0c
e8
1c
0d
22
0b
18
20
0b
1b
dd
1e
10
f5
18
b7
19
f3
da
ff
fe
f9
f7
2b
3b
23
fb
ec
18
0b
df
ff
01
26
10
dc
fc
f2
f1
f6
f4
17
ef
e2
e9
37
fc
03
ef
01
05
f0
fa
f4
16
fe
d4
15
0f
fe
26
f8
00
f5
fc
1d
f7
ee
e6
1c
f6
ef
d5
07
fe
20
24
09
36
07
de
d4
ec
0d
27
ff
0c
12
10
ea
11
05
0f
12
fa
33
13
dd
9f
f4
fb
12
33
16
06
00
de
0b
09
e3
00
e7
11
02
1e
0e
d3
ed
d8
db
fd
2a
fc
fb
e7
f3
17
fe
ef
f3
0f
b6
ea
e7
ff
e8
13
f0
1b
f0
f4
f1
40
20
f1
e9
44
f3
10
2d
0a
d5
16
05
0c
e8
13
ea
f9
d5
30
00
e6
f0
f3
de
e8
ed
da
c5
ef
27
da
eb
de
e8
f7
1b
dc
16
de
cb
29
02
c7
f8
05
2e
f0
16
26
1b
fa
35
18
d5
1f
fa
c5
27
ff
09
0c
ed
12
15
f5
43
0b
00
de
09
ff
06
f1
e8
0b
fc
04
06
20
e2
34
d7
02
ee
ff
ba
0e
e4
ed
fc
0d
ec
fd
13
db
35
02
ff
ef
1b
db
e0
11
06
02
39
02
d0
e6
f2
00
d5
02
25
ea
2f
f2
23
0f
10
14
1c
e9
de
10
05
fe
17
27
df
2b
f0
f3
f8
e4
fc
20
09
f7
f8
ff
21
1b
11
13
17
f7
e7
4e
07
0f
09
fb
27
08
13
14
1e
13
11
ff
d0
00
32
d9
2b
0e
18
ee
23
e8
22
23
e3
2c
10
0e
48
ea
3c
1b
1f
ef
10
23
ff
f2
e1
07
e8
0b
0b
f9
0c
00
16
00
06
06
17
07
38
09
e0
f1
ea
eb
ec
15
1e
fe
33
06
cc
07
e8
ff
e3
0b
21
0c
ed
0e
ee
59
26
db
18
01
ef
fc
d7
ea
05
1f
f7
ff
1b
e7
35
ec
02
05
e1
24
f5
dc
0f
e9
f6
ec
e6
d6
f9
e2
02
2a
fa
ec
fd
16
00
ea
f5
e6
19
e4
d6
02
f2
c4
10
e3
2a
0b
eb
0a
17
e0
0f
e6
e6
02
b7
00
ec
dd
ee
16
c4
02
d1
ef
fe
f7
e7
0f
f7
21
eb
ff
1c
fe
bc
39
f0
1e
c6
04
e2
00
fb
e8
1e
2c
fb
f1
fa
18
f1
13
fa
f7
0a
ef
d4
23
29
f3
e5
ea
25
de
f5
fe
f9
39
0a
30
20
15
00
2b
09
f4
ec
04
db
0a
c2
0d
b6
15
fc
ed
f6
ed
d1
e9
0f
29
1d
26
14
06
f7
1f
0a
24
c1
2d
1a
f0
fe
11
ed
09
0c
f1
0b
09
fb
00
04
2f
3b
04
29
f8
b7
dd
fc
fc
12
24
d2
2a
f6
ea
18
0f
0b
06
1b
28
05
23
02
2c
05
f4
10
18
16
0d
0d
da
f0
38
d1
d0
eb
38
f3
fd
13
00
0e
11
fe
1c
01
ef
d1
06
ff
1b
3c
ff
13
f8
c2
19
13
fb
0f
06
02
f1
0c
eb
fa
39
05
fd
20
eb
e0
2f
ea
ee
fb
e3
06
e3
22
50
15
03
df
16
d8
e4
1b
06
11
fc
e3
c4
e2
22
08
f2
17
04
cf
fd
09
c9
ee
26
17
24
0f
1a
0c
cb
fb
da
f2
e8
f3
39
3b
2c
35
e0
e3
02
e0
f4
11
04
ea
ff
6c
f5
05
1c
28
3e
02
f7
27
16
e6
0b
00
e8
10
f9
3e
29
ee
f8
07
01
27
1a
25
f5
1e
e2
f1
0a
09
18
1c
12
f1
f0
d9
22
25
0d
c5
09
ff
de
0d
f7
11
08
e0
f7
1f
0b
c9
f7
0a
e6
ec
35
d9
08
08
d7
ec
f6
0d
0c
f2
0a
f6
f2
08
f2
ff
de
32
f9
e8
03
f8
f2
da
2b
23
e8
26
07
1d
16
f9
17
30
25
fe
0a
db
f7
11
d4
e6
fb
03
24
15
eb
f1
06
fd
e9
06
fc
c6
14
1a
e3
c4
fb
2e
f7
2a
f1
f0
f2
1f
ea
3c
df
17
ed
1d
03
fc
12
e9
fe
4f
19
f4
e8
f4
1c
e4
e7
29
ee
1a
0c
f6
01
14
d1
02
d5
c9
09
fa
f3
2c
04
ec
f6
d0
02
fa
21
0d
08
f7
c8
07
ed
f8
ef
23
b4
23
1d
10
d7
ef
02
f9
33
1f
14
e6
df
0f
f5
f9
10
ee
29
0d
02
eb
f9
e5
c7
0e
ee
1b
ce
fb
fd
1c
18
fc
ef
f3
ee
fc
2b
0a
23
34
2c
e9
1b
15
10
40
10
03
f5
02
0b
20
0e
ff
31
1e
09
1d
f6
f0
0c
c7
18
0a
d3
36
16
f0
2f
08
07
2d
21
1e
fe
ea
ec
11
29
e0
f1
09
0d
01
f4
dd
f5
c0
ea
ee
24
e8
1a
16
08
c3
d3
f3
ed
0d
ff
06
13
f7
d7
12
df
f0
0b
cd
ef
fa
1b
18
e3
01
fe
fc
ff
eb
14
db
1a
d7
13
e8
d4
f8
1c
11
18
01
e2
fa
31
e2
0a
fb
2f
06
fc
16
f7
1b
19
22
24
09
04
1c
17
ef
bc
de
d6
f5
07
1d
f7
fb
e8
f5
fd
e8
23
0e
11
ee
ea
ea
d6
25
01
16
04
e3
18
e4
3a
42
11
d9
01
d6
fc
38
d7
15
dd
0c
d2
de
1f
a8
fb
0c
3c
2f
f6
12
29
34
1b
06
10
31
c7
00
db
26
f3
46
da
20
3b
03
f9
d6
e9
e7
fc
d4
e8
ff
ee
dc
da
cc
11
26
f4
de
33
ea
f1
12
20
eb
ce
25
dc
ee
06
0c
cf
fe
2e
d2
0c
04
0e
0a
0c
f5
47
11
f1
f1
19
f4
f5
04
e9
f0
0c
f9
14
25
e9
0a
f3
2d
ee
fb
f2
17
13
f3
f9
e7
2a
f6
1d
ed
30
51
09
0b
19
f4
e9
02
2b
cf
df
fe
03
1a
0c
f7
f9
f8
f0
24
ee
fe
17
1a
11
ce
e2
16
15
f0
e3
0b
17
0a
fb
11
e7
f2
e0
d4
f6
fe
17
04
ee
22
13
fb
fc
fd
09
c4
e6
13
0c
09
fc
12
f7
02
38
0f
f9
08
cb
11
08
f0
1f
16
f3
e0
e6
f7
f4
c4
1f
44
0a
e7
d2
0c
16
48
05
e6
f0
3b
19
fe
0f
d6
02
00
eb
ef
f3
28
1d
f4
12
1a
ea
2d
d7
1b
dc
09
0a
04
f8
10
d8
16
e8
10
2f
2e
1e
24
f0
05
16
12
08
02
00
1e
26
be
02
f4
1c
eb
0a
22
15
f5
23
21
eb
f6
07
fd
1d
fa
f6
f3
dc
35
de
15
1a
1e
e7
da
ea
e1
2a
f3
25
e0
e6
03
11
f7
f6
2f
14
ea
23
05
16
c4
e9
0f
ff
e1
cc
0f
0b
02
1c
1d
33
fe
ee
03
0a
e6
02
ea
02
fb
02
e1
fc
0b
32
e8
f7
d4
23
1f
df
ac
10
01
e6
1d
1e
2f
06
f2
f7
02
ec
1a
f4
e3
01
17
fb
10
0b
f2
eb
05
f0
2c
0c
0d
22
e7
f6
1a
ed
2a
23
e6
19
ec
36
21
f9
4b
10
0d
2f
fc
cd
f1
12
0b
20
18
1f
37
f0
07
0b
8c
0f
f3
06
f4
e7
1d
f4
14
0c
d3
fa
0b
19
2f
3f
05
12
0c
d5
1b
ff
fd
0b
36
21
fe
15
f6
c1
f6
05
e3
ee
de
f4
ed
10
ff
f7
e6
21
08
da
0b
05
16
15
3b
dd
28
16
1a
e6
f4
1a
00
22
10
0e
e5
0d
21
25
fd
13
f3
09
0c
22
0d
18
eb
15
36
fc
05
04
02
ef
fb
dd
01
09
f9
1b
14
ed
d2
0f
14
e8
e8
fd
13
0f
d4
3f
b4
0e
2f
15
d6
25
08
48
ff
ef
00
fe
09
0b
11
dc
33
29
df
18
0f
de
fb
0d
05
f2
22
d1
30
f8
f7
e6
e2
00
eb
e4
fd
0b
09
19
0f
1a
23
05
0b
04
f5
21
e8
eb
25
30
fc
11
d1
10
06
d5
12
f5
d6
25
ee
3c
e3
e4
26
20
f4
0b
04
d1
01
38
02
fc
0e
ed
06
f3
38
d8
12
14
00
25
00
1c
0b
14
00
e6
e4
15
f8
14
37
f9
1f
d5
e1
de
09
f1
d2
df
11
e5
e8
15
23
fd
f5
f9
fe
e5
f0
f3
11
e8
25
e0
f1
db
fb
d2
02
da
15
03
df
eb
da
28
0a
ff
e0
23
38
e3
eb
fe
04
19
fe
ef
05
04
12
03
f0
08
19
fc
cb
16
03
c1
47
0e
06
c6
12
23
ed
29
13
02
eb
fb
e8
f6
02
e4
d2
35
f1
e7
c7
fa
22
e5
17
09
cf
05
0f
d8
e7
fb
0a
09
01
dc
1c
ff
4f
1c
21
23
f3
1c
c8
fd
ee
09
f6
f0
c7
db
d7
12
12
f4
da
2f
04
f2
eb
2f
2c
c9
08
ed
17
11
3b
1c
10
09
0e
ce
07
e5
fb
ec
f6
de
d4
f9
dd
ee
f8
2e
e6
ec
09
0e
19
1a
05
fb
c4
09
ef
f4
11
ff
e3
f6
19
f1
ea
04
f0
f0
f3
d8
06
f1
f2
e0
f6
f6
f5
cb
ee
d4
0d
03
ee
05
16
07
38
1c
1e
2b
2e
0a
d0
20
1f
1a
e3
ef
e1
fb
fe
f1
c8
ec
29
26
09
25
0f
f9
02
e7
1f
fd
0e
20
0b
26
e0
e8
1e
14
ec
00
04
e4
ee
10
2e
16
d8
36
f5
05
e3
3f
ef
0f
07
f2
f2
25
08
12
ff
f2
f2
01
1f
17
4f
f7
37
0c
2b
03
0e
12
ef
19
1a
c9
13
04
0f
ed
dc
07
13
ed
f5
0a
dc
e9
01
f6
d6
11
dd
ef
0a
f5
15
f4
e5
ef
0a
f5
ff
f4
c9
24
fd
f3
19
03
19
f1
ed
14
22
c5
f8
2a
d1
fe
2c
1d
d4
24
31
06
ef
e9
0d
ec
fa
ee
f8
fa
00
09
25
01
f0
0e
02
fa
02
f9
3d
1f
28
ee
ea
f3
08
d2
ff
ec
0a
f4
24
10
1a
12
09
e5
ed
2e
c1
f4
fd
21
08
2d
13
d6
bc
04
13
dd
f0
19
f0
0d
12
10
ff
0b
fd
ec
10
0d
fa
f3
0c
f4
09
e4
f4
06
37
1e
ee
06
1c
ed
ec
fa
13
14
18
04
27
32
22
eb
e5
ec
f8
1b
e9
f8
25
d9
fd
f4
08
d7
00
ec
02
e6
fd
e0
ed
12
01
07
f7
07
32
07
e5
09
f9
1a
0d
07
0b
20
21
20
e5
ed
e2
1e
13
11
e6
fc
ee
36
f6
1f
fd
fd
e6
cf
0d
d8
b9
14
0d
16
0e
06
ca
0e
0b
0e
18
ff
fb
db
e0
ec
fc
0f
03
15
fe
e3
06
fd
0a
cc
0b
f6
e5
e5
fc
05
fc
e7
f7
03
d9
da
22
00
20
d6
e3
0f
de
12
f2
e4
fb
20
24
f8
e2
e1
1b
0b
f3
f7
dc
e4
cc
11
df
18
ed
cb
f8
2c
06
d9
07
09
ea
02
e1
07
f2
0c
cb
26
e5
02
e4
04
1a
fa
05
12
07
24
f0
d2
e7
2b
ef
27
f3
00
0e
23
dd
1d
18
f1
32
05
ff
db
02
10
36
27
d4
f3
da
42
df
d6
14
e5
42
26
eb
45
47
f7
38
1c
0f
fd
02
f8
e5
32
06
12
f6
f9
55
fa
33
c8
e8
ec
ff
e9
ea
15
14
fe
df
f3
27
02
d8
21
11
f5
19
ea
d0
e6
d9
1e
e2
00
15
08
02
2f
de
1e
e5
ed
18
ef
1f
fb
d4
0c
ee
fa
1b
02
b7
05
2f
0e
09
0c
fe
d9
d4
17
38
0e
bd
12
ff
2e
fa
0e
18
11
e1
1f
cc
0e
17
fa
37
12
da
01
20
2a
fc
f5
e6
ee
29
0a
f9
0d
d8
de
dd
fa
fa
f1
18
0b
e8
c7
df
34
13
28
ed
f8
13
23
ea
0c
f9
ba
00
c6
c4
22
e2
d4
f5
48
e4
16
0b
1f
12
ea
fd
0e
1d
fb
0c
21
02
f9
c3
25
07
18
e4
28
0b
fa
f7
20
12
26
0f
ff
0d
e8
e4
06
1d
f0
2e
08
dd
2f
21
f9
e9
07
17
10
dc
0b
e4
fc
25
fa
16
1e
d9
37
34
e6
f6
10
e4
de
2c
2f
da
3e
24
19
18
01
c5
39
da
f9
1e
f9
e6
d4
ef
26
25
c4
1a
1e
da
14
04
0c
09
fe
1f
f1
0c
25
cd
20
19
01
e6
fb
f4
0a
e4
f5
e4
fa
f7
0b
04
26
07
ee
f6
d7
e1
ee
00
fd
01
11
e8
10
ef
ce
03
e1
37
07
31
31
f3
26
18
fa
ce
f9
fc
f8
26
e5
ec
d4
dc
15
16
f5
ee
03
14
17
0c
db
0e
0b
f3
06
07
0b
36
fe
2b
fb
e6
e5
0e
0d
f6
2c
d5
15
0c
06
23
12
11
03
02
0a
02
07
08
1f
ea
1f
07
2a
f0
1a
09
20
02
f5
e8
10
28
df
0d
03
12
16
f0
f0
0a
0b
09
00
dd
07
f0
17
d6
ee
13
c1
e8
0e
2d
38
ec
e9
ef
00
f4
0b
29
e2
ee
2c
f7
f2
04
fd
16
05
10
25
fb
f2
28
59
ff
46
db
fc
f6
dc
f4
15
f8
1b
14
ee
c4
e8
30
e9
fc
0d
ea
06
cd
00
e8
dd
f0
f1
13
e5
2c
0a
f8
db
0b
31
00
09
d2
00
01
e1
f8
fa
03
ee
f6
f7
13
c0
29
43
32
fe
ee
12
fa
1f
15
da
e1
d9
e8
02
ff
16
ec
bb
1d
f4
ec
f1
ef
31
e5
1e
05
13
11
0b
f7
f0
03
4c
0a
f3
ca
0f
11
de
44
d0
00
0c
18
ec
06
19
f0
12
10
d9
e6
e8
f0
e4
f7
f6
f4
dc
ee
db
f8
0c
e7
f6
30
e7
ed
e2
cd
f6
14
f7
1e
2b
1a
10
f0
1c
fd
fb
0b
0f
08
df
fe
1a
d7
01
dd
0e
e0
29
f0
2e
09
e8
02
b2
31
bd
1a
d2
1c
ea
00
20
3a
05
02
ea
08
f1
11
0d
43
0a
f3
e3
ee
0a
3b
0f
fc
d8
e9
ce
de
f6
c7
dd
db
08
02
f5
ed
f5
d3
fd
12
ff
fd
16
46
0e
08
f8
18
f7
e3
fc
06
e7
fc
03
0e
19
ce
3b
1d
14
ea
e8
0e
f1
eb
18
e1
f6
14
f9
c9
0a
0e
f0
da
fb
0d
fe
17
21
ff
18
1b
23
13
f3
f5
12
0a
22
f7
11
07
f3
f8
f0
ff
f8
20
23
e3
38
db
ef
fd
0b
e0
11
d5
0f
e2
0e
fc
eb
0a
e7
e0
c6
e7
0b
05
09
0d
20
11
04
0c
19
37
2c
f7
2a
d7
e6
0b
f1
d1
b9
f2
10
1d
fd
12
df
e4
d4
b9
15
2b
f5
fc
09
cc
de
16
e1
29
c8
1c
09
14
0d
e6
d9
fc
0c
f0
fa
ff
eb
0e
d5
fd
1c
11
df
0a
11
07
f9
0a
d5
04
f6
0f
f0
0f
fa
02
fb
2a
eb
f5
0d
01
e6
ca
ee
17
d4
d8
07
eb
24
fa
fc
d5
e6
e6
ee
2c
02
f6
c0
0b
fc
31
07
d3
2f
25
1c
f6
1d
e5
20
dd
fb
0a
ec
22
12
02
ec
02
fe
de
e4
0e
20
1f
d7
20
fb
e2
ce
f8
f9
18
01
f5
06
31
e6
31
fa
ed
eb
cc
08
fd
ec
f7
f4
01
d1
ff
1d
f8
ce
10
d6
df
15
09
0a
04
f5
29
20
d6
29
07
4a
2b
1b
12
0d
f2
f4
06
0b
0a
e4
27
e6
24
03
f4
0b
13
1b
d4
15
18
15
f4
27
f4
06
f5
1d
01
0b
09
d8
1d
e2
2f
cc
06
d3
fa
f7
c7
03
f5
e1
fa
0b
15
db
e8
0b
d3
ec
ee
f6
3b
d4
e3
c5
17
f1
e6
26
17
e6
ef
06
29
fb
05
d1
17
17
fb
04
31
0a
11
dd
f2
fe
ef
e9
ef
01
09
f1
01
16
fa
1d
d1
20
24
3d
0c
30
13
0a
f1
e5
fb
1e
e4
0e
10
04
1c
f5
09
03
d0
0e
ac
c6
c7
e8
14
fd
e7
31
fd
05
06
2d
27
06
e6
d3
f4
ed
de
0c
0f
fd
ce
42
d7
3b
15
f1
fb
17
23
ff
ed
0c
0f
1d
0f
f7
e4
fa
26
0a
04
ef
ce
f4
e5
f7
02
f7
01
28
02
e6
fe
13
1c
f1
cf
ff
12
f6
23
f8
fa
e5
29
ee
0c
d3
fd
d9
e7
01
36
26
cf
f3
f1
f9
04
e5
ea
14
f5
10
15
52
01
fa
d6
10
39
f1
02
0d
d1
01
15
fc
1e
36
10
f1
fb
f3
21
3b
d4
d4
f0
d3
e5
11
f2
06
ff
fa
e9
20
f9
e4
f3
fc
f7
e1
d7
eb
0d
11
fe
06
f7
fd
f8
e6
15
00
e1
e4
f4
fa
03
f2
36
0e
10
bd
15
f0
14
f5
ef
fe
0b
f8
b8
1d
0e
11
10
0a
db
2c
f9
d8
15
00
13
18
04
05
f2
2d
fc
1c
1e
0c
15
13
fa
de
da
2b
d7
20
14
e7
f8
09
f7
11
fa
05
0b
dc
05
dd
ce
ff
d0
19
e3
29
f8
1b
16
0f
ea
49
08
0e
b6
32
fa
16
e6
14
fb
10
0a
13
0c
17
d5
1d
27
0e
fd
68
c0
fe
f2
1a
0e
e1
03
f2
3d
d9
f9
f8
11
f7
fa
30
26
1e
31
0e
ef
51
23
e6
33
1a
00
22
d5
ec
ed
df
fe
19
da
ed
17
29
17
fa
f6
1b
30
2b
0d
00
f2
ad
0e
f6
13
00
1f
d6
11
ff
06
08
f9
0e
f6
2e
fe
ed
ed
a7
e5
fb
f2
eb
ff
df
e2
24
e8
d4
f3
d8
11
ea
fd
17
f6
ff
09
c2
e1
fb
10
0f
fd
10
1f
ed
13
0d
08
e6
11
20
f3
1d
18
1a
e4
e9
f4
09
1d
fc
25
ff
d2
fd
01
f8
17
16
f1
22
18
3f
26
d0
f7
12
f8
0a
ce
ef
19
d2
f0
1e
03
17
db
01
06
34
12
04
f5
00
52
3a
fd
09
c4
ee
fe
fd
21
fd
1f
11
27
d0
06
e2
f9
08
07
1d
30
fd
11
d9
06
30
d2
f0
29
f4
ed
27
f9
2c
07
fc
fd
1b
1c
ff
1c
09
13
14
14
f6
29
25
0e
09
30
ee
f4
14
e3
dc
cf
31
3a
e4
00
24
20
11
13
f0
19
fd
f8
f8
07
19
30
10
0f
fa
3f
c1
c4
f9
19
d9
26
f7
0b
3b
e0
db
ec
d4
e6
34
f2
01
d5
f4
f1
15
d9
0a
08
0d
17
ef
f1
01
cd
d5
01
d9
ee
fc
c1
f8
0d
3a
35
ea
1c
db
12
ef
c8
d7
fd
c4
e9
ee
f5
dd
27
c7
c8
e9
f9
f0
18
1e
17
3d
06
e0
fd
17
2b
32
04
fb
df
dc
fe
fc
0b
fc
ea
bf
14
21
00
16
13
ec
f7
dc
eb
20
e3
22
18
e3
de
21
4b
1f
d7
17
e8
04
fd
c7
15
f1
05
05
de
ee
33
08
25
04
eb
f1
4d
ee
18
0c
fc
0e
ed
08
3a
00
f6
d9
15
e8
08
19
1a
ed
37
1e
ef
f3
16
0c
f1
01
f4
e9
e1
ff
23
fe
23
02
e8
29
0e
05
37
2e
16
07
09
14
24
14
e3
f1
28
e3
02
07
24
25
07
0b
f9
00
f3
38
f7
f1
e9
00
e8
41
d0
d4
01
e8
e8
1b
07
e8
27
07
e7
14
05
45
1c
15
e7
c9
11
d3
03
e9
0e
e7
f8
e3
ff
f9
04
27
fe
e4
f9
38
07
f1
df
2c
df
ef
04
ea
1c
28
1d
f2
13
fa
f7
12
ea
0c
04
ec
26
05
db
e1
e7
05
1e
02
14
09
07
06
07
1c
00
15
f6
2a
40
f2
ec
28
c8
f6
dd
1e
f0
01
f4
c8
04
0b
29
0f
d8
09
19
fa
0c
f3
ef
ee
ed
21
04
30
06
10
c4
f1
e7
f6
03
0f
0e
01
21
d7
2a
06
f0
dc
f8
f1
16
0f
19
ea
f5
2e
eb
c8
35
f7
00
ef
28
0c
e0
37
f7
e4
14
fe
06
0f
fb
1a
2a
ea
e8
04
0d
cb
05
fd
2b
fe
03
e0
0f
d0
f6
f7
b3
d0
c4
cc
25
e1
ee
f8
0d
14
04
e7
04
0e
03
f6
20
ed
f4
03
38
fd
2d
f8
c8
13
fb
fa
a0
38
33
e1
dc
07
13
16
10
21
04
fb
e5
0d
ed
19
2b
f4
fc
15
e0
07
1c
e9
d5
e3
fb
f3
c0
04
16
f7
00
f7
ee
11
0b
01
fc
f3
0b
10
da
16
f9
10
c4
10
19
eb
11
da
ea
32
2a
f4
e3
1e
12
e3
f9
10
00
14
ee
0c
09
08
2f
27
1a
12
0a
2b
0e
f6
f7
45
fa
f8
b5
04
f9
01
08
fb
38
ec
d0
23
da
d8
28
d2
d9
e0
19
e3
1f
01
fe
13
38
1e
0b
18
1a
ef
20
00
0d
10
01
fd
31
0f
ed
0a
16
f4
32
ea
23
01
19
2e
fb
0a
00
34
17
27
20
ee
3f
ff
0f
0a
09
ed
0c
e2
fb
13
f8
14
ff
16
19
f7
02
db
01
c9
e6
1e
fb
f1
28
0b
26
0a
16
14
22
22
03
fa
11
e9
1a
fe
07
f1
3c
20
00
d7
f9
2b
fe
f3
e3
22
31
ff
28
ea
0e
39
2f
15
e5
24
33
fb
04
e4
2c
18
34
f8
26
f0
10
0f
14
3b
47
c5
17
c8
ed
e6
eb
fe
fe
fc
23
1c
1b
04
fb
0a
2c
ca
21
ee
11
15
f8
fd
16
fa
f0
ec
15
1e
fc
fc
29
f6
f3
02
03
c7
1a
31
f3
f9
f0
fd
f0
34
c9
09
f6
43
01
1a
26
f3
0b
c2
10
04
16
c8
04
f3
ff
12
d9
f0
de
f0
fd
1f
f4
07
dc
cf
fa
fc
fb
e7
c9
20
21
f8
d5
02
11
e0
e9
14
06
21
14
02
b7
d0
15
fc
10
21
01
f3
e4
fb
00
fe
fb
03
fd
0f
e1
f4
22
d4
ed
02
d5
10
ec
e3
00
f2
db
d9
fb
2b
1c
e8
22
f4
e9
0c
13
03
e2
02
e1
ea
f1
f0
dc
02
e9
f0
10
0c
03
23
db
0a
e6
09
c6
ea
fa
d7
f6
17
06
30
ff
d1
0f
ff
d5
09
02
ec
06
f7
2c
db
05
e5
de
f2
c2
ec
d1
e0
08
db
0e
f3
e9
c5
c6
23
f3
01
fb
f4
05
18
34
fd
e5
cd
38
fc
d6
da
fe
2a
dc
c9
eb
1f
07
07
1d
21
07
01
07
0b
e2
02
d8
d1
02
d4
ea
f4
f7
05
fa
03
f8
f9
ee
d7
ee
e3
13
e7
18
11
0b
61
fa
fa
f3
fb
15
05
f0
01
0d
cf
33
0e
ce
dd
e3
45
e3
e2
0e
0f
24
c2
02
e9
3e
09
d6
fa
01
da
12
d3
0a
1d
ea
ef
fa
0f
0e
f1
27
04
0a
f2
fc
de
f2
09
0b
12
09
fe
0c
e4
36
ef
21
15
09
f9
e5
d2
f5
0d
fd
49
10
05
48
1f
f3
1c
fc
09
13
f7
1c
ea
15
0e
f7
c8
de
21
16
02
f4
ff
0d
fd
ee
ed
24
20
14
4d
fd
1e
ed
36
11
f2
2e
0b
ef
17
fb
f4
16
da
27
fd
18
09
f3
cb
d4
f6
26
0e
10
0c
08
e6
1c
d7
24
e4
d9
08
f7
3c
2d
f4
ec
f2
dc
08
e9
c6
fc
05
e8
e7
11
28
34
05
22
20
e5
16
37
1b
e0
f4
26
f9
39
e3
1d
d4
dc
30
f9
f9
02
20
10
f7
fe
21
19
0d
fa
c8
36
f4
f8
3f
ec
0c
06
10
d6
f5
24
1a
d3
f7
f8
d1
31
1d
b5
15
e2
ea
e8
e8
4a
18
eb
08
1b
ff
0a
45
ee
d9
f2
e5
08
d6
05
20
a9
ed
0a
d7
df
d0
07
12
1b
f6
fe
30
15
10
cf
f1
f8
fc
ec
ec
11
04
13
04
eb
2a
e6
1f
df
17
11
03
0c
08
ef
d6
02
c8
f9
20
20
3a
05
f9
14
ee
f6
20
ea
d4
f6
11
48
fe
0f
08
ea
03
2b
08
14
fd
05
13
0f
44
ef
f7
2e
ef
10
fa
f4
28
04
cb
f4
e8
3c
d0
1a
11
21
26
0e
38
05
d1
f1
cd
05
10
c9
f7
fc
32
2c
f0
0c
0c
e2
a9
1a
9d
d7
f9
fd
01
2c
1d
f4
20
f7
ed
16
f1
f6
2f
c0
05
e2
df
0e
e4
05
fe
00
08
1f
13
fa
0a
03
2f
22
0b
f7
15
e8
0e
15
32
ee
e3
f1
2b
0f
f4
16
d9
09
05
06
35
13
e3
e8
f4
1e
09
b2
b7
f0
0d
fe
02
26
39
d9
ee
de
2e
29
cf
19
23
05
22
ec
0c
27
e6
02
f4
fb
01
de
2a
dd
d2
fb
f5
1e
04
32
04
f1
de
0c
db
f7
0b
ee
fc
2b
27
0e
e8
d1
33
21
0f
51
02
fc
fa
f3
07
e3
ef
04
e0
f1
06
fa
df
08
0d
f9
ee
28
fb
c7
11
ca
fe
17
0d
12
01
ed
de
1e
da
28
f1
fd
0c
eb
07
01
1d
fd
f6
ea
f3
f6
09
00
15
18
ec
e4
33
ec
16
ec
0e
f9
db
ef
d3
06
f6
37
24
37
fb
e8
f1
dd
1a
e6
01
05
ec
25
08
2c
04
07
0f
00
fb
fa
10
fc
32
fc
e1
e9
c6
ef
ea
ff
31
07
e2
20
01
f7
ee
1b
d3
fd
18
e5
20
0d
d1
0e
db
13
0e
fe
10
f2
20
e5
f9
dd
e7
14
08
0b
1a
de
d9
f4
10
f8
2c
fd
f7
40
f1
e8
f0
24
ef
f8
0b
d9
ca
1b
e3
12
1b
18
03
fb
14
04
19
d0
d9
07
0e
e2
fa
f5
fa
35
2f
cc
f8
f8
21
21
e8
ff
f1
00
ec
00
f2
fb
26
06
ec
fd
fb
e3
00
e7
f0
da
0b
0f
f2
21
34
e9
fa
ef
2e
26
2f
df
41
10
f9
dc
0a
01
f5
ea
0e
04
ce
e6
03
02
0e
0d
d5
cd
e9
08
c2
08
06
db
18
23
e0
d8
0e
d6
ff
0c
03
fc
e2
fc
e2
01
2c
f9
0b
fe
e5
fd
0b
06
09
e9
0c
0f
0b
39
f9
cc
ff
00
b1
15
f3
ec
00
2e
15
ef
e9
fc
05
04
bd
fc
d9
fe
01
d6
d8
21
24
fe
ea
12
dd
00
eb
d0
c5
e6
07
21
d4
dc
eb
27
0b
13
ee
04
f2
e2
12
29
f1
e5
05
e8
f3
f0
f5
e4
d9
3d
ef
fe
c2
0a
c2
f6
f7
06
df
fa
eb
f2
20
fd
1b
21
18
cd
f0
08
ff
f4
e1
05
dd
20
0f
0c
d1
f7
35
2b
d8
e7
e4
c4
e6
49
01
ed
f2
1b
eb
e6
1d
f5
1f
f2
04
fb
e0
1d
12
10
01
07
fa
02
23
8a
ee
e5
f5
fa
cf
13
31
f6
ec
f1
e9
f8
ed
17
23
24
ff
31
24
f1
1d
e4
3b
3c
f8
dc
fe
0f
3f
2f
c8
03
f0
00
0b
f4
2d
00
f9
13
f0
d5
21
f4
14
09
15
18
0b
2d
f1
0d
f0
f8
17
fc
e6
fb
06
29
e8
f5
ef
0d
fd
fe
bb
12
f0
f1
f6
09
2d
41
d2
17
1b
2a
07
f9
f5
ea
1f
1a
d5
ff
c3
08
10
da
02
02
e5
03
f9
de
ee
f8
2a
21
29
0a
1c
ef
04
34
08
19
07
29
03
07
f5
e4
16
00
d3
ea
16
ed
ce
fb
1d
ec
2c
f9
f7
f5
3a
fb
e4
f5
f4
fb
ff
08
44
0e
11
1b
0f
3c
2f
d8
11
22
12
e4
ed
d4
fa
0a
0a
ec
e5
13
02
db
11
0b
e8
ea
e3
15
03
1b
fe
0d
f5
22
0d
26
14
f8
17
12
15
09
09
02
01
e8
e5
12
11
11
25
e0
15
f5
06
f1
ff
07
0c
db
ea
cc
fd
0b
13
03
f4
2a
df
be
fc
e9
e2
d4
24
04
fc
14
f1
e7
0f
fb
06
f1
13
c1
e5
24
e2
f5
18
20
16
c4
c9
2e
ef
18
d3
04
f7
dc
4d
15
bd
f7
d2
e1
d2
e6
e3
01
22
0c
2b
d3
15
15
d6
0f
03
f2
fb
0a
e3
eb
1a
cb
32
c6
0a
0d
23
e8
1c
f9
05
18
ed
ef
0f
e4
fe
bf
e6
21
3b
12
15
c9
cd
0c
d5
31
1d
14
3e
ed
d0
de
05
f7
06
0c
47
0f
e8
f2
0a
f6
04
42
ec
0d
24
0e
f1
03
d2
e5
0a
11
f4
18
06
f3
19
02
fc
f5
03
fb
c4
0a
0c
ee
ca
f7
24
e8
0b
1f
1a
17
10
06
06
f2
13
00
f6
f9
e5
02
04
e3
d2
f6
2b
15
dc
04
0c
06
0b
e1
e8
09
21
de
db
27
e8
e9
d5
c0
f8
0f
f1
08
f8
e5
0b
31
06
fb
d9
30
03
1a
f0
18
28
fd
19
ef
fe
0f
e0
02
c3
21
df
0a
12
1f
ff
23
00
09
1c
16
1e
cb
35
c9
4a
1b
08
fb
f3
c8
24
20
1c
e8
00
f9
ed
1d
f6
f5
f3
04
00
f3
fd
dc
17
fd
d2
02
0a
00
fc
08
d1
ec
fa
35
e4
d2
f6
f3
31
2e
ef
bc
d7
06
f4
fc
f9
11
ff
1c
20
0d
0f
e2
04
d4
0d
20
28
fd
f7
f1
1e
0c
e0
e6
2e
e0
07
20
fd
28
1f
c8
1e
13
d0
00
12
eb
23
f4
03
fb
d0
02
1b
06
10
0a
f3
f7
19
1d
f7
e7
fd
c3
10
ff
0c
c8
13
04
22
04
0a
25
fe
08
34
e3
f2
ee
ec
10
03
e3
f2
ee
00
f6
d5
04
fb
10
ff
c9
fd
e4
1a
f7
ff
cc
17
e8
fb
03
cf
17
01
fe
ef
fa
ec
2f
eb
e2
1d
e7
01
17
e8
22
0b
dd
f5
02
38
1f
f8
e5
11
25
1b
c7
e5
f4
fe
ee
0e
24
00
21
f7
05
03
d7
02
18
06
f4
ff
f1
2f
0d
f9
2e
21
15
f0
e3
20
f4
ed
11
ba
fb
01
eb
0f
e6
fe
db
f2
04
e0
00
39
e3
ea
26
cc
01
06
ed
28
b9
ca
e1
05
08
f9
d9
f9
0e
f7
d8
39
e0
cf
e1
dd
e7
e6
ee
c3
16
1b
0d
16
f7
20
01
11
dc
22
f9
12
04
04
12
11
f3
ed
fb
fb
48
1a
d5
f6
f2
0a
d7
db
eb
14
f1
1b
d4
e4
fa
eb
f1
16
ea
37
fb
f3
23
f8
26
c9
2c
f8
03
22
f3
ce
f6
c4
d6
2b
18
14
37
dd
e3
18
21
df
17
09
33
eb
f7
27
00
0a
0c
ff
f5
06
12
12
fc
14
02
f2
05
e5
43
1c
ec
f6
f2
12
2a
e9
ee
2a
0f
f1
e2
ee
e1
28
fe
e5
e0
19
d5
04
f0
05
0d
f3
dd
ce
fd
4b
10
f7
eb
15
0a
d7
ff
01
1f
d4
dd
f5
df
e8
20
da
ab
22
ef
04
ee
13
e1
d4
f9
e1
f7
06
d8
24
f5
f4
1d
00
f7
e3
30
e9
fa
e3
15
27
e7
fa
12
49
1f
13
0d
29
0f
f4
ea
06
ef
37
fc
ec
f6
e4
f4
09
f2
23
0b
fb
db
0b
fb
fd
e4
e6
c2
29
e8
ed
0d
2d
40
19
f2
e3
f2
10
0f
0c
0c
e1
a5
fd
f0
cc
07
0a
2b
1a
30
ef
ef
05
d8
fe
d8
ff
f1
0b
fc
ee
c1
2f
ea
e9
0d
fd
ee
43
10
18
0e
f6
d9
f6
e0
d4
03
2a
e0
1a
ff
1c
d7
d4
2a
18
29
05
0b
18
fb
04
ef
10
0e
2a
34
cf
fb
ff
1d
11
05
0a
de
ef
0c
36
da
36
49
fb
06
e6
2b
17
0a
f9
4a
f6
dc
f0
de
f9
e3
01
4b
12
e5
30
25
27
0f
c7
d7
f1
13
c6
2a
e9
16
f2
0e
fe
16
f8
23
27
f3
05
15
e7
d5
0e
f9
0d
ef
f3
ad
e9
f3
0f
fe
c6
da
02
41
f9
f4
22
ec
1a
00
f3
fa
34
ec
00
12
05
c6
20
2b
04
e3
37
f0
07
1b
03
36
ef
04
12
f4
ef
ee
0d
f9
e8
21
16
18
12
ea
db
4e
39
00
fa
15
d5
f4
e8
f3
10
f3
ef
f2
f7
e3
18
42
d9
e2
05
f1
dd
f2
0a
f6
e4
1e
ed
df
13
fe
e4
e4
fe
0e
e1
c9
fb
35
3e
17
27
16
1b
e4
f3
0c
20
ee
0f
25
01
e3
f0
1e
08
f8
14
62
02
e7
10
fa
ca
1f
ef
e6
bf
2b
18
e1
e2
f1
fd
ff
cf
57
1b
3a
ef
f5
34
be
22
f7
e9
2a
fd
06
eb
1f
ec
05
e9
f0
f3
cf
f3
2b
4d
07
ed
1c
2f
fb
f7
f9
ee
29
18
17
27
d4
dc
d6
ef
1f
35
e8
15
d7
ec
0c
f3
15
04
0e
bf
f8
31
16
3f
2e
e0
08
f9
22
f2
19
ee
ed
f6
17
e8
03
c1
0d
a5
04
10
f5
da
fc
16
e8
c1
17
49
03
0f
1f
02
c6
e0
e9
e8
cb
19
eb
ec
c6
08
1f
cb
19
2a
f3
14
9f
29
ec
f5
e1
fa
e6
08
01
17
00
10
eb
0b
29
c7
f1
db
e8
fd
cd
05
ed
f3
fd
dd
e8
00
3b
04
fa
03
0e
47
06
ed
50
d1
df
07
0d
06
d7
fd
e9
00
24
03
ee
3a
03
d6
e8
28
fc
ee
c1
06
23
f4
f0
fc
05
dd
ff
15
23
1e
f7
cf
db
10
f7
c4
fa
ff
30
ff
fc
e9
25
13
ec
06
f0
28
0f
0a
d3
e0
00
1d
32
04
ed
06
cb
f3
f4
09
31
ee
25
ff
c3
fd
f8
02
f8
dc
f3
da
ff
db
23
da
02
10
f1
17
00
e2
db
02
2d
1c
04
03
1c
da
e7
fa
07
e6
10
fd
05
03
f5
03
f9
f2
f7
f1
1c
e5
f2
ec
07
1e
e0
26
dd
06
11
d2
f9
e4
ce
00
e4
e1
15
05
dd
01
d9
04
e3
f8
e9
19
ca
0d
00
f8
0c
b4
19
dc
2b
f1
1c
d2
0d
e9
00
16
e7
f9
b8
09
00
08
f4
dd
e9
06
f0
17
2f
c6
03
ee
ed
e9
da
31
0d
f9
08
f5
15
d0
34
1b
e0
23
04
df
d3
1c
f1
e3
0e
03
23
0a
fc
e9
23
f9
08
fa
f5
f0
41
09
ff
da
04
3f
0a
0e
db
02
16
0a
fe
f9
d3
10
32
2d
fb
36
1b
2a
e4
f2
dc
f8
04
00
1c
ff
14
f7
fa
cc
20
f6
1f
eb
fe
03
da
f9
0d
d8
e4
f9
fc
f8
1c
0c
ea
15
01
f5
32
09
ec
f1
0c
1a
f6
fa
0a
3d
d1
e7
bb
20
13
e9
db
00
d6
0b
e6
d2
fe
eb
e4
ed
fd
00
f8
26
28
fd
32
c5
ff
d4
13
e4
f9
e9
f4
ed
13
19
16
20
08
0f
0f
f2
ca
04
01
ee
2d
f8
e4
13
d7
07
f3
07
12
f8
eb
2b
db
f2
de
e9
de
f8
b1
23
fc
09
17
fd
0e
24
09
2b
15
26
0f
cd
02
fb
45
1e
ee
09
09
0c
ff
14
ee
ef
e0
e2
f4
f9
e3
1c
1c
d7
ca
0a
14
3b
19
e1
f6
01
08
08
20
25
0c
3b
f4
15
02
e8
20
e6
17
41
fb
08
e4
1a
19
0c
23
18
15
14
f1
00
0c
05
1c
e8
17
fe
00
10
ea
0a
f7
0b
25
d4
ec
fb
07
ec
0b
ff
14
4b
10
ff
cd
24
02
08
0a
d9
08
ed
eb
fd
fc
f1
ff
06
d3
d9
ed
1c
f2
d6
27
12
0b
07
e9
1d
12
f2
1a
11
08
26
bb
dc
f5
d2
fe
f3
f3
2c
16
d0
0b
ea
1c
c0
fa
1b
ef
1d
f5
38
37
f6
e1
f0
ea
ed
ff
30
36
da
f1
f6
de
19
fb
14
e7
05
05
d3
ff
3b
ed
1b
01
12
29
14
d5
fb
07
ec
ee
0e
f4
ed
f8
f3
fe
e8
36
18
c7
fa
13
fa
48
0f
f9
06
f8
de
f7
37
13
03
33
11
f1
fa
fa
fc
dd
fe
e9
d1
dd
00
fb
2a
22
bd
e8
0e
fa
f3
26
ea
f6
25
29
ea
06
b1
fe
0b
e8
13
ef
c1
29
00
07
0c
41
05
f9
e0
1a
05
11
0e
03
0b
06
08
fe
31
c3
fa
b9
ea
22
1f
0e
23
09
00
1e
19
e5
e6
02
06
ed
f8
ff
f7
ef
fa
07
21
10
20
04
0e
e1
0c
2d
de
00
f2
e9
3c
37
e5
e3
f2
de
2d
1a
f6
19
fd
ff
05
e1
03
f3
ff
06
0b
f6
12
0f
c4
db
ed
f2
f0
2b
ce
31
f8
ed
f5
40
f8
eb
f7
00
26
e1
e6
ed
eb
27
04
d9
ea
13
fd
05
e7
05
09
e6
f5
f5
00
e7
e6
f2
03
10
09
0f
00
fd
0c
32
fb
f0
0a
f7
e8
f6
d8
e8
2e
ea
e3
16
f4
0e
02
08
03
01
1b
25
d2
01
26
d8
e5
2a
20
2a
22
0d
dc
fb
fe
f1
02
31
1b
fd
fc
ff
cc
01
cb
31
e0
e6
e1
ec
e8
3c
1b
0e
1e
cb
ff
e9
27
29
f0
39
eb
31
2d
fe
fa
03
00
ff
34
e6
01
1a
01
06
f4
de
34
eb
ea
33
0f
00
1c
1e
31
02
22
04
12
eb
02
e5
ef
ff
1b
ff
04
ec
00
0d
fc
2c
f1
f5
04
e0
03
f3
f1
0f
03
11
08
1f
ef
16
f8
1e
fa
22
fc
f6
09
31
1c
09
1b
dd
e5
f5
2a
d4
ec
f1
e4
08
20
fd
e0
05
04
fe
e4
f2
12
24
03
15
15
de
26
f0
0d
f6
03
ec
d7
f2
0d
02
25
cb
cd
e5
f4
14
0f
19
1a
0a
2c
0f
02
fb
e5
27
0d
2d
2c
26
eb
f6
e1
eb
da
d6
e5
13
05
04
c4
ee
27
f7
14
33
04
09
2b
fe
10
15
23
00
10
fd
c6
07
09
3a
0b
19
21
0e
04
11
2c
18
ee
f2
1d
29
ff
0b
f3
23
0e
f0
a8
0d
02
e5
12
d0
17
e2
f8
23
37
05
06
db
0b
f3
1f
c3
04
28
14
fe
1d
10
2d
f0
de
b4
c9
05
f0
f0
21
2f
fe
53
ed
ea
03
0b
f9
2f
f3
b3
d5
e4
1e
0e
dd
2b
18
07
f6
0f
f1
08
e3
eb
19
eb
0d
e8
d8
13
f6
02
e7
0e
f7
26
08
da
2c
03
03
16
ff
1c
25
dc
e6
eb
e9
d1
00
f7
17
e9
28
0b
db
fc
05
ef
07
13
ef
0a
ea
cf
ef
18
f6
08
0c
17
cb
05
ff
16
f9
f8
e7
c7
12
fb
19
fd
f3
e7
e4
14
f0
fa
e5
09
df
27
0a
14
e1
d6
07
e3
11
f6
f0
c9
da
ec
07
08
1f
f5
df
05
f5
04
43
2c
fb
04
1e
fe
d1
34
13
2b
db
27
e8
18
ef
42
c7
f9
de
df
ff
d4
08
19
15
1f
20
00
13
06
ff
18
e7
3b
06
2a
fb
05
44
1b
0d
eb
4d
f1
37
15
0c
06
fb
fd
03
08
26
eb
ec
16
08
17
d6
f9
24
05
e8
e6
09
db
dd
ef
11
1f
e9
dc
01
12
f1
2e
25
e5
eb
d4
e4
30
0a
1e
f5
fc
1d
0e
01
18
0d
0e
30
03
0b
d1
0e
20
16
1f
ed
0e
03
f4
40
e4
27
14
45
d9
52
de
f1
fd
fa
26
06
2c
25
f3
03
0f
46
1f
23
03
0f
31
27
f1
17
fa
ff
2c
d4
f4
2f
06
d6
ff
e7
00
dd
d3
b3
21
e8
07
de
07
f0
e9
f0
f6
12
0d
17
27
29
3b
ec
0b
1a
f5
0b
05
23
b7
0b
11
0e
14
24
f7
e9
fb
03
01
e8
11
f1
2f
1c
1c
f3
1c
fb
19
fe
f4
06
0d
ae
ff
12
27
c2
e6
05
fd
1b
0d
e1
0b
ee
f7
f2
11
0f
f8
fb
e0
09
3b
00
30
0c
19
00
02
0f
07
14
ec
ca
f9
33
3c
fa
1c
fe
08
fd
1b
d3
12
27
fd
f3
f1
c8
df
13
12
fa
23
fb
14
04
e5
dd
ed
0b
ef
eb
ec
fa
20
d2
ed
f7
05
d9
e8
39
40
05
1b
e9
de
0e
02
50
d1
00
25
d5
f8
f3
f9
23
eb
1b
35
0e
fa
fd
0b
1a
a6
0c
05
33
fb
04
fc
d3
fc
fc
c9
02
0b
1b
f0
16
11
22
fd
ef
e0
f2
03
1d
de
1e
d5
1f
16
eb
ff
04
3b
ed
f0
d0
f4
08
fc
cf
09
0e
f3
ea
13
de
03
1d
16
06
ed
09
fa
cb
dc
27
06
f9
3d
10
db
f7
15
13
1a
ec
f8
ef
ed
24
e6
07
f1
12
21
fb
eb
f6
d9
f2
25
0b
f4
f6
07
f4
f6
e4
cb
ef
df
36
18
e6
2a
03
ee
02
e3
14
ef
0c
c8
fc
f8
dc
e5
16
f2
03
f8
e8
1a
0b
03
11
14
1f
0c
db
0f
ce
58
30
06
e6
f6
f7
17
41
14
f1
07
00
30
db
26
10
03
16
de
19
d3
e2
29
22
03
11
12
0c
db
05
00
25
07
bb
11
d7
f8
0e
1f
04
cd
fb
29
1e
27
fa
05
33
2c
f6
f0
1d
f3
17
10
07
19
fa
2c
df
2f
0b
e5
06
da
e3
23
f2
ff
01
1f
d4
dd
04
ef
fc
f5
e8
dc
08
f3
30
0c
01
08
0e
0a
00
f1
20
00
e9
01
0b
f9
cd
2d
f5
0a
45
f3
fe
01
ce
1b
0a
fc
2a
f8
0a
d9
e9
11
d7
21
06
06
0b
e8
f8
13
02
f9
fe
dd
09
2c
e5
e0
f8
23
d0
1e
f7
fd
04
f3
1e
ed
1a
10
09
f5
30
ee
d2
13
fa
10
ed
e9
f4
f6
f5
f2
d5
2d
ee
e4
0c
e4
0a
20
2f
cd
f4
17
e6
2e
25
0e
0d
11
31
e8
0f
07
e4
16
06
f0
fa
d1
e4
18
f9
e9
0b
fd
06
1a
ed
f9
0e
ea
0e
43
0a
e3
eb
04
f1
30
06
c4
f2
fb
12
f2
09
f5
da
0b
d7
d7
f5
f9
d8
d1
f8
14
f4
08
17
ab
f9
0b
c8
0b
f5
ee
11
17
07
e9
08
02
e0
0c
08
e8
08
17
fd
fc
0a
e4
e3
eb
fa
f1
d1
ef
de
fe
de
dc
f0
e7
e6
0c
17
e6
03
d2
0e
24
fe
07
01
0d
09
07
24
12
3b
30
14
05
e0
d3
f6
ff
cf
ff
ff
de
d7
06
3f
f4
49
0c
2d
1b
fb
c5
d1
1b
d1
1d
00
07
d4
0d
0f
e1
fc
ee
2a
fd
1c
00
0a
15
fc
12
ff
f7
0c
fb
0f
f5
50
12
24
2b
ea
f2
ef
32
3c
1c
1f
33
d6
e0
09
ee
02
19
ed
22
e9
19
02
07
dc
1e
ed
cc
14
0b
eb
fc
ed
22
09
17
16
13
12
fc
0b
f1
23
16
05
08
ff
1c
eb
17
33
19
17
e5
12
d9
0a
19
03
2b
0d
ef
1c
1a
e4
1f
fb
fd
08
f9
fd
33
30
fc
d1
10
d8
1e
fb
1e
08
00
e6
ff
03
fa
df
09
29
eb
f2
32
02
14
05
eb
38
0d
10
2f
fb
59
12
03
1a
e3
f9
0f
40
15
c2
fb
d1
f8
d5
cb
46
fb
e8
f6
ff
02
19
d6
fc
19
13
21
11
d8
d6
1f
f4
01
f1
23
e6
f7
23
f7
28
dd
14
4d
e5
18
0c
0d
18
3a
16
52
1b
08
3d
f7
41
3a
f9
e6
fd
02
28
f6
fb
2d
21
17
12
d8
ce
0b
e3
30
15
d6
20
10
10
20
de
19
19
f4
02
2f
24
17
49
eb
e8
e3
29
08
0f
01
f9
d3
20
0b
0a
f4
44
1f
30
f8
0a
05
04
ed
07
01
03
0a
e3
f1
ed
22
0d
16
19
0b
d4
1f
ec
14
f7
27
21
1d
f3
25
e9
de
14
d8
ed
0f
1b
df
1a
16
1f
f5
e6
55
fd
33
1b
02
ec
32
0a
0f
21
0b
18
f6
f6
04
13
27
21
23
f7
f9
07
f6
b1
18
13
22
d3
02
05
12
22
10
f2
f8
13
f5
d2
d9
fd
d3
e7
0a
e5
ff
18
15
ec
45
39
04
d8
f7
e0
13
e2
0b
db
17
14
e4
05
22
fb
d8
ef
03
10
58
de
08
15
cf
f6
e4
17
14
fb
0b
17
d4
e3
f1
2a
00
18
df
f4
e6
fb
19
36
36
10
f4
e6
26
fb
24
e7
15
2d
01
e2
e8
0c
14
0b
f2
fa
b8
08
21
0d
bf
ed
d8
0a
ec
1e
09
01
33
03
e2
f8
14
11
e6
e9
19
f7
30
fa
12
27
10
fb
09
e9
f2
35
f8
15
e4
08
f3
f2
1a
12
15
df
10
d5
f2
f2
09
08
02
f0
f4
e0
03
12
f3
02
ec
18
e2
eb
0f
24
e2
f2
14
f6
e1
e2
29
c8
02
07
05
c3
f8
3b
f0
f8
02
16
f0
1c
ef
05
1d
06
26
1a
e3
0e
0d
f7
f8
07
c9
2e
03
0a
e6
c8
0a
ed
e8
ec
d3
02
d4
0c
1b
ff
fd
21
10
ab
f5
f9
21
16
04
0c
dc
39
f6
0c
03
00
e6
e0
f7
fc
fc
24
06
12
fa
dc
25
ed
1b
fa
cf
e9
10
fe
bf
27
f0
04
f3
f5
03
e5
f6
13
14
1a
07
fb
11
01
f0
46
21
16
fe
36
f4
ed
0b
f4
d7
35
15
df
d8
4b
f2
f1
f3
19
de
09
f9
e6
0b
ea
1e
d2
f7
d6
c7
1e
09
f7
30
fc
e7
32
e8
ee
d3
3c
fc
c2
0a
f7
e5
cb
05
e6
d8
ec
fe
ca
1b
ff
26
2f
fc
21
0d
f2
ff
f6
e4
f3
e7
eb
f0
db
16
10
ec
16
11
25
d9
e0
05
d2
e7
ea
02
11
df
15
f1
cc
0b
dd
f7
f2
f9
ee
f9
05
0e
1f
0e
e9
2b
ff
b8
f0
df
23
fd
ea
32
e4
0e
e5
e5
40
0c
01
0c
d5
eb
00
1f
e0
e4
ee
e1
28
fa
ea
da
dd
ff
1a
05
e7
19
fa
e5
f3
03
e8
eb
2b
21
f7
1d
19
07
f1
1e
12
09
15
eb
1b
16
02
0d
08
f7
d7
2b
03
0b
2c
07
f7
fc
35
f8
e3
14
d5
1e
29
0a
f8
f0
e0
fb
12
00
f8
e0
f7
05
00
f5
d2
27
20
f2
ef
ea
f3
19
0a
04
ee
1e
f9
fd
12
da
c6
f9
de
21
f7
2b
03
e8
04
21
21
c1
e1
fe
15
0e
b5
01
fb
fb
17
e0
02
09
13
fa
e0
f9
df
ee
db
fc
20
e1
0b
35
eb
f0
0e
03
d6
24
b2
e8
fd
12
08
fe
c8
0e
0e
24
ff
19
28
04
12
f5
09
f5
f8
f4
27
e6
f1
18
fa
11
e8
25
ef
f2
0c
f2
f9
e2
c5
0d
05
36
01
ff
13
db
d9
2d
0f
2a
e3
f9
ed
f8
e1
fc
dc
ed
61
e3
45
eb
05
dc
e5
f9
0d
21
10
00
1b
ed
dc
f5
07
d6
f6
e3
44
f4
db
f7
28
08
dd
3b
af
f1
f7
08
16
c8
ed
fd
08
28
18
21
14
fe
bd
e4
19
01
d9
01
e2
d8
2b
f5
01
fc
f8
1b
02
11
fa
fa
e9
00
d0
f5
c0
fb
06
1d
49
e5
e0
ed
07
15
fa
0a
08
0a
36
16
15
fe
27
ff
f9
08
cb
fc
fe
07
e9
f9
db
fb
00
14
f9
af
e9
f4
e9
2e
e4
fa
02
18
17
d7
e7
04
21
11
e2
02
fb
e6
ee
fa
35
f7
2b
ec
0c
f0
0d
22
11
14
05
06
ff
ec
f2
15
ec
1f
f1
ff
24
1e
0f
fe
d8
f8
0f
1a
e7
c9
03
f0
25
0b
d1
0c
c2
e5
fe
ed
fc
1d
02
ec
f9
ea
1a
fe
f3
f6
18
17
3a
16
fa
e9
0a
de
f1
ef
ee
15
14
be
df
08
fd
08
db
f0
09
dc
06
12
f5
d4
bb
f5
f2
06
39
1a
fb
0c
0a
e3
fd
f0
ee
f7
0a
24
1e
02
d8
03
d2
e6
00
f4
4d
1c
00
01
0b
0b
f6
21
24
f7
1b
e1
f8
ce
03
15
0e
fe
09
f3
fd
fb
14
0e
0b
b8
06
33
ea
0e
03
eb
3e
da
11
de
ec
eb
1e
0c
ec
13
23
f8
f6
b7
df
1c
e9
fc
e4
0e
0f
d1
ef
cf
ef
e1
12
20
ee
19
d4
05
0d
e2
20
db
da
dc
e7
0b
ff
05
f4
0f
08
f3
f9
ec
01
1b
f2
fe
f1
ef
30
c7
fc
e3
f5
22
ff
13
09
10
ea
01
09
10
fa
da
06
29
ff
de
10
1f
07
f3
20
de
17
f0
21
0a
e4
12
02
19
eb
f0
e5
17
c4
08
03
ff
ef
fd
1e
0c
15
fb
b8
01
54
d7
3b
ce
fb
ee
fc
f0
3c
f0
d1
14
f3
fe
fa
10
dc
06
f3
e2
07
fb
10
05
df
13
13
50
18
ef
22
14
fd
10
f4
28
fe
e3
13
0d
e7
04
09
26
13
f5
1d
16
f2
fb
44
1e
ea
fb
2c
c7
23
fc
08
1b
2f
fa
d5
11
e7
24
2b
0e
07
eb
04
01
27
0d
1f
09
eb
e5
32
e8
14
fc
04
e7
08
ed
ed
0e
e0
bd
09
14
14
3c
06
02
2a
11
fd
da
0a
e3
f5
12
fe
13
fb
dd
e8
1a
02
f2
e7
42
30
e9
03
2b
0a
3d
11
fc
08
f9
0c
1a
dc
24
f4
2c
20
ea
fc
ee
17
e4
04
2b
06
e6
f6
f9
f7
29
fa
11
e6
fc
03
2a
db
2d
f5
f5
e5
1d
ed
d1
14
0c
f3
03
18
ef
df
fd
0e
05
18
f5
0c
11
06
15
f5
20
41
02
ea
f4
02
f6
07
0b
f6
41
09
f2
ff
04
12
21
0d
1a
f4
11
03
12
3e
f2
e7
f3
07
1b
c6
fc
00
f9
da
08
05
0e
0a
fe
13
e4
ed
d9
ce
ee
4a
e7
19
0d
e3
0b
1d
d7
01
00
30
e3
f6
04
e3
04
05
f1
41
1c
d6
0f
12
07
fb
e6
0d
02
0f
3a
0a
3a
d5
d3
f7
b6
10
01
e0
1c
f0
f0
3b
f8
bc
06
21
05
38
e7
e8
00
1a
0f
24
23
01
04
21
dc
f0
0f
fe
11
fa
ba
f8
1b
c6
f6
1b
fb
1b
38
e4
f5
04
09
25
f6
05
ff
00
e3
00
04
ef
10
45
10
f1
ac
2c
d3
f7
16
e5
17
f3
06
01
1a
04
1c
09
e2
16
e0
c8
d1
1e
31
00
e1
fe
0a
4b
09
19
e2
d3
cd
cd
38
0a
f7
16
0a
14
09
fc
f1
19
0e
23
47
e2
ea
43
21
e7
ed
05
f3
02
f2
e2
2e
d8
cd
d0
0d
0e
1b
10
25
de
e0
0b
ec
cb
0f
1e
ff
06
20
0c
4e
28
01
f3
ce
e0
08
e8
1e
0e
05
2e
db
ee
05
01
ed
dd
19
01
13
1d
fb
01
13
21
2c
07
1a
21
fd
d2
07
fa
18
ea
0f
e1
0b
11
c6
24
f0
c8
da
15
2d
1b
1b
eb
e7
39
fe
37
ef
3c
f7
0b
eb
c0
d7
d0
dd
07
dd
f5
07
1d
02
07
ef
14
0b
09
d7
10
22
15
06
15
1a
09
ef
f1
0b
e9
e8
e0
f0
02
03
f7
08
39
20
10
03
fe
14
e4
03
07
f5
a6
05
23
e1
eb
12
2d
09
0c
fb
10
33
01
05
fe
e2
05
fe
d6
14
28
03
fc
3d
09
ea
16
27
19
e9
1d
12
24
0f
cd
1d
ee
e8
00
e1
0a
11
12
e4
e2
fe
f6
f0
e8
f5
01
3c
08
06
1c
0c
0f
d2
b5
20
18
07
fa
10
0b
e6
fc
01
e0
ff
e2
37
0a
34
04
c5
d8
fb
ed
11
fd
00
1f
07
16
f3
0e
1f
dc
2a
f2
0c
00
fa
f7
d7
fe
34
17
00
f8
07
01
15
16
e6
45
09
0b
e9
20
fc
f2
13
08
2f
fe
35
f0
e7
f8
08
f0
0e
01
08
00
4f
0a
e5
ec
14
e7
21
13
42
24
ec
f5
ce
16
2d
f6
4b
fe
04
1d
17
e9
fc
30
34
06
e8
c6
38
eb
21
3d
e3
20
1f
00
03
2b
29
3e
16
1d
f6
fd
e4
d7
0c
d3
e1
18
0b
e3
ed
05
f2
f4
ea
fe
17
ec
07
fe
11
f0
ed
d6
00
bd
37
1e
2b
d5
07
ee
f0
d6
1d
f0
e7
0b
1f
ed
17
fd
eb
ea
e3
1a
cf
10
f6
06
fb
f9
00
21
2c
10
e9
00
fb
ee
ff
f6
e9
1a
ff
e1
06
23
20
e9
13
11
de
ea
22
1f
29
cc
e0
17
d9
18
05
ee
10
15
06
06
0d
e7
0c
05
1d
f7
03
ed
2f
02
fa
de
d3
ed
26
0c
f9
f3
15
0a
fd
0c
1d
0f
12
2d
01
f1
f9
da
07
de
0a
2a
07
e3
dd
2b
ce
07
20
f2
0e
f8
f7
0b
37
2e
dd
e3
01
03
19
de
12
0c
17
18
ee
11
ec
ed
09
20
ff
cd
e2
f6
02
27
ee
07
2b
d7
f0
e0
24
f8
e2
2d
18
2b
0e
f6
f8
f3
0b
fd
1d
0b
19
0b
f8
02
14
14
c9
22
e4
00
f1
1b
eb
f5
c4
f9
fc
06
dd
1c
ed
f7
02
01
fc
3b
05
13
00
07
01
04
0f
19
e4
02
2e
10
ff
2d
fc
ff
06
de
e3
0f
f3
01
0f
09
f3
19
0b
0b
c2
12
f6
07
f6
ed
21
fc
c7
e7
20
dd
1d
b9
ea
02
f7
0a
d8
0d
38
e7
ed
17
06
ea
ea
fe
17
df
fc
06
e2
0d
ea
16
0f
d9
f4
33
db
d7
b7
03
f8
12
11
da
ea
0f
fe
d8
18
e2
ec
1d
cd
f5
0c
f9
f6
0f
f9
f7
00
ab
da
ea
db
f2
fe
1f
04
25
d8
f4
15
c7
03
0a
12
f3
e6
ea
05
f0
4e
03
e8
e8
fd
f6
f2
ea
1e
e6
1b
ee
e4
1c
e0
f0
dc
26
1a
ff
ec
00
14
09
f4
fc
eb
05
03
fd
16
09
16
d5
eb
fa
26
cf
24
da
0e
f1
e4
15
ff
3d
f1
14
ed
1a
28
f3
3c
15
f7
fb
fa
de
f2
de
06
18
f9
d3
26
f6
03
45
2e
f2
06
e7
43
06
b8
e7
1d
f0
09
0f
e8
e0
d1
fd
f7
07
e9
1b
35
fb
06
f9
f4
cc
eb
2c
0f
d9
e4
f3
f7
07
1e
c5
16
08
fa
3a
d2
d9
d8
f3
16
06
30
0d
e6
19
f6
22
24
c3
fc
de
05
07
2a
2a
de
20
ed
02
c7
04
ef
fb
1e
1d
1e
f1
07
f5
f4
07
21
09
30
ec
fe
24
11
0b
e9
22
bb
1d
f7
27
40
0c
f1
0b
0a
02
13
2e
dd
fd
ec
e5
f7
10
11
04
13
03
18
0f
22
f3
e8
f6
16
fb
0f
ee
d4
fa
ec
f0
02
