2f
13
ca
0a
1d
ee
ee
1e
f8
e5
f8
f7
0d
02
e2
0a
19
ea
2f
2c
04
09
fd
2c
04
0c
e9
02
de
35
05
0e
bb
e2
01
fc
dd
0c
f7
0c
d4
0f
02
24
f0
20
ea
13
08
23
f4
f4
36
25
e4
fc
fa
f9
fc
e1
29
fa
d7
f4
f9
17
18
ea
dd
08
19
eb
fb
d1
e7
f9
e6
24
30
1b
e2
16
1b
d4
f6
1d
0d
ed
e8
29
03
f6
02
fa
10
30
ea
e1
12
eb
37
ee
10
f2
0d
0c
08
c4
0d
f3
1a
e6
e3
f7
d1
08
e5
23
0d
ef
e9
f1
d2
12
02
03
df
fc
b8
fd
11
20
27
f1
14
ee
27
f6
09
ec
03
f2
b9
e9
fd
b9
09
02
0f
26
e6
f0
20
08
0b
43
1e
1e
f2
2d
e9
05
f0
c7
fe
3c
08
d2
f4
17
14
f8
1d
05
e8
f5
e6
d0
00
01
d5
17
08
fa
dd
e9
e6
06
fc
fb
ef
14
0d
fb
ca
ff
f6
f9
e2
07
e8
cb
04
18
0a
f7
0a
29
f6
14
e5
06
c1
aa
fe
f2
f0
1b
04
f1
43
fe
ff
f4
41
29
d5
00
fa
fc
b7
0d
d2
f9
08
23
02
0d
ef
03
e5
e0
2e
2f
fc
fb
0d
05
e7
04
02
de
f2
ef
12
10
19
c9
ef
f7
15
dc
fa
03
11
fe
ed
f5
dd
f1
f1
08
ec
04
18
f3
0c
f8
09
f6
1c
d8
20
37
e8
ff
dc
f7
ff
09
f8
02
1e
0e
ce
0a
df
d1
ee
16
08
e9
19
06
fa
0a
28
10
eb
4b
15
29
05
fe
fa
0a
d6
0f
d7
27
09
10
f7
12
3b
2f
e0
fb
1d
04
0d
03
29
ef
cf
1e
fc
e2
22
db
c8
f2
f2
fd
1d
14
fa
ff
d1
d4
2b
f0
0f
d8
ea
00
07
0f
fc
01
3a
0a
fa
06
1c
fd
f5
1f
09
e9
e0
fc
eb
e6
11
fa
f9
e7
1e
18
ec
fc
0e
f6
04
e5
26
f4
f4
06
f4
f2
15
19
ec
2a
0b
2e
03
f5
0c
f5
1d
de
eb
30
0c
f6
27
ef
31
f7
3f
17
04
0a
de
f6
ee
0d
e8
08
04
f7
ea
f9
e7
f1
fa
05
17
07
fd
1c
2f
19
ef
fc
1d
1d
d5
d3
2a
fb
0e
09
d6
fe
df
08
08
20
0d
f9
0a
c8
c7
03
f7
09
25
e4
dc
f7
1d
18
0e
02
1f
0d
fe
3b
0b
35
0a
ef
eb
e8
eb
ca
03
f9
06
10
fd
16
25
01
db
09
18
e8
03
05
f1
1c
0c
d9
05
15
15
fa
ae
15
01
fc
e9
11
26
0e
0d
11
f7
f2
0c
f0
f4
01
2d
1c
ec
f8
f0
de
12
fd
34
05
fb
c9
10
b9
f8
ec
16
04
f0
ee
0f
04
00
09
06
f7
ea
20
f5
08
2b
03
19
04
f1
19
24
03
f4
1d
45
08
26
10
ce
f7
f8
1d
eb
dd
11
f8
27
fe
10
e7
db
f6
12
f6
ff
08
1b
f6
16
ff
13
dc
15
fe
ee
fb
f1
0c
2c
09
eb
18
eb
21
1c
04
07
19
1c
12
e7
fe
f0
02
da
2f
cb
f8
29
04
df
df
50
f4
b7
08
0d
1b
00
06
05
07
24
0a
05
c7
25
2e
0a
1c
b1
ff
e8
1a
27
0f
18
e2
eb
f2
01
ec
e5
be
f2
f5
0e
e6
ee
e0
fb
0b
fa
ba
d0
f4
12
29
14
e7
07
03
0b
f8
0d
19
d4
fc
30
e9
df
d9
fb
ee
01
e9
0f
1c
dc
ed
f2
02
00
ca
cb
0b
03
fa
d4
09
f9
05
2b
f7
2e
f5
0d
c5
ff
be
20
27
fd
03
ea
e8
ee
d9
35
f7
fa
10
e8
fe
fa
f3
bb
f6
00
01
0c
ea
16
07
34
fe
07
07
f5
16
fd
08
16
1f
fa
36
14
ea
d7
de
e1
f8
f6
0f
18
07
f4
cd
12
14
f2
f9
1f
01
15
ed
13
3c
35
f0
e7
d3
00
00
48
c3
99
0e
18
29
1f
1d
fa
d8
df
08
e7
f6
f4
3f
42
34
0a
12
e5
f9
f2
e2
ff
cc
02
fe
dc
ec
0d
61
0c
fa
11
e3
ef
d1
01
ed
fd
f2
f3
33
0b
16
b5
e5
fb
f9
04
1f
c4
01
f0
14
12
ea
db
1e
0d
f9
03
f8
31
fa
e4
11
f4
e1
01
f4
e2
e6
d6
ef
fe
3f
e5
d0
fa
02
e3
0d
c6
1d
fa
08
ff
d9
dc
1b
eb
ee
f5
fc
07
cf
fd
e0
0f
fe
d7
11
16
1e
10
31
fa
2c
1f
0c
c4
df
cc
f7
02
ed
1f
e4
16
f2
3b
0f
d1
ef
f9
15
08
05
db
14
a5
2e
f5
fd
d6
0c
f3
ef
21
08
fe
ea
37
ef
c7
e2
e8
08
d7
fc
0c
04
f5
f8
1d
f8
0a
12
f0
ef
f2
0e
ee
dc
11
18
e2
f8
27
0a
23
13
03
e8
e7
ee
04
de
d7
e1
c4
0a
eb
00
e4
e5
fd
15
f6
f8
25
e8
e6
ea
21
2e
17
fd
03
06
20
f7
00
1b
16
12
07
26
41
16
15
ea
0a
f5
14
0a
27
f2
09
06
f6
01
16
22
e7
22
f9
be
1e
f6
fd
d0
20
f0
30
16
fa
fd
04
0a
e7
c4
f6
fc
1c
09
06
ec
d5
16
15
01
09
1c
56
eb
f2
fd
e5
fb
11
c8
40
da
1b
d4
08
17
eb
da
ee
10
2b
1c
d3
bf
d6
0b
df
f2
0d
05
3b
04
f0
f5
21
00
08
ff
09
11
e4
18
20
eb
25
dc
e3
fb
04
0a
f6
f4
ca
cc
f6
e0
1a
01
0b
e7
fe
f7
12
ef
10
f6
dd
3a
e6
00
21
45
f0
11
f0
0b
06
06
03
fb
24
db
17
07
0c
e9
17
04
d6
25
de
fc
f3
18
fb
24
f6
3d
ff
ed
25
e6
08
ef
15
f8
00
12
f6
f4
e6
33
0a
1e
dd
f8
12
f2
ff
d3
08
eb
dc
21
fb
fc
22
f0
2d
04
03
08
fb
e7
e0
00
d8
1c
10
0d
f7
e3
1b
fc
cf
13
f7
c3
e5
f0
ee
09
e7
d1
ec
24
1a
fa
f1
de
f6
0c
d3
09
0b
f9
f6
1e
0c
e6
30
0d
d8
d8
09
1d
d7
1d
02
1b
01
fc
05
d7
f6
27
f4
e4
f2
fc
d9
db
e5
cb
ee
f9
ec
44
22
0f
db
d6
f8
0d
d1
d5
1e
19
13
f2
fe
e4
28
08
38
23
21
c9
22
0f
f2
37
e8
cf
e1
f7
10
df
ee
ef
08
0e
0f
3f
ed
07
f7
af
d7
13
d3
dc
c9
37
ce
18
24
fe
e4
d8
2d
e3
07
16
e2
f6
f8
20
e8
05
28
29
11
e5
f1
fd
2b
07
05
19
0c
f0
d8
0a
0a
f8
f3
01
e7
1e
08
d6
d8
05
b1
1b
13
f5
02
f0
08
e3
01
15
fe
3e
b2
ec
2c
dc
0e
e9
36
df
ed
d3
d1
f3
e3
01
0b
fb
14
18
22
f0
06
f9
fc
19
34
41
c3
1a
eb
dd
f4
d6
ce
ec
2a
12
41
e9
2c
fd
35
31
03
ed
f2
19
0b
e3
e4
fc
16
27
ed
fa
ea
00
f8
36
fb
36
14
ec
e7
ff
0c
08
19
cd
1c
02
f4
f6
02
21
01
01
ff
09
2e
20
f1
ee
11
06
e7
1c
f5
da
09
0f
07
fd
e0
ee
e8
0b
ff
f4
22
e8
ec
1d
0c
f3
f5
ed
fb
f2
e4
3b
03
fc
03
19
e6
04
12
fa
19
fe
0a
0a
0b
1d
f4
3e
08
12
05
d6
29
1b
0c
09
10
21
09
17
f7
d9
3a
dd
1b
d3
32
05
f2
d1
f7
e7
df
12
f2
d4
1d
17
fd
11
ff
fc
33
18
ef
05
db
c6
f9
f5
dd
de
e2
ef
ff
04
ef
12
ee
e8
c6
ea
1d
3b
fe
03
1e
04
d2
ff
16
de
fd
e8
19
e4
e2
18
d7
e6
da
f3
0e
02
be
1e
3b
1e
dd
ee
0a
ec
2e
f1
eb
f0
0c
ca
f9
1e
e4
f5
28
06
22
fd
f9
eb
f8
08
17
1a
06
e6
04
e9
fb
0a
2b
1a
d8
de
f5
09
39
37
06
db
1b
14
1c
a5
05
2a
29
e9
fc
f1
13
d0
34
0d
fd
19
24
c5
cf
09
e0
c7
f2
0e
fe
ed
03
1f
1d
30
22
e0
f5
e2
eb
fa
f8
08
20
07
ea
10
13
07
e9
02
ff
c5
e4
f2
07
1f
34
10
03
e9
0d
1e
26
bb
e2
08
e6
c2
02
12
f0
0d
0c
f7
16
f2
e2
15
2c
1d
ed
12
f3
d8
00
38
ec
f2
fb
19
0e
1c
d1
ed
31
0e
0a
1d
e5
f6
d7
e3
ea
0a
19
3b
1c
f9
de
ed
1c
03
f8
1a
30
d6
f7
fa
04
c2
19
03
f6
fe
09
f5
12
1f
1c
ee
d5
1e
ba
e8
e4
10
fd
10
02
04
1e
e8
0f
11
fa
e5
ce
fa
53
e1
df
0d
08
0d
fe
0a
fd
25
e5
1b
ea
08
e2
0e
14
36
d1
19
e2
12
0b
de
22
fc
02
0a
ea
f3
ab
2e
04
3d
e3
eb
f1
de
f5
01
03
e3
09
d8
21
f6
07
e1
28
d9
07
f5
0a
d5
0c
17
de
d8
ce
0c
e6
e8
d8
28
fa
0d
e3
da
f9
ea
08
0b
12
11
07
d7
0f
0b
1c
fa
f4
3c
2e
0b
1a
0b
0e
29
e9
f7
36
c4
0d
36
01
2c
f0
f2
09
00
39
0d
fb
2c
d6
1a
ec
f1
0a
f1
e3
0a
f9
fc
f0
e3
f2
e0
1c
20
e9
07
f4
11
b9
06
d8
48
30
e9
e7
30
d3
0f
22
f4
01
e0
08
14
0d
02
0c
00
02
0d
12
1f
fd
f2
21
09
eb
fa
cc
10
e4
3d
0a
1f
db
eb
ff
f1
20
18
f8
e8
ff
f2
f7
f4
eb
1b
bd
0d
00
04
db
00
18
1e
e9
12
ca
fb
0b
f8
fb
c4
f6
02
23
00
0a
17
11
e6
3e
08
e9
04
04
f3
2a
2c
ec
e6
15
ff
d2
03
1e
ee
19
12
23
f1
df
e1
02
0d
e3
05
f8
ef
fa
03
cf
e3
00
22
0f
d1
e5
13
e0
09
ea
f1
e7
0f
1e
e7
00
f2
ef
0b
0d
f5
f5
f1
f2
06
df
ea
cb
e6
cd
e0
01
10
1b
05
cf
f0
fb
0b
0b
0c
f8
ba
ef
f7
03
fb
f7
21
d0
f1
f3
47
db
f9
fe
1b
0b
e9
23
27
f7
20
08
25
32
ae
1a
05
27
e8
ea
28
39
1f
e7
0e
e7
fd
c6
e8
0b
0d
f8
f6
14
f9
07
0e
f9
29
e5
00
29
29
04
0f
ef
09
0e
08
18
f5
f5
1d
10
f0
f4
d5
f0
10
0b
dd
1f
16
fe
e8
14
ee
31
05
26
c9
19
fd
1e
15
18
01
c9
e4
ed
f0
e3
19
1c
f7
38
1a
ef
04
07
d0
ff
00
06
07
e8
fd
06
fa
de
12
03
0d
09
29
06
f8
f4
da
0a
19
1d
fe
10
c9
d2
15
e8
d5
03
1e
1c
ae
ff
08
ea
e4
ef
0e
ee
00
0b
21
f6
44
0c
04
d7
0c
f8
ea
28
12
22
0d
24
03
fb
02
ff
fa
da
19
0c
eb
0a
f7
e1
f3
05
e6
df
22
ec
fd
04
3a
08
08
db
e6
ee
05
35
23
27
c9
05
eb
cf
ec
1e
e3
e9
e3
ee
e3
f7
e4
ca
21
04
33
d6
fe
38
ef
fb
0e
37
33
fe
21
f2
03
0f
2e
28
1c
13
13
1c
b5
cb
e0
e3
fc
f0
ed
fd
07
09
07
1d
f6
0e
ee
e9
04
12
0b
fe
fe
18
36
2c
2d
07
f6
17
0e
ec
fe
fa
c4
15
cb
ec
f7
f5
f8
f4
17
f8
f6
1a
19
f3
01
02
d5
06
dc
17
20
0b
01
1c
16
fd
06
d3
f8
13
0f
06
2d
03
24
0b
0b
18
06
0e
03
0e
ed
10
08
4d
19
0e
f7
2f
13
f9
ec
ed
ef
f9
f3
e1
ea
08
32
dc
16
cb
f9
16
0f
f9
f8
25
0b
fd
05
f9
26
04
f4
3d
e8
24
db
c2
fb
19
dd
33
68
f6
ec
03
f6
05
14
17
12
ff
f6
f8
ce
f8
02
2c
f2
f5
e1
f9
e1
07
ee
f3
ff
d4
fb
fc
00
00
2b
da
1f
1c
fe
db
f7
07
ea
32
0a
fa
1d
ed
fb
fd
f5
01
e3
2b
f2
2b
03
0c
e7
19
f4
de
48
0a
e6
0b
04
f1
d6
05
f4
33
03
02
0e
fe
10
f5
ed
2c
e7
27
ec
04
fc
e5
25
23
35
cc
cf
e3
e3
0a
fe
22
11
ec
fa
e1
1a
ed
f0
0a
f7
15
fc
0f
0f
e7
2e
ed
f2
0c
0a
e6
09
c7
1b
f6
02
cd
16
2a
f3
f0
f6
fd
fb
d6
ea
1f
f8
f3
d5
1c
2c
33
2e
1b
fe
f6
d4
ff
02
f4
26
c8
1c
f5
f5
24
05
38
07
0e
06
0c
0c
da
db
23
04
f3
fd
f9
0a
e4
12
fb
21
fd
d7
02
df
f7
d8
f1
17
fb
00
0b
15
11
e0
0c
13
0b
03
01
eb
f7
07
13
07
f8
d5
33
02
2a
f5
1a
ee
0c
01
c0
df
19
fd
00
e4
fc
ea
0c
ef
26
e7
e7
05
02
e5
d9
d6
b8
f0
cc
bd
1f
ef
0f
26
dd
07
34
0a
03
1f
e5
0d
f7
f7
d8
da
0c
32
ff
14
f7
ec
22
0d
19
19
ff
fa
35
0a
37
e4
fc
da
1e
d5
ee
dc
0b
cc
ec
f8
1f
e8
ed
35
22
04
11
1c
dc
0b
fc
e1
10
0c
11
d5
d2
f1
10
f1
fe
fa
0c
0c
ef
f3
fe
15
01
e8
fb
fe
eb
c7
2b
01
ec
ef
09
ee
16
15
08
1d
f3
09
f4
e5
d8
ec
c1
1c
1b
f5
fd
16
24
03
0c
f3
1f
1b
eb
e8
02
f4
fc
0d
12
ff
06
f9
fd
36
13
fe
05
1b
1b
ff
04
16
21
22
1e
ee
25
0f
ed
db
1c
1f
18
1e
00
e4
c3
05
0e
1e
fb
f9
15
de
d9
ea
12
eb
fc
da
ea
25
11
16
07
eb
f1
ff
16
fa
0b
e8
37
0a
1d
08
2d
00
e5
fc
f1
ec
db
d9
04
0f
c3
f2
d6
f4
02
e1
0e
db
f9
e4
11
06
44
d5
07
e1
d6
3b
fa
d8
fc
e0
08
f3
1b
f7
20
ff
16
ed
f0
18
17
25
dc
f1
e5
fa
0e
db
1f
e8
f2
fd
c1
ef
ce
23
e6
fc
f1
38
06
cb
44
f4
0d
ec
12
b6
f2
23
d7
fb
db
d8
d4
eb
ed
08
09
23
f7
2a
13
f1
14
e9
d7
ff
00
ff
e9
f0
17
36
e7
03
09
10
f9
36
e8
f4
22
1d
02
da
1c
0e
fc
db
fd
da
10
13
f2
19
fe
06
24
cd
12
e9
eb
fc
f4
df
20
29
2a
22
3a
2e
17
1d
00
ed
d0
e1
e3
04
24
d0
09
fd
20
ec
d8
1f
00
f3
29
ff
b1
22
ca
13
f9
1b
09
1d
21
e8
13
e8
21
f7
06
31
15
ea
f5
19
f0
53
e8
11
05
2b
09
df
fe
1b
ec
05
eb
ea
f5
3b
d5
22
fc
02
f9
f7
fc
fd
2d
e4
d4
fb
05
1c
cc
1c
e8
18
d2
2d
f8
23
02
db
f4
e0
09
f6
13
d0
ff
0c
fb
d8
fc
2a
1f
eb
1d
0a
18
db
18
2e
08
f5
d2
e2
fc
e0
2c
2c
fb
1e
21
fe
fd
e2
e4
d9
f2
f1
e6
fe
22
24
e6
eb
1e
cf
fe
0a
f2
fb
ec
d2
d8
d8
f8
06
ee
1d
e3
29
25
f9
c7
00
19
18
fb
cb
f0
f6
f0
28
16
f2
d2
fe
ef
0c
09
0b
e4
27
30
f1
d8
e9
fe
3a
f8
1a
00
07
38
00
ff
ff
09
01
23
09
18
19
c6
1d
26
1e
bc
17
f0
db
eb
de
ed
d4
ee
29
1e
2e
e9
21
e7
fd
0c
e3
3b
11
c8
04
1e
14
f5
06
1f
df
c1
e1
bf
33
f2
20
08
05
d5
1c
fe
36
28
f9
c6
1f
d0
d3
1d
fc
e1
d7
05
24
08
1e
00
09
1d
c5
f2
14
02
1d
e6
01
f5
ea
ec
fd
f7
e8
14
13
00
35
fa
e7
0d
e9
17
15
3a
df
e7
00
1a
fe
dd
13
0c
e5
01
f2
b7
00
ec
0b
0d
27
ea
03
f8
f4
01
ea
d3
fd
df
c4
ed
3b
0d
fe
0a
29
07
fb
dd
f4
11
f8
33
e5
0f
0d
1e
12
fc
17
f7
f6
16
3b
db
11
2b
dc
f4
f5
10
fa
fd
d2
1d
14
f3
19
f3
f2
db
0f
14
30
24
f3
f3
33
1f
04
01
f3
08
1b
10
ec
08
00
00
17
05
2a
04
22
2d
26
03
5f
fd
02
f6
ed
ed
fe
22
11
16
05
00
ee
0f
ec
fb
1e
0f
1a
0b
f6
f6
0d
06
11
f8
2c
03
25
d7
ca
10
0d
06
e7
ff
04
07
0d
0c
ef
0a
d3
06
22
e8
24
02
1e
05
e3
1b
0e
d6
cf
21
34
02
07
0e
16
ec
08
f0
fb
e9
e4
dd
1e
26
3b
34
fe
dc
e4
10
13
0c
f1
e9
0d
0a
e2
c9
fa
f4
de
15
df
c7
e7
04
24
09
0a
e2
f9
ba
3b
0a
d9
02
21
04
1a
f4
e8
1e
14
23
27
0a
e9
19
ef
09
0b
f3
eb
fc
09
f6
04
0e
d1
ee
14
14
f9
13
0f
e5
e0
e6
0f
13
0b
33
27
17
f1
f2
dc
e4
20
e6
1b
e7
fa
09
16
1f
f3
f8
f8
fa
f5
fb
ef
e5
fd
29
04
eb
fe
ef
1b
17
3c
20
31
1c
c7
fa
03
00
10
f9
22
10
02
08
09
d5
09
e8
ba
fd
10
d2
f0
c2
f5
f0
df
f4
0b
ca
03
f5
d4
44
1c
15
2f
f4
09
1f
ef
e9
c5
ea
da
0b
cc
ef
1e
d4
03
02
15
ee
dc
06
e6
11
05
1e
16
ca
e3
08
07
0e
19
21
fa
0e
0f
23
ef
12
e7
e7
05
eb
09
22
0e
d7
fc
3c
f8
fd
10
01
04
15
fe
f8
fe
15
08
f2
e0
14
11
14
0c
16
17
04
19
ef
03
11
0d
0a
1b
0a
23
e2
13
e3
f5
00
0b
f4
e2
13
e3
22
19
f1
0e
3f
13
0e
16
00
19
fa
d7
19
d8
d2
f4
e7
ff
f2
d7
09
f3
37
21
0c
17
17
0a
ec
14
f4
10
f1
d2
0d
d6
ab
fb
f5
1d
e9
e5
35
fa
f6
01
1a
c7
f3
ff
e1
07
e2
41
34
fe
eb
42
21
dc
ee
0e
cf
e5
f6
f5
fd
11
be
e4
08
0b
ec
08
e0
cb
f5
06
12
05
fa
fd
f3
f2
43
10
1f
16
e2
d6
2f
10
ef
0c
e6
07
e6
de
f0
2d
0e
26
1c
0e
ec
09
1c
f3
02
fd
e5
fe
1a
2e
01
f4
27
f5
20
17
e3
c8
0c
1d
fc
ec
03
06
15
24
e8
0f
14
0e
e6
e0
e5
eb
d2
e2
1a
0d
e0
2b
eb
e9
fd
2c
06
ed
13
f6
11
f9
ec
0f
f9
1a
1a
fc
03
05
e9
03
02
ee
e2
c6
fa
22
48
08
d4
13
ec
2b
14
f8
fe
db
f5
06
ff
09
ed
0b
c4
18
f3
f5
bf
de
13
df
20
0d
06
f0
36
0b
dd
e9
35
17
0b
f5
01
fb
37
38
0a
2b
90
d9
16
f2
cf
d3
30
fe
f3
ff
ed
18
18
fb
0c
0b
e9
e1
04
0f
d4
35
ee
e9
e8
f3
14
27
06
f2
f3
f6
1a
fe
1a
e6
0d
ee
db
f9
08
ca
dd
ff
41
0c
f1
f2
07
f3
2d
d6
2a
da
f3
14
10
e4
0c
0c
d5
f5
23
ee
f3
0f
09
e5
02
01
13
10
fc
fa
fd
ff
13
20
09
0d
02
f0
fa
16
0b
2a
d8
c2
15
27
da
1d
da
fd
d2
f5
f6
1f
0c
f5
12
22
31
f2
09
f9
35
eb
f7
2a
d9
12
13
06
e1
13
08
03
46
ee
b0
f6
12
16
35
e6
03
0d
03
18
0d
fc
fd
14
d1
f1
2b
fe
eb
02
fa
17
c7
f5
11
e7
e9
18
33
08
f2
16
0e
10
23
db
d9
13
0f
1b
1d
e5
e5
08
f9
fd
04
07
28
12
f6
c6
ea
06
0c
02
25
f3
04
e7
e5
26
d4
0f
0e
ec
20
de
b9
fa
23
f9
fd
f1
22
07
04
69
cd
cb
f3
f5
dc
f8
d6
e6
f3
04
22
06
e4
fa
03
04
d2
e4
ff
04
f9
f5
4b
26
17
f2
0a
f2
fd
1d
fd
fb
cd
f6
ff
16
06
28
e6
f6
20
de
0b
f9
ed
de
e5
13
ef
08
17
26
f5
e4
15
dd
e3
eb
ec
df
0d
06
3e
22
e2
1d
e1
e4
0a
ee
0a
20
e0
1b
10
fa
f1
25
fe
05
fe
10
0c
e8
dd
15
e7
47
f5
e5
f0
f6
43
39
14
0f
14
ed
cc
d7
0c
e0
ee
fd
03
0c
0e
ea
f9
33
14
0d
0d
07
04
d2
19
eb
22
f3
0a
0d
2a
d2
ee
e0
c1
36
12
06
1a
24
f6
ec
e0
ff
ee
ff
d4
fd
21
17
0a
13
3b
de
f1
ff
20
df
fd
d0
e4
0b
06
dd
27
d7
ee
f8
f4
1b
e7
0d
00
e2
cd
30
f7
2e
16
e8
20
d3
f0
1f
17
02
0d
f7
59
27
dc
f0
f6
ef
f1
f4
05
1a
22
f6
ec
02
d5
44
e5
eb
f4
ea
0c
e1
ec
26
32
1d
1f
0c
f3
f5
25
ef
0f
28
ec
16
05
10
1e
1f
d8
0f
06
ed
d3
ba
e8
ce
06
d4
f3
4b
fc
11
f5
dc
ff
42
0b
fd
ee
15
11
df
fd
2f
00
0d
d8
f5
11
04
1a
f4
10
d3
b8
02
df
a8
fc
09
11
c9
0c
f5
43
0f
1b
15
fa
1a
12
c7
ee
14
2d
dd
11
ba
18
00
c5
14
f7
19
d5
d2
30
ff
26
2c
0a
eb
f6
fe
ef
1f
ec
f8
3a
f5
03
e0
07
11
f3
dc
06
17
23
23
06
44
fe
17
e0
fd
f0
15
36
e2
00
16
e5
38
d6
ed
e8
ea
19
e7
2f
b6
03
12
eb
ff
e2
d4
17
33
f5
f5
d4
03
e2
17
ef
ef
0d
d3
2c
2a
10
0e
00
be
eb
f1
e7
10
d4
11
f0
29
07
25
02
ce
ca
2a
2f
03
fc
e5
0f
2e
e0
ff
27
c2
d5
dd
1c
08
0d
0b
08
f3
01
fe
11
09
30
cc
be
01
20
03
0b
02
dd
02
0f
0b
d7
17
03
df
2f
21
12
19
0e
da
e4
d4
fc
f5
ed
f5
25
f0
e7
be
09
1d
ff
f7
08
ea
e2
f7
f1
18
2c
ea
2a
f9
0b
22
e6
07
f3
0a
ff
09
e0
32
1b
e9
f2
d6
27
cd
05
db
f4
07
f2
0f
36
1c
e6
1e
f3
ea
06
2b
e1
f9
fd
ee
fc
3d
04
0f
19
f4
e5
d9
15
2c
f9
f6
fa
c9
d1
ff
e8
de
f3
18
1f
f5
06
1d
00
e7
f7
36
fc
c9
c9
28
2c
f0
f2
d3
0f
2f
f4
e7
f2
2a
00
ec
bc
01
0b
3f
ec
15
20
08
ec
0b
06
e1
08
28
fe
08
e9
1a
0c
bd
d8
f3
1b
09
1a
f6
fd
f5
f2
f8
f6
10
0f
2e
d2
e1
15
e0
fe
26
42
c2
eb
fe
ea
10
f0
0a
31
db
14
35
43
2f
e6
de
0b
fa
fa
11
e5
11
24
f5
0e
b9
ef
e9
13
f7
ed
1e
c4
1a
e5
f9
fd
18
3a
1f
0d
e4
f8
07
ee
e5
f2
0d
10
f3
f4
e6
26
f7
24
04
f7
e5
06
18
06
06
f7
e6
dd
e3
dd
ee
39
10
fe
06
f4
0a
e3
eb
ea
f4
25
02
1c
f9
04
e8
02
33
10
fd
17
f4
23
e0
07
18
1e
fa
ca
e8
e9
b5
cd
dd
23
02
ef
11
2a
ff
e8
0d
17
05
05
ea
c9
1d
de
fa
f5
ec
ef
fb
01
0d
c4
00
e0
0a
db
ea
fb
03
0e
13
dd
fd
0a
e0
3c
0f
08
d8
41
ed
f3
1f
03
f6
dd
e0
de
e4
00
01
e8
e3
f9
f1
f0
fc
e8
27
2b
0a
cf
f8
f0
1d
03
d9
1a
ff
ec
10
08
da
11
b9
0b
e9
07
e9
db
cc
ef
e2
08
2c
f8
d9
ee
2d
18
05
05
11
14
f2
19
01
06
20
fc
e9
08
f6
25
f7
03
16
19
e3
f6
f3
cf
e4
23
03
26
10
e8
1c
f9
11
1d
33
e8
f2
05
d4
fd
ea
e8
e5
19
1e
0f
d8
17
ef
07
19
14
2f
f1
e1
14
f0
de
f8
17
de
ee
00
eb
da
ed
3e
0b
37
0f
03
2f
00
44
16
22
1f
15
d8
26
dc
ff
e6
fc
10
ef
0b
e4
0c
df
1f
03
e2
db
06
ee
30
12
df
0a
06
e3
ff
16
cd
04
01
e5
f3
2e
f7
07
17
1b
df
34
19
22
0c
47
ed
f5
e9
d5
15
05
fc
16
26
f9
ec
05
0a
01
da
01
ef
10
0f
dd
09
29
0c
09
ed
00
fd
f5
ff
da
22
03
f9
00
0a
df
e1
e4
38
f9
1f
2c
f3
ec
19
0f
fa
fb
f1
01
e9
fe
ff
16
0c
f9
e9
bd
0c
0f
20
c4
01
0d
20
d0
1a
1a
f4
18
12
17
07
b8
14
e8
ff
12
f0
f5
fd
e8
1b
dd
19
d7
0a
f9
df
0d
d3
ff
e7
2a
db
1b
10
ed
f3
26
f6
d0
15
1a
09
17
e1
05
e2
ee
50
fb
0e
f5
c0
f9
30
d9
fb
01
22
f6
c1
ef
f3
e2
0e
f9
ef
f3
11
d2
d4
04
0a
cb
d7
bd
e8
fe
0f
c0
29
09
3e
e4
fc
e3
0c
e7
dc
3f
02
f4
37
f8
0d
f0
fc
23
06
f4
f1
0f
18
03
f0
f8
e7
06
f2
10
f7
0a
e2
05
1e
fc
00
4d
0a
06
0a
f6
04
e4
07
28
c7
fa
01
12
01
e0
e6
f7
09
ea
f6
31
01
f4
ea
f2
01
da
20
c4
e2
0a
43
22
f5
ed
f5
eb
ce
1b
dc
fb
12
c1
28
f0
f1
25
21
f9
1d
16
f5
ea
e8
f1
ff
11
e7
21
07
19
f7
3c
fb
15
08
16
e1
ec
d5
cd
06
0c
32
f0
ef
37
16
e4
00
f3
e4
04
f6
11
f0
ef
f7
26
04
2d
f1
c5
ca
fd
06
39
d4
f4
17
f3
12
0c
ff
08
30
37
d4
d7
f3
09
cb
cf
13
21
eb
00
21
ea
2b
1d
ee
17
03
03
ea
02
3c
d7
ec
d6
28
17
e2
f1
d1
1f
f8
18
d3
c6
dd
c5
e2
f3
1f
de
ef
0b
14
ff
0f
03
ec
fa
e0
05
f9
e2
01
1b
12
2d
08
de
f6
0c
e2
09
0d
ed
d8
08
14
65
df
bd
17
f9
f7
1a
22
f6
f8
e1
20
07
f7
42
ee
1e
13
e7
ca
10
fe
f6
1f
dc
c7
ea
f6
07
02
1a
ed
17
1d
d6
1e
00
e0
de
3a
e7
08
d6
d9
04
f6
2f
1d
04
f8
06
fb
2e
20
24
ff
d2
fe
f7
e4
da
1e
39
e2
09
f5
f8
01
0b
0e
15
cd
d6
09
f7
06
1b
d5
18
02
ec
f5
fa
f9
1d
f7
dd
28
05
e9
0b
00
28
fb
27
dc
d4
26
09
3a
00
1d
ef
f3
22
f1
1e
2c
1e
01
fe
1c
f5
06
05
10
de
ea
1c
20
02
f0
10
01
12
1c
21
0d
e9
13
3d
08
ed
f0
f9
0b
ee
09
d3
0e
bc
0c
1f
dc
0d
ca
df
06
12
cd
21
d6
0d
e4
f4
0e
d9
eb
d9
f6
1d
00
1b
13
04
01
11
04
0c
d1
d9
39
21
e7
d1
10
01
3e
41
30
da
f5
07
04
b8
f8
f9
dc
23
67
05
01
11
16
df
0e
1a
e9
08
ed
24
d5
22
dd
1a
0e
e8
12
f6
eb
e7
e1
06
01
f8
d9
f1
04
1a
e8
03
ec
23
12
14
0b
1c
f0
09
f2
23
18
3d
fa
19
ed
03
14
a6
e5
16
17
16
10
01
c6
e5
f1
0c
e9
12
1b
e2
fa
ea
e8
d3
fa
f8
e4
e1
20
e3
08
36
dc
11
fc
f4
19
df
11
ec
e6
e0
fa
45
e6
ec
f4
0e
fe
34
07
2f
f8
c7
09
d6
ee
37
e9
f3
21
cc
fd
f5
35
db
fc
07
ca
0c
0a
d5
b4
3d
14
06
e8
21
f1
f7
37
03
09
22
f8
fe
10
fa
be
06
15
02
dc
e7
2c
0c
0a
db
f4
f3
35
1f
0d
df
08
f7
0e
0a
f3
f6
38
06
fb
f3
02
de
fd
f3
1b
0d
2e
18
07
ec
fb
2a
f7
19
0b
1f
0c
1e
fe
04
04
d3
03
20
ee
ea
f2
df
02
f5
de
06
f8
e1
d0
f2
30
1c
ea
f1
db
e9
e1
ff
fa
f4
fa
f6
e6
1c
05
4e
1a
f8
fd
ce
00
2c
d5
f3
b1
0a
eb
e7
eb
f9
04
c3
20
0b
0a
fd
c7
f7
0a
10
e4
30
f7
eb
01
0e
07
01
04
05
e2
0d
f5
f6
09
10
1d
dd
c4
ec
10
ef
f9
ee
f7
04
11
15
28
f5
26
ed
08
15
d6
ed
1f
21
2b
18
d2
f2
3f
1a
1a
ef
0a
ff
0f
01
18
18
f2
27
22
cf
04
e5
06
02
de
1a
c9
f3
03
12
fa
dc
fb
07
f3
2f
0f
11
f0
04
11
08
04
10
18
f0
fd
e4
3c
0e
d2
21
ec
12
f1
eb
ea
e5
f0
e8
0d
fd
f1
19
11
f1
04
f0
de
dd
e4
bc
14
3b
fc
fd
19
c6
01
ea
22
fe
06
f1
de
fe
26
3b
f7
f4
0d
02
f8
ea
ff
25
1c
0a
17
e0
f9
04
db
10
eb
12
fb
e4
e7
d4
e1
d5
08
0a
15
c8
2c
2d
ea
35
f9
27
4f
0c
f8
05
f5
f6
04
e4
de
f6
f1
1f
ea
a9
f5
ef
f9
f4
f9
3a
e3
19
f8
07
f1
fe
1d
2d
03
d7
ef
0a
eb
e7
f9
c9
f4
09
02
08
fb
0c
fc
db
e0
07
f9
0e
ec
0f
e0
f0
17
c9
e9
2f
04
e6
fe
2a
f9
f4
18
1f
d4
11
06
09
c4
e6
27
0e
e0
06
ec
12
f4
22
f4
1c
51
d0
f9
07
0c
07
df
f3
19
3a
12
00
11
ea
d7
07
00
f4
e1
1e
fc
23
db
fa
e5
dc
e8
ce
05
bf
ef
04
fc
10
f8
13
e3
db
dc
c8
ed
0b
07
d8
fd
1f
14
ea
00
d6
e7
3e
fd
19
1c
19
1c
12
07
f6
50
fd
f0
0a
f2
0b
fe
ec
fe
20
e2
fb
0f
12
f5
2c
db
de
e6
0e
07
24
23
da
23
d9
f5
05
f2
24
1d
19
41
1b
1f
da
e8
21
d8
17
3a
07
f4
e4
e8
c1
db
fd
e8
ff
e4
02
00
14
f4
1b
19
e7
f9
06
e3
e5
d7
e2
ed
e6
fb
f9
2d
fb
1b
05
ce
03
e8
02
db
e8
ed
e0
b5
29
0d
00
f9
24
03
fb
2b
19
00
09
fa
20
23
df
00
0e
05
13
ea
fc
10
11
1d
f3
fe
13
bf
05
eb
0e
14
31
f1
fc
d1
f9
fc
d5
f7
1c
17
12
2f
df
f2
e9
0c
33
14
12
16
2d
f6
d0
02
f6
0d
17
19
f7
e2
10
12
f3
ed
fd
2e
f8
0a
15
fb
ff
23
3c
05
eb
f2
35
17
d7
fd
38
04
07
d6
23
04
d7
06
ff
fb
e3
ee
17
f7
fa
26
d7
15
0e
e9
fa
e8
dd
06
f3
19
22
01
f9
11
19
03
e5
17
06
22
a4
e1
18
20
12
13
0c
0b
04
26
fc
fa
db
40
02
de
c8
e4
ff
0e
16
f9
00
d2
ef
eb
f7
0e
ff
33
0f
f6
04
df
02
03
01
d3
ed
ff
49
22
17
fe
f4
fc
fe
16
0a
2a
f8
f4
e2
c3
04
f0
da
fa
f4
e4
1d
15
23
f8
e4
fc
eb
1c
f9
23
08
d1
ff
3e
09
ec
0c
1d
19
15
ef
f2
10
18
18
f3
fa
17
05
45
f1
14
24
0f
ee
dc
14
fc
fd
08
04
32
f9
12
f3
f7
f1
e0
25
e4
1e
e3
1c
b0
24
34
1b
03
39
fd
e9
2a
08
f4
01
41
da
f3
d2
f4
dd
f4
1b
fe
18
d0
ed
dc
f1
06
0a
19
14
e9
02
d7
04
13
0b
fc
de
00
e6
b0
0e
0a
2d
f5
07
f9
e8
0b
0e
e2
00
27
05
f8
04
13
e1
04
0c
e5
b8
f0
ce
09
16
04
1e
0f
fe
39
f1
c9
08
e5
1a
26
17
23
00
16
ce
0e
16
f2
0e
ba
e0
35
16
03
14
20
0a
f2
fa
37
ff
d9
12
ef
d3
e3
d8
d8
ed
fc
3f
0b
fa
d5
ee
0c
ea
da
e8
e9
0b
d3
fa
15
1e
f1
37
f8
00
23
bb
18
14
11
06
49
15
12
f5
ca
da
cd
05
03
0e
cc
08
ef
fc
13
02
fe
d4
09
f9
12
00
f6
05
f1
00
dc
2d
1b
e8
01
f0
dd
e4
1a
09
ed
e7
f8
fa
e2
1c
1e
f1
e4
d0
bb
f2
03
14
e1
0d
f1
fe
f3
22
e6
d0
2f
0e
01
2b
f7
ef
1e
2a
dd
08
e9
eb
4e
ed
23
08
1b
fa
ed
1b
fd
dd
01
db
ff
0a
1d
2d
24
18
e5
38
ed
08
fe
f8
db
00
04
e2
f9
08
ff
19
13
05
02
15
ec
2c
ce
f4
1c
bf
1e
eb
d9
f3
0e
03
e7
24
f7
0b
fc
de
03
f8
f6
d4
0e
f4
dd
e1
f6
fc
d1
eb
e8
e8
37
11
fb
fc
11
fd
0e
0c
f6
1f
e6
b7
e6
0f
d9
eb
2d
d4
ef
da
dd
13
f9
f8
de
10
df
06
11
f8
f9
ed
01
e7
dd
e8
03
03
d4
f8
11
01
08
33
23
ec
ed
d7
e3
36
d2
fa
3f
e4
1b
13
09
f6
f9
0f
dc
1b
22
1b
1d
ea
19
0a
f3
21
16
ea
fe
fb
13
d2
e2
f6
0e
e3
24
1c
06
ce
f5
d4
23
0e
f7
d9
dd
17
ed
26
ea
09
11
ef
e0
c8
02
0e
2a
08
d9
23
e9
f0
1a
f9
3c
07
f7
cd
f6
18
c1
fe
05
11
2c
f7
04
fd
d1
e0
f6
47
39
2f
f3
23
04
f4
ed
0e
05
08
e0
07
f1
f6
f4
2f
00
dd
ea
03
09
c9
04
2c
08
0c
eb
00
e9
c7
f5
db
fa
e6
0f
fa
34
25
0c
03
1e
ff
e3
e1
c1
fe
1c
11
23
e8
1c
e9
d1
0e
ea
19
f1
02
0e
ba
ea
e2
0b
cd
13
e7
d3
fa
e4
d0
e6
f2
e8
e9
11
20
f7
e2
de
12
db
ee
13
11
fc
10
d8
e6
31
20
f7
09
13
17
fa
0b
de
ed
08
da
df
d1
dd
16
0d
d5
00
e9
17
09
f4
f6
f2
e2
0e
39
17
fc
d7
2c
fd
31
ee
0b
f1
02
87
14
03
16
ee
e0
f0
d3
f9
b9
f4
0b
d7
f1
df
cf
31
ff
c1
e9
0d
04
dd
c5
1d
1c
2d
eb
f9
17
02
02
d6
db
06
26
33
e0
f7
0c
ee
0c
f0
cc
dd
fd
1c
06
d9
27
f3
f6
fc
2c
11
14
1b
d0
eb
d7
fe
0a
ee
de
c3
fa
d6
1a
1b
ed
d9
a3
fc
de
04
13
f3
10
f8
2a
e9
ff
19
ca
f6
d8
25
f2
1f
fe
17
ed
16
31
09
12
0b
13
f6
db
04
ff
06
14
14
02
e9
14
f9
e2
fa
09
07
26
d6
eb
0d
21
04
f1
0e
f8
db
14
d7
e5
fb
fb
e9
ed
03
fc
46
ef
ee
05
cd
f8
21
11
fb
f8
e1
f4
31
1e
f2
e0
1b
08
f6
eb
f7
e3
ed
0b
ff
06
11
fa
f8
08
f8
e5
2b
1a
22
15
38
1e
29
12
ff
ef
11
e8
19
33
db
1f
ee
ed
1a
04
fc
28
ea
14
0a
f0
ff
0e
db
02
22
06
ec
07
eb
09
e6
2c
ef
ef
cb
fe
f5
ed
de
11
f8
03
04
cb
fc
1a
04
fa
33
ea
f1
ef
e2
fc
37
2d
0b
ef
ed
fd
00
ff
f5
0e
e7
f9
17
2f
e0
e6
f3
02
07
f4
c0
f3
eb
03
ed
e0
25
f3
e7
29
de
fe
2c
14
bf
20
11
02
db
f1
f0
e3
0c
d4
09
08
ea
44
19
11
0c
1d
f9
21
0b
17
ff
f7
f6
f4
02
ff
eb
26
3a
0d
e0
c5
01
07
32
f7
ef
f3
00
f7
21
18
f2
3c
fb
0c
20
dc
39
00
db
18
e1
fa
0e
bc
ff
f5
e4
0d
f3
11
d7
de
16
f5
1e
03
f9
b3
03
0e
1f
c4
19
fa
ef
f0
04
22
fe
f3
db
2b
00
1d
f9
07
ee
c9
f4
2a
fb
00
c4
f7
d6
10
20
fc
fa
ee
0b
fb
3f
eb
16
ff
14
df
2b
ed
03
01
35
11
d3
e2
1f
17
ca
10
03
f2
f9
f9
be
24
f5
1c
0d
37
07
fd
52
07
2b
ca
21
21
f8
f9
2a
39
f5
03
04
de
bd
14
06
e4
ce
31
40
14
e7
ee
13
0d
d9
f7
03
f4
f8
23
e2
14
28
e7
16
e5
fc
10
f7
11
e8
c9
17
d9
ec
f8
1b
ea
18
de
17
1e
10
ea
f5
f4
fb
0b
fe
d7
ee
de
02
05
f8
ee
0c
2a
18
08
05
07
fd
05
e4
29
23
26
1a
11
f8
07
0f
21
12
d3
08
f2
ee
f6
14
0a
f0
00
11
e2
d5
ec
35
f3
f1
f5
0b
e9
a9
1b
00
f8
22
fe
fe
f0
26
d5
46
d8
02
03
1f
2b
00
fb
c1
19
14
e8
11
19
f8
1a
19
0c
1a
fe
08
ec
e0
f7
1e
09
32
12
0d
f0
e4
29
1d
f9
ec
e3
d6
09
e0
10
1f
fc
0f
23
fa
eb
40
f1
d4
e9
ef
e6
ff
21
24
13
45
f8
db
f5
11
f5
0c
17
ed
eb
df
04
2f
b5
f9
07
0a
47
0a
ff
1e
05
cb
11
e2
e6
e1
fe
29
44
17
04
e2
0c
d2
14
dc
0e
0c
fc
1d
1e
df
0a
24
e9
fa
1f
ee
05
ea
ea
1f
2e
df
34
12
f0
03
d9
ee
0a
06
0a
26
0d
fb
fa
17
01
3b
44
f6
04
fa
f7
f2
05
25
40
22
fc
09
eb
d7
47
e1
45
0f
ab
19
f6
32
e4
00
27
21
ee
00
d4
f6
f5
df
13
f3
ec
1e
1b
fd
ff
f3
e6
f3
fb
02
31
d7
d1
ef
0d
ce
03
f8
e6
e8
0e
1f
cf
17
fc
1f
10
ef
fb
35
ce
e8
15
e9
cb
ed
10
17
f4
29
21
fe
06
ef
ef
26
fb
eb
e0
09
04
0c
07
cc
1a
d1
ee
e4
01
f9
34
f8
01
ed
05
e6
0e
f7
0e
da
37
1c
fc
0e
ef
08
ee
e5
fa
43
fe
fb
ee
f6
00
fe
dc
10
f8
ec
2e
2a
0c
2c
24
16
1f
1b
0b
23
e8
0b
d6
fc
1d
ca
c4
20
ef
f2
02
1a
21
f0
fb
24
ff
de
25
3b
ce
e9
13
e5
ed
04
0d
e5
e6
f3
1e
15
bd
ea
31
0a
25
f6
03
0c
ed
06
f1
0a
32
38
fa
20
32
02
0d
eb
ee
07
17
e0
1f
05
13
fd
3f
24
df
fa
04
e9
e2
eb
0c
eb
0f
0a
fb
fb
f9
1b
e4
df
fa
f1
04
da
f5
f8
18
1d
fa
17
0e
fa
a7
20
ed
f1
ea
f3
cd
0b
13
bf
fb
23
16
d3
0e
18
08
1c
04
11
0c
02
f6
17
1c
e6
eb
c3
26
36
15
db
0f
05
0c
00
20
08
e0
0a
c7
f0
fa
00
f8
1a
09
05
10
fe
e4
05
e4
14
fd
ff
e6
cd
e0
dd
14
26
1d
18
df
d0
ed
c0
01
16
0d
08
f4
04
f8
de
0b
35
43
f7
14
fd
25
f2
fb
21
de
c1
fa
e9
e8
f2
15
22
1a
fe
01
e5
26
e8
bf
fb
c8
09
fc
e7
f5
30
c6
14
dd
f6
16
0d
f2
f1
f5
03
ea
1c
1c
fc
e2
16
07
c4
13
cc
d5
1a
fc
18
05
25
eb
22
d2
ea
23
22
d2
2c
f7
1f
05
f1
ec
ef
10
2b
07
db
11
27
e1
00
09
28
13
ea
d5
ed
fc
f8
29
1b
0a
f0
32
d3
2e
0c
29
de
f5
ce
10
06
f6
1a
04
26
2c
1b
14
26
db
ed
02
f1
15
04
f4
0c
1f
41
08
34
09
24
10
fe
0f
27
11
08
0a
fc
28
de
32
f4
f3
fb
cd
f9
fb
16
fb
18
e0
f9
15
08
ef
dc
ff
ef
fc
ee
35
e3
e4
36
02
f5
e9
05
2a
e1
2a
07
02
2c
c7
1e
f8
ff
ff
fd
e9
26
0a
39
f4
14
0f
2d
05
1e
0f
f7
09
e9
ee
13
10
18
06
e4
10
eb
d4
00
27
ef
05
1c
0a
f6
f2
0a
e5
2e
ff
38
25
d6
fe
06
eb
36
01
27
17
2c
0b
24
20
2b
16
1e
05
2d
3b
60
cd
d9
dc
e7
da
03
e7
ef
e4
0a
fb
0f
d3
20
17
e0
14
f2
10
40
f3
fd
44
f7
df
fb
14
fa
fc
39
f7
d9
29
f8
16
de
ee
17
19
00
fd
1c
11
3b
20
07
df
28
e4
2d
19
ed
12
ef
15
39
00
cf
d7
ea
e8
03
12
fd
e2
e8
29
e7
1e
05
2a
fe
ea
f0
16
f5
f3
eb
fe
0b
00
eb
08
f0
28
26
13
fb
f0
f2
c2
11
08
dc
f3
dc
3a
09
f3
0e
12
0d
14
08
d7
2b
fd
1a
e3
13
c7
d9
fb
25
08
f7
f7
f9
fc
fd
2c
28
f2
ea
26
04
15
de
0e
1c
ee
f8
1b
1b
fa
cd
f8
cf
0e
f7
f7
1a
cf
c8
e0
04
0e
36
23
1f
ec
2a
1f
04
fc
32
0d
e1
0d
b2
04
0b
ec
fb
f2
e5
ff
01
05
fc
ce
bd
f3
f6
24
fa
fb
25
fc
e6
f2
1c
02
fa
c9
32
e8
f3
ed
e9
ff
fc
f4
11
18
d3
c3
d7
cc
30
15
1e
f4
0b
0b
d8
dd
c2
0c
19
d9
1d
11
28
d7
11
f7
fb
28
09
2e
f6
1f
ef
f7
09
d2
2a
fd
dd
fe
b2
20
29
b7
c9
3e
d8
16
0b
26
f6
de
03
e8
f9
06
00
05
f5
e9
c1
1b
28
f9
ec
f0
45
f5
2f
1a
ec
ea
02
e4
d7
fc
ec
ff
dd
f1
0d
ed
de
f8
15
e9
e1
f5
02
06
e6
d5
d0
09
06
10
f5
dd
07
fc
08
1a
d6
ce
12
fb
e7
fc
1c
2c
f9
dd
da
11
12
ce
4e
3b
f4
e0
1a
0d
da
e8
0a
fc
32
f5
31
f8
d6
e5
d1
0f
32
05
24
f4
e6
e6
f7
f6
19
32
1f
cd
0c
21
05
05
dd
fe
29
fe
e9
de
e9
e2
f6
e4
fb
ef
04
38
10
fb
0e
0a
f8
f0
20
f6
23
fb
fb
d5
e1
f5
07
f9
eb
ff
f7
ef
e0
df
1d
fd
ec
eb
fc
11
12
d1
dc
c0
d8
13
00
1a
0a
08
13
f5
f5
eb
30
ed
ea
d6
f9
34
1e
e2
18
dd
d0
d3
da
00
d5
0b
fd
08
e0
d9
fe
f3
e3
23
e3
fa
e0
09
df
11
1f
16
e3
1b
cf
ef
f4
e1
2d
16
1b
fc
e4
fe
ce
f8
10
e1
f9
e5
14
f8
d0
07
24
29
e1
07
ea
25
14
e6
12
1e
ff
26
48
f6
18
07
0b
1b
e4
08
f7
11
03
f1
07
c8
f1
00
c4
29
ea
0b
f3
e0
f4
f7
20
0b
ec
03
0b
fd
14
e1
f7
fd
2d
02
1b
31
c8
2f
04
ff
0b
09
c4
ef
02
b7
27
0f
f3
0c
de
06
1c
39
ec
f5
f6
e1
1f
a9
19
14
19
c7
f8
ed
12
fa
c7
dd
20
f2
f4
ec
21
03
e8
f4
04
ef
1c
01
23
fd
da
f5
24
10
0a
0e
1d
27
24
fa
05
d1
04
f2
27
d6
fe
0e
26
1e
e3
19
2c
17
14
e5
03
ff
ec
0d
0b
02
eb
d6
1b
f7
f1
17
d5
e4
0b
01
f0
18
0d
18
1f
da
fa
1b
0b
c3
fb
fa
f9
10
e5
13
ec
e4
f6
12
29
09
e5
02
10
16
1f
e2
fc
05
e0
ee
15
eb
0a
f3
22
0a
e2
dd
14
18
fe
0a
e5
ee
21
16
d3
24
fc
3c
05
d7
01
d5
b6
db
e8
55
e2
0a
f5
32
ec
0d
03
bc
44
fd
fb
1f
fa
fb
2d
18
03
f9
17
09
16
fb
e4
30
0a
f1
09
25
d0
f8
f4
da
ca
22
ee
1f
32
12
e2
2e
c7
f9
18
19
fb
02
39
15
d3
f1
fc
e7
05
f1
e1
3b
1a
fe
0f
0d
ec
03
07
0d
f3
e4
18
de
ed
e5
28
f5
f1
f1
e1
0d
1a
ee
ec
03
13
c9
0b
fc
e5
0b
c7
1c
15
16
eb
f0
37
02
e7
e5
fd
04
c6
dd
f5
00
f6
1e
1e
f9
bc
df
ee
0a
36
ee
17
07
1c
fb
06
f5
08
17
10
ca
00
f4
ed
02
be
c5
e8
03
d3
fb
1d
f0
08
34
14
ec
03
f8
f8
de
00
e6
0f
eb
1d
ee
ce
13
f3
20
00
f3
f1
04
0f
13
fe
03
2c
f1
f0
eb
0c
f6
f3
07
f0
0f
c0
05
f3
1d
21
fc
23
2c
fe
00
02
ea
c6
07
04
cf
12
fc
0a
37
00
dc
18
eb
20
cf
0e
05
cc
1b
fa
06
d6
f7
fa
db
1a
1b
d3
ea
ea
e5
00
12
dd
c9
03
e3
e5
fb
18
de
b5
f2
c6
0e
10
15
fd
44
e1
23
06
28
07
d1
07
1e
e2
f0
09
d8
0e
1c
fc
0c
19
54
f2
2f
eb
01
0a
0c
06
f9
12
2b
d8
13
21
dc
01
11
f6
18
ee
14
07
e8
14
0f
e8
f6
f6
17
ed
27
04
33
0a
05
fd
0f
e6
01
e4
12
0f
07
c3
f7
f5
2f
45
26
ff
21
f8
ea
f0
0c
f9
17
06
24
e6
db
11
1e
f2
1d
09
13
0c
02
2e
1e
fa
08
d4
08
fc
fd
ee
10
21
f1
01
dc
07
fe
11
f9
2a
ff
0c
fd
0e
33
2b
0b
0a
d2
03
fe
bd
07
30
0a
10
f2
10
0c
d3
e3
e9
25
12
f7
0b
17
1f
cc
0e
0b
e4
fc
14
0a
42
02
f7
d2
fe
1e
0e
ff
00
e2
24
08
ff
19
f7
e4
09
3a
fb
0a
f2
1f
2c
ec
51
0f
12
fb
01
54
2c
04
e9
0c
1b
10
e2
1e
dd
11
f3
00
45
1f
09
3e
c6
15
dd
ef
e9
fd
19
f4
18
01
c1
88
d5
12
e9
f4
15
e3
0e
f5
0d
07
01
d3
c7
fa
1e
f0
19
ee
19
05
25
f7
08
fb
00
f0
10
0f
fb
32
02
eb
19
1f
09
15
db
e4
07
f6
0a
e8
0b
fb
25
eb
f2
e3
07
ff
fa
02
f3
2f
0b
2c
00
fe
16
e2
3b
f4
e8
e2
22
f5
de
e7
d7
0d
27
01
e8
f1
c5
ee
4f
d8
05
f2
09
dd
f2
f9
1d
f1
fa
17
3b
01
e0
09
3f
ed
e5
07
0d
d2
d1
ee
19
f6
ed
27
1c
03
d9
03
f6
0b
ec
01
03
29
1a
f9
de
df
17
fa
e1
f6
17
18
b9
da
fa
ee
ed
05
18
e3
0a
05
fa
05
0a
ef
0b
31
fa
2d
49
f0
0c
0c
e9
d7
20
ef
1c
1d
04
fc
0f
27
e3
ed
21
28
fe
04
fb
fc
35
ef
ff
2f
ca
05
13
e8
e1
f0
f0
e5
09
ed
d3
1b
17
eb
fd
f9
21
00
d9
01
fa
14
05
0d
ea
16
16
23
1f
3e
db
0a
bc
09
d7
17
49
0c
fc
30
ed
e1
06
fd
d1
db
32
3e
0c
15
e8
01
00
01
07
2c
04
f1
21
e9
c3
0c
ef
06
0c
13
13
20
07
da
f1
e0
ed
f5
f2
ba
0b
f6
16
fe
e9
c0
1d
1b
ec
b7
14
e7
f6
25
eb
f0
f4
2f
0b
f4
f7
e7
e1
d7
e8
0c
11
33
07
0c
35
ff
07
fc
13
f5
05
f8
0b
0a
0e
ff
19
ed
23
f5
f9
d8
4b
f4
07
ff
e1
ee
1d
1c
06
23
fe
26
f4
20
03
ed
06
18
1c
22
e6
fe
14
1f
1b
ff
05
06
ef
1d
ee
2c
15
1e
e3
e7
1d
22
ed
ff
d7
00
e2
e6
f7
ea
15
fc
23
11
ff
da
2a
f6
f0
25
40
f2
f6
12
e8
01
08
fe
da
e3
25
11
e8
11
04
f3
04
1d
03
f9
ff
db
0c
e6
ff
f5
0b
f2
e9
2a
0a
0f
0f
d5
dd
02
c9
15
03
00
dd
0f
e3
21
eb
ea
e8
ee
0f
d3
f5
e2
05
10
e4
ff
d7
ff
fa
1c
12
3d
15
f5
af
f4
d1
0e
ec
fb
cb
f8
f2
08
d7
fa
28
c3
06
fd
5a
cc
09
e8
1e
ff
08
db
19
30
f0
f2
eb
32
0a
23
d0
fe
bf
0c
f6
28
09
26
cb
0a
0a
d5
09
e5
04
2c
eb
d2
03
21
1a
10
00
e6
14
34
e0
3b
1f
3b
d5
ff
27
f1
1c
13
1b
0a
fc
0f
f2
18
0a
05
f6
1a
1f
e3
d6
f1
1a
25
37
f1
28
2a
fc
db
e0
f0
2e
fd
16
0a
2d
23
02
e4
2f
29
14
0e
1d
f0
04
0e
27
f2
0d
d4
12
08
06
05
03
0e
14
21
30
f8
1a
39
37
07
1f
e7
10
07
ed
ee
09
0c
e7
16
10
09
fc
41
ed
01
fc
0d
f3
06
0b
fc
00
09
06
ee
13
f5
f0
ff
10
00
0e
da
0d
0d
01
c9
35
13
e9
f3
13
18
39
0b
08
f0
11
fd
3f
e0
ff
09
4b
03
e4
37
f5
fa
f8
0e
ec
0d
d9
ea
11
f8
29
fa
04
fa
18
12
f4
ee
cf
15
2f
23
c6
17
d1
00
15
11
11
08
f6
1b
d2
d9
f7
fb
12
ba
e7
e1
fb
be
f9
fd
f8
11
e7
e4
d9
fb
0b
e3
f1
fe
ed
10
d3
e3
0e
26
16
fb
dd
bc
01
fa
f4
09
f8
ff
f4
e7
03
fd
24
ff
0b
14
40
07
08
f3
26
fd
0e
1d
1a
ff
de
0a
36
f2
08
fc
3d
ee
f9
f4
e0
01
10
07
08
f3
fe
f4
07
d9
12
f4
f7
dc
d9
20
04
c8
19
14
fd
ff
10
e0
2c
d0
20
18
f9
d8
e4
00
eb
34
be
f9
06
f0
ef
d6
fa
1b
d1
09
fa
eb
12
f5
c8
fb
21
0a
1d
14
0b
f7
f9
ea
cd
05
ec
e4
e0
3c
fe
0c
0a
1b
fc
de
05
ee
da
0d
0a
09
0b
ff
0f
00
e6
f1
12
1f
ec
24
20
3d
e3
21
e6
f8
0a
f6
04
d9
f0
d3
0a
2c
fc
f7
11
db
0a
07
1d
27
d3
e6
d0
29
10
01
0f
16
40
0d
2a
eb
f1
0d
f8
d1
03
02
1a
18
f6
20
fa
21
e7
b6
02
f7
d5
1e
e1
01
34
14
fc
03
01
e4
1c
f2
e6
0a
1f
19
e9
fd
f9
fe
0b
fb
00
00
bf
0d
2a
03
01
fa
1a
14
06
f1
f5
e5
2b
03
fe
fe
f8
dd
f2
24
e4
19
07
02
f9
18
15
45
12
c8
ea
12
19
46
d8
14
30
fc
05
27
dc
f9
3a
3e
13
f3
12
e7
46
ef
1a
1c
fd
e7
12
04
d5
ca
26
2e
f2
e9
fb
07
24
f0
f2
52
0d
05
fa
33
f5
06
df
e4
e1
06
1d
00
22
01
1f
f1
f7
f8
f4
18
e7
ce
08
e6
ff
d2
de
fa
f0
35
18
09
f9
df
4b
3a
f5
27
f7
ee
ea
32
c5
07
1c
08
2e
e4
ff
3e
f9
01
08
13
fe
e7
f9
12
fd
14
df
0e
26
e9
f0
ef
18
eb
eb
06
ed
0d
e6
f6
d5
02
d5
16
1b
35
30
20
db
11
0a
fc
f8
0f
d7
08
0a
06
fa
0b
0d
05
f4
12
e3
ea
11
e8
f5
25
04
10
2d
f4
c4
ee
00
2d
0c
17
cb
d8
f1
fc
0c
f4
c5
1e
de
fa
fc
eb
1a
e8
f0
f7
37
fe
0b
f6
fe
0a
03
1b
0d
1e
2b
ed
0d
fb
ff
fa
3a
fb
fd
08
26
f1
e4
12
07
09
e9
2b
12
2f
dc
14
05
fe
23
0c
00
00
08
df
32
ea
f4
f5
eb
fa
bc
d4
19
fc
e5
0a
2c
07
e2
f6
fc
f7
ff
fc
04
f3
c4
1c
1a
37
f3
1f
e5
fa
e2
d3
f7
f2
fd
ee
10
f2
3c
fa
f1
f9
cc
11
ca
f4
29
ea
f1
41
08
dd
20
40
f6
04
1c
db
f1
00
35
f5
e6
53
fc
12
09
05
cc
d8
06
e3
04
40
fb
ea
06
1d
1b
e1
ff
08
37
1a
1c
08
f6
df
30
f1
3b
0d
18
e2
de
14
fe
ff
f4
f1
e6
e8
df
07
e1
ea
26
f8
f1
05
03
03
20
05
fe
eb
db
06
e7
01
06
eb
12
22
0f
30
24
b6
07
24
fb
fc
01
e2
d3
17
d2
ed
07
c4
0c
08
0f
27
fd
ea
15
fc
1c
d8
ec
ec
e4
1c
19
02
e1
f5
da
04
e6
2a
ce
1c
1b
07
e0
21
c0
0d
ee
ee
47
28
fb
ff
37
f4
f4
fa
01
21
15
d7
01
09
d5
f2
ed
e9
f9
e9
04
07
2d
dd
17
fb
df
ff
ce
01
0f
1e
38
15
f5
f8
0f
d6
e8
05
0c
e6
dc
2a
f5
0c
fc
f6
ed
2d
15
0a
05
37
0c
e7
30
e4
07
01
bc
11
0f
e9
1e
da
1a
f1
fa
12
12
20
0e
e5
fb
02
20
cc
d7
f2
bb
01
ea
dd
fd
40
fe
ec
25
07
07
f8
d5
05
e0
ec
f0
e2
1b
ee
21
eb
26
2a
f3
0f
d6
10
c3
21
de
06
1c
f2
46
29
10
c4
fb
13
0d
e1
13
10
df
24
1e
2d
22
0c
fb
0b
11
eb
2e
04
1e
eb
f3
0f
25
1e
f8
0c
36
00
08
2e
f4
ec
f7
b6
3a
26
d3
1a
f4
0a
09
10
f5
06
df
eb
0a
0b
ed
f6
ed
ee
f4
e9
b3
ad
1a
1a
0e
18
31
11
04
13
e3
da
d9
18
36
f6
fc
1d
1d
e5
31
1d
0d
eb
29
10
16
e4
fc
0e
f7
f1
fe
ff
f7
26
28
ff
1f
1c
fc
fa
e5
14
e3
eb
d5
ea
11
1e
ec
e9
0f
17
df
14
ee
1b
f7
e1
36
f7
fc
13
00
e3
f4
3a
0b
24
0f
fe
ed
fe
ee
ef
fc
d5
f9
ee
0a
f2
06
19
0c
f2
f2
f9
01
b9
ee
db
c7
fe
35
fc
11
f8
17
f2
22
f9
05
fc
e3
3e
f6
1d
f5
d5
dc
15
0d
d4
f2
d6
f4
04
04
24
d2
f7
17
fb
fc
10
1c
23
d8
f4
2e
12
f4
07
e1
d5
2c
08
f5
20
18
fc
d9
f9
05
07
16
17
f8
e4
3b
f1
00
08
1e
18
cc
f7
e9
20
e1
f3
fd
c6
07
de
e5
09
d6
18
d1
fe
0b
fe
fb
f1
0f
05
fd
40
27
14
c3
f8
1c
fd
f0
19
f0
14
e5
fb
e7
16
23
df
44
15
20
ee
be
1e
f2
1c
fe
1d
26
ca
ee
12
f3
31
dc
e3
e3
f8
1e
fd
fc
12
3a
0d
14
e9
d7
17
fd
f8
23
f2
fd
13
1f
16
04
f9
1c
f2
e9
e7
3e
f5
f1
03
08
fe
27
1a
14
02
0d
01
13
e5
fc
1e
23
c4
c3
0a
23
e0
f5
b2
f8
d7
1e
28
34
cf
15
2a
ce
d9
da
0e
24
01
e9
04
11
17
08
f7
c4
d3
e8
04
28
03
ef
ff
31
f2
12
46
02
19
12
03
df
f4
ff
fb
f1
f3
d7
e8
d4
1c
f9
e7
0a
e2
fb
dd
e6
fb
0d
03
fd
1e
ff
f4
11
d5
f5
ec
f0
11
cf
26
01
17
07
1f
08
41
23
f9
03
fa
02
d3
b8
0d
0c
ee
f1
09
2c
10
fb
08
1e
1c
19
0d
eb
ed
08
27
f7
f0
e6
23
e2
27
0f
05
0d
0b
e8
21
ff
ff
1b
24
04
13
e0
f0
0d
1c
0c
eb
03
fc
f6
1a
13
10
c3
ef
05
04
e8
3d
f3
fd
ef
34
0c
38
37
3c
0d
e4
26
f9
dd
16
43
e0
15
e6
0c
00
ff
08
ed
03
2c
12
00
4a
f9
11
0d
ce
ed
06
3b
01
17
08
5b
e5
1c
ff
0d
09
f3
12
0a
08
05
fe
1c
2c
ed
3a
fd
14
0c
25
f6
2d
0f
1f
ee
fb
f9
f1
1c
ee
ee
07
f2
de
fe
20
00
17
16
f2
0d
fa
e6
06
ff
fe
fd
04
1d
0e
18
21
23
de
f9
20
0a
1a
3c
05
d4
13
ed
08
ea
f3
f2
2d
e7
07
2f
d4
17
ff
f8
da
e7
05
0a
04
52
15
06
f5
cb
d7
da
10
08
fc
e5
12
e8
11
cd
f0
13
dd
fd
f8
2f
e3
ff
01
1b
e6
f3
fb
1c
0e
f3
0f
f7
18
e2
f3
08
27
d8
de
03
36
0a
14
03
1b
12
f1
ef
1d
f7
0d
06
ff
e6
45
09
1b
ce
e8
be
f4
ff
33
f1
cc
f4
23
f4
e0
17
ed
f1
00
bd
1b
ee
d5
04
2d
00
0b
33
15
e3
25
1c
e2
2e
f5
2c
0e
17
be
11
16
e8
f9
23
22
eb
20
e1
e8
0a
eb
0d
ed
f6
f2
1a
30
e5
4d
e9
fe
c5
04
fa
f5
de
0d
17
f2
1e
00
03
e8
bc
f2
07
fa
cb
08
f0
09
03
05
06
d7
ed
fb
f5
04
0a
e1
f5
ed
29
fa
f7
06
f7
0c
09
f0
e5
f0
ce
fe
08
14
04
e1
f6
0d
23
1b
10
d1
ff
2c
29
f6
fa
c4
ff
f2
ef
fb
fa
e4
ef
e7
2f
f3
22
eb
f5
ff
fe
02
30
cd
cf
e0
ff
02
f7
2a
05
ea
1f
10
e2
1e
2f
1c
31
e4
03
1f
0c
e9
06
0f
fc
10
01
2d
db
fa
d8
eb
2f
f1
e3
2f
1f
fc
19
00
12
0c
fc
30
f1
f5
f9
f6
31
e9
19
fe
ff
e2
03
1f
2e
1b
12
f1
01
ff
e5
21
fa
cd
e9
01
db
1b
17
16
0e
d7
ef
18
09
10
02
1f
05
fc
f2
27
bf
e4
05
00
1b
f0
01
e9
1f
4b
10
e8
d1
1a
ff
fd
da
00
f5
e2
0a
e1
0d
d8
3a
0b
e9
3a
fd
11
2e
d2
17
15
d5
f7
10
04
d7
0f
08
4d
ef
db
d2
eb
08
e3
e5
10
f5
f7
f7
f4
f0
d3
24
de
08
fe
07
19
d7
07
2d
00
03
01
16
35
20
28
14
14
cc
de
03
fe
27
f8
f7
c8
08
e3
d7
20
02
c0
f9
f7
e9
1f
13
e1
04
2c
f2
16
09
30
10
34
2b
e0
e4
cd
22
fd
0a
f2
1f
1d
08
d7
24
0d
1d
cf
29
03
04
15
24
f5
0d
f3
0c
f4
d8
04
09
fc
ff
04
e2
e1
fe
09
1d
e6
3a
fc
e3
d8
01
01
fc
ca
f7
f5
0e
f9
ea
1c
f3
11
df
25
0a
0e
ec
07
04
03
20
0c
f0
e2
fd
cd
18
0b
e5
ac
1f
1a
f4
0e
07
fc
f8
de
14
1e
01
0a
f0
09
08
d6
09
dc
26
f9
ec
e2
0a
1c
db
ea
00
0d
f7
06
01
d4
df
c9
e9
24
10
f5
1d
f3
e3
ef
2f
22
09
e0
b8
e4
10
09
fc
01
fd
e2
fc
f1
24
19
28
18
2e
0d
fb
00
dc
ec
f9
18
07
fe
34
ec
0c
07
e6
1e
d9
07
0e
13
f7
49
21
0d
10
1d
00
0f
ec
ed
dd
0a
e8
fd
ea
10
38
ef
d9
f7
f4
07
12
ef
09
e4
fe
2c
2f
f5
0a
07
d8
e6
08
c8
d9
22
e4
0f
00
db
03
e6
fd
15
42
df
36
1c
08
fb
f7
20
03
10
41
35
e7
00
f3
d8
03
1a
0e
02
d4
f1
11
cc
f8
16
16
e9
34
f8
e1
ec
f9
f7
f2
17
e5
26
f1
0b
e8
0a
12
1b
f1
33
24
e8
fb
0a
e3
10
23
d4
04
0a
fd
01
0b
0c
e1
0c
f8
22
fe
4b
f8
20
ea
00
f4
fe
1f
06
f3
f8
1f
18
16
fa
18
cf
26
1d
12
ff
09
19
ef
19
fa
17
f8
10
68
cb
2c
e0
f5
01
03
17
e9
f8
e3
e4
1d
da
fb
f1
00
e7
3d
01
ec
c0
d5
f4
00
08
ed
08
f9
37
34
f0
dd
bc
00
06
1f
e0
02
e3
f4
04
cc
ee
1e
23
ed
06
f5
fe
2a
f3
00
02
16
02
f2
20
13
14
d6
0e
0e
f6
e4
f3
b2
32
ef
1b
19
df
ff
30
01
14
37
0c
dd
30
1a
1c
fd
f2
ee
13
17
10
ff
03
33
01
22
e1
e4
01
fe
3e
d3
0b
00
f1
06
fd
0f
10
c8
fc
f9
0e
ce
03
b0
20
06
f1
dd
00
08
e2
19
21
d6
e8
df
f0
f4
ff
1a
0c
0c
15
e8
09
e5
fe
d8
03
f2
0c
34
1a
0e
f8
fe
f0
26
31
e6
fe
dd
14
05
1b
ec
02
09
cc
37
10
e3
0c
fe
dc
23
19
ed
10
2f
43
fd
fb
14
09
4a
f5
f7
14
02
b8
f7
1c
f4
e2
f6
58
04
0d
0d
00
e0
2d
0b
18
0c
31
1b
04
06
05
1e
0c
08
34
d4
0f
0c
fa
e2
f9
f5
e6
1b
15
0b
d5
0a
fc
21
ee
10
0f
ea
10
0a
09
21
18
be
28
2d
ee
f4
45
2f
1c
0f
2d
30
f2
e1
10
f0
0b
e7
18
f4
e8
3c
11
11
e9
f0
d7
1c
13
1d
df
05
e0
0c
f3
f4
d9
16
2b
07
f3
ee
ff
ff
0a
14
31
e7
f0
3c
cd
03
ec
03
07
08
db
ff
06
16
ee
29
f7
e9
04
1f
ee
08
e7
0f
f0
06
f4
f4
27
ec
36
28
0a
39
f4
13
fc
ee
ef
15
e4
eb
d6
e1
04
d7
f2
16
06
ee
ed
c1
0d
04
f3
03
19
fa
e9
13
fc
14
d5
eb
d7
23
1d
18
00
32
df
04
cd
f6
ff
f6
11
18
d9
cd
d9
09
06
24
12
e5
12
2e
17
e3
13
2b
16
11
f2
39
0d
eb
1b
ef
21
ae
2f
25
fb
dd
3d
c2
fc
ee
eb
f1
cd
22
ef
19
e2
08
ca
fd
2a
19
ca
15
ed
e4
2e
05
0c
ed
24
06
24
01
f4
d2
03
36
fc
15
e0
fc
d4
39
f9
0f
e5
f2
ed
1f
ea
32
dd
ff
2a
08
de
34
11
fe
1f
26
f8
f5
07
2f
05
0d
28
0a
03
c4
eb
0f
f0
de
19
da
fe
cf
0e
fc
10
f9
f1
fe
e3
02
00
11
d6
09
e9
cb
24
c3
09
ed
cf
f4
01
f3
f6
dd
14
de
04
e2
ff
ed
c8
f6
07
f9
1a
18
38
01
0c
4e
b8
01
f6
f5
1a
30
06
01
1a
00
23
08
ec
d7
d7
f2
e7
e2
09
4a
0f
1b
ee
06
27
23
fc
1b
ec
16
0c
1c
ee
06
e8
12
3b
ea
14
e5
04
e2
12
1e
f9
d8
f5
19
34
14
16
f3
06
06
f7
2d
1b
ea
1c
c3
23
11
f2
e1
00
06
04
d8
fe
f1
01
06
d8
d3
f1
e1
48
eb
e9
fa
07
01
e7
14
01
09
07
0e
ec
0d
f1
09
19
ff
f2
22
dc
1d
e0
f6
f7
de
0b
12
02
12
f5
e3
e8
cd
06
c9
3c
40
f4
07
f4
e3
32
13
e4
15
09
00
1c
0f
13
04
12
10
14
22
e7
e4
09
f0
25
0e
e5
07
ef
ea
fd
f4
fa
16
15
e0
f1
0e
e4
df
10
10
be
f9
1a
21
f8
3e
18
03
f6
cd
1e
0d
e5
19
15
14
06
0d
e8
04
21
09
db
d2
da
33
fa
f3
26
10
0d
f9
1e
26
e7
01
ff
10
40
0d
16
40
c8
2a
18
15
f0
f0
13
43
e5
07
f5
f7
09
fb
02
00
ee
fe
fa
04
fc
f6
08
1b
f1
c2
e6
fc
0f
c7
23
b0
fa
04
09
e7
13
de
ed
21
f7
e2
28
f8
e2
bc
c0
f4
2b
06
da
ea
35
03
fe
05
11
cf
d8
09
e4
ee
d1
e1
1c
f5
00
08
e2
d1
f3
cc
fd
00
e4
f2
0e
fb
e6
00
49
08
14
08
1c
ff
ee
d3
05
f5
0f
df
d5
33
db
12
c7
12
d7
f0
40
34
d1
14
03
39
17
27
0f
05
30
dd
3d
1b
f3
22
dc
f0
f2
34
eb
2b
cf
ef
bd
00
1e
0a
07
07
f8
fc
fc
06
fc
f8
fe
1f
bd
40
05
0c
ee
11
31
e0
0b
f7
3b
b8
de
17
e1
12
f2
18
07
c1
07
dd
08
17
fe
db
09
d2
25
1a
06
1a
03
ea
00
db
05
1c
14
1f
f6
f6
07
e9
10
f0
13
f9
e9
31
fb
20
08
12
cd
de
e7
fe
08
e8
f4
ed
06
e8
eb
f7
ed
06
06
f8
f8
30
d5
1f
23
10
37
ff
d8
0d
fb
f7
f2
e3
ed
db
f4
d6
27
fe
da
c1
e3
09
dc
16
25
fc
07
1b
f5
f4
23
9e
fb
17
e2
e7
ed
fb
e3
da
ea
0d
ed
d6
d6
03
23
0d
16
fe
fc
01
cb
1b
21
3e
07
0a
f4
d8
00
f8
e9
eb
08
f6
fd
1e
1f
04
db
2c
f7
0e
fb
21
0c
d2
f3
f6
1e
02
07
14
f5
f1
f8
03
e9
02
04
e2
0b
04
ea
18
e5
db
de
fe
ff
2c
ed
17
18
e1
37
fa
14
f1
fd
c6
26
1a
02
f6
d9
f7
e2
23
bd
e9
13
e2
07
1f
fe
02
bf
19
f9
04
08
f6
e9
e7
29
f2
fb
c3
f1
f0
ee
f7
fd
36
fd
d7
02
02
e6
eb
ec
04
ed
d6
f5
17
cb
1f
05
e1
d2
00
2a
0c
e1
14
36
1a
0e
1c
e7
0f
f4
c6
0e
c6
ed
0e
fa
f8
e9
e6
0a
32
09
d2
0f
d1
df
cb
ed
16
de
fa
cf
08
fd
13
0c
13
01
2f
f4
12
de
08
24
21
05
38
f5
fd
0a
03
f1
fd
1d
c4
27
f8
ff
04
1a
04
01
00
35
e7
03
2f
15
e5
ea
f0
ee
fe
d5
41
1b
09
aa
cf
e6
fe
f9
03
12
e3
ed
e5
f4
d5
ee
d2
10
04
2a
18
f1
23
1e
05
35
13
fc
f4
0e
1e
ee
ef
07
0d
09
02
f9
fb
f2
10
f5
04
06
36
ea
ff
c8
e9
22
e1
c3
13
08
e7
09
01
a8
f4
08
f7
de
22
20
28
f7
e3
10
f5
ec
07
fa
f5
00
ed
e3
c1
0d
d1
d3
0e
03
10
f9
d9
1a
d5
f9
4d
ff
30
e5
2b
15
11
ef
e2
fb
fd
0a
ca
f6
de
03
0c
1f
10
05
f3
db
02
ce
16
fe
0b
25
09
0d
31
d1
fa
10
d0
29
19
df
15
01
09
17
09
b9
fa
0e
27
26
0e
ed
34
20
0a
ec
2a
2d
11
01
ec
ec
ea
4a
dd
2c
e2
3a
db
0e
f6
02
09
00
08
03
17
06
db
03
d4
fd
f5
f8
11
cf
10
c2
05
15
fb
f1
2e
e1
2c
ff
01
be
02
d9
d1
28
e9
36
41
f2
0c
39
f4
0e
d9
1e
05
24
08
1d
fa
d2
f4
c6
3c
00
fe
ef
26
10
04
1b
0f
f9
d1
ef
04
0d
fa
12
ec
ee
e7
05
0e
d9
15
e0
e4
f5
dd
01
ff
28
e4
16
e3
cd
f4
18
dc
14
f0
e5
16
01
0b
e3
03
fd
f2
fe
ef
34
12
c9
d8
06
ce
34
12
e5
04
db
0a
f4
f7
ce
01
f5
00
ff
e6
e8
f2
ef
03
c6
e8
d1
16
f7
f2
fa
e4
c0
e7
17
07
ff
18
e0
bb
e0
d0
e9
2a
d0
0a
06
d7
e4
ee
f5
0d
ef
e0
e4
09
c8
00
37
18
ca
df
f0
15
1a
1c
0a
f4
0e
e2
f5
0b
d9
df
0e
20
ee
0e
13
e9
1f
eb
e1
e2
ff
0a
dd
0e
19
24
f3
f0
cf
eb
2a
26
e7
14
1f
e6
f7
ef
08
d2
27
e5
f0
f2
31
f4
13
df
d4
2c
fd
d5
07
ef
29
07
1d
19
e8
f7
fd
f9
32
13
dc
0e
17
25
ec
fb
ee
e7
fc
0b
e8
1b
41
03
05
26
17
f6
09
bf
00
e2
43
1d
ed
06
07
f1
0b
19
04
e0
19
04
cf
d9
df
db
d6
e9
fc
12
da
f2
d6
c8
d9
fd
fb
e9
1b
06
ed
20
08
0b
18
1d
d2
f0
30
de
1c
03
0b
38
c2
eb
f9
ec
f4
00
34
23
1e
16
09
1c
0f
f8
0f
33
e0
fb
fc
1c
33
02
ec
f9
f3
e2
24
fa
fb
03
43
e2
f3
e1
e9
07
09
e1
16
0e
1d
33
13
27
2d
02
00
e4
fe
09
f0
f6
d2
00
27
de
35
11
ff
5a
b7
05
2a
11
f1
e9
d6
27
01
28
1e
fb
ef
12
00
0e
e5
26
fd
e1
e9
d7
1f
17
d0
e8
e9
10
0d
d7
2a
de
2e
38
1f
00
0f
0f
3f
14
fb
24
f6
c3
ed
27
fa
05
02
11
05
32
28
0b
16
e6
c8
0e
1b
0d
f5
fd
dc
16
f2
05
35
16
10
3e
33
d0
bd
06
06
18
24
f4
f3
e2
e5
f2
cf
16
26
d1
02
f0
ff
04
fe
36
d8
05
c5
0f
16
dc
01
fe
fe
1a
03
18
e3
ef
ee
07
f6
d7
1b
20
ec
d5
ed
3c
1e
f1
ff
f8
06
13
03
0f
fa
fe
04
0e
cf
e0
12
f2
e4
0c
00
1d
f8
e0
05
1f
ff
17
24
01
2b
f8
e0
d1
08
f4
ea
0b
f7
dd
0d
ff
d4
fa
ef
fe
ce
c4
eb
0b
13
09
dd
fa
12
22
11
f9
32
db
0f
d4
f3
e7
00
e3
09
ea
f9
2c
1d
ef
f6
c9
30
20
d8
03
d8
e0
08
dd
09
25
f2
12
05
fa
d7
04
e0
03
07
02
e4
f9
34
f6
e8
f3
ed
1d
f8
ec
e4
11
ef
06
11
c7
fd
25
f4
f4
f8
09
c3
ec
18
2c
05
06
1f
ee
10
f5
24
01
e3
e8
db
d2
e1
2a
dc
fe
16
fe
e4
cc
19
cf
1c
e9
1c
f6
ee
ed
f7
30
07
02
29
fc
06
12
17
e8
eb
ee
05
fb
0a
f8
02
bf
f9
12
2c
f3
1b
ed
c9
fc
38
05
07
d7
0d
f5
21
fe
f4
06
f9
20
fe
f0
f0
d7
f8
00
17
f6
f1
e7
0e
da
0a
2f
dd
eb
dc
f5
0f
c4
b8
ff
0f
d0
fc
da
0a
01
0a
19
f2
f7
e5
f9
f5
ea
08
0d
f4
17
07
17
ee
f4
fa
09
1f
e9
f3
da
20
ef
fa
e8
c0
e3
f8
05
2d
ea
0d
18
d2
2d
0f
33
fc
1f
fe
0f
0e
02
00
f7
16
32
de
26
1c
04
08
17
d9
08
0d
eb
fe
e3
0e
15
fc
ee
19
0a
14
e3
e5
2d
c7
08
d7
27
0b
21
fe
d1
f7
24
23
f9
dc
d6
07
ed
17
09
28
1b
01
e2
33
2d
d3
3b
db
0d
f4
de
13
1b
2d
fc
1e
f3
1b
f7
28
01
26
12
d8
19
ee
00
ce
2d
02
d8
0a
fb
0a
0f
fb
04
01
19
05
11
2f
d4
1b
f6
e6
ef
45
f5
ef
f6
e5
1f
0c
08
f1
fa
2b
e4
07
33
16
15
2a
f1
1b
49
df
fe
f9
e4
1b
21
ff
d7
19
06
fa
d8
e8
15
fe
08
db
d5
37
c3
0c
d7
e9
c9
e6
34
0d
f2
da
09
07
38
3e
df
25
0a
ff
00
10
01
0d
37
ee
24
07
e4
d4
f7
0f
28
de
fe
db
12
0e
1b
14
29
ff
f2
d2
e0
e2
db
06
ed
26
f5
28
0b
f2
03
08
f6
0c
15
06
1b
e8
03
23
24
e1
0b
e8
e2
40
21
07
35
16
d7
17
0a
0b
ec
04
21
28
38
e9
05
06
e3
28
0b
c6
fc
c9
e1
f2
e4
33
03
fc
2b
3e
e7
d9
d3
f8
f9
05
0f
30
2e
0e
20
e9
35
dd
03
08
41
04
f7
13
0d
f5
12
ec
18
10
39
bd
09
02
17
e7
fb
f6
cc
de
18
01
2d
f0
10
f4
d6
da
ec
08
13
fe
02
02
2a
f3
d9
11
08
0f
f4
2e
fd
3b
1c
2e
f6
d5
df
3d
c3
f2
dc
16
e4
2b
be
dc
2c
32
ea
ed
e7
31
e7
08
18
04
16
18
06
22
ec
0d
18
1a
ee
03
ef
17
f9
33
37
2d
10
e2
f7
fb
0d
e6
d2
f4
22
f7
fd
f7
f0
21
26
0a
17
f8
f6
07
f5
d3
e1
03
0a
00
d9
c1
17
11
08
d5
f0
10
e4
ee
f4
c9
05
d9
d1
16
12
2b
a6
1a
03
d9
f0
cd
0b
f9
f9
cf
ee
07
02
f0
dd
ee
d9
d3
29
29
f1
3f
f3
41
ee
18
20
fa
f0
f4
18
e4
0c
04
d3
13
19
df
02
f2
00
cd
dc
17
f0
16
1d
cb
04
16
47
07
fe
2b
fb
fb
0e
36
fc
50
e0
0d
f1
de
f5
f2
05
e7
3f
fb
0e
29
0f
f5
f9
19
ec
eb
ef
f5
ff
08
de
d1
cd
19
25
db
02
0b
dd
f6
fb
ec
de
f7
f2
fc
0e
db
fd
10
01
fe
2c
f3
48
01
15
f3
d7
01
ed
f1
15
fd
d4
f8
07
11
ce
f0
24
f2
2a
07
f5
12
10
dc
11
e8
05
f0
35
02
dd
e2
0d
3a
0e
1d
fc
e2
20
00
31
e4
e9
29
de
07
ec
e5
fa
2a
29
15
fd
0e
f7
fa
e9
08
f1
13
ff
1a
e1
f2
f5
00
f8
03
01
17
df
13
01
f9
26
2d
0b
e0
f0
21
db
09
d5
ff
d6
1d
0e
e1
27
35
f9
16
08
03
18
10
fc
14
09
05
f6
06
1c
07
e8
dd
21
0e
13
e3
f8
d5
0b
e9
4c
fa
09
22
23
15
ff
fa
2c
fe
e2
f3
1c
08
11
d1
14
00
d7
aa
02
00
2c
d1
06
0f
0d
f6
0d
07
dc
0a
0e
04
04
f2
0d
3c
17
00
e4
eb
15
f5
4a
0e
0e
ff
9e
fb
05
e9
e1
fc
f6
09
f3
07
21
e4
fb
29
f8
e4
14
d6
d7
f0
e0
f0
ba
e6
de
8c
ef
1a
0b
f6
be
12
0b
3a
2e
01
f3
f2
1a
2f
3f
01
18
25
fc
e7
f3
1c
fe
f2
d4
fd
fd
e7
f0
f3
f1
f9
fd
10
b1
f8
ff
06
28
04
06
08
04
f9
d2
cb
e3
0e
f8
23
1f
df
f7
2f
f6
04
30
ea
fe
15
dc
f3
e5
01
14
f2
bb
b9
d9
fc
d7
2f
fe
1c
fd
ee
05
43
0a
e3
ee
24
e8
03
dc
f3
05
27
d6
f2
e1
08
0a
f1
0b
ed
04
fd
3d
0a
da
1e
eb
f4
ee
16
06
fb
05
d1
f8
16
00
f5
1c
1e
fc
fe
02
cc
f0
11
d3
f1
40
0b
1f
16
eb
14
e8
26
00
e3
f8
e4
bc
fb
1f
12
28
ec
03
ff
bc
f6
d0
fb
08
07
01
1f
17
e5
e4
39
0c
0e
19
0c
d6
da
d8
fd
19
29
05
0d
df
0f
e7
0b
21
03
21
07
02
0c
d1
1e
fe
17
0f
21
3d
da
06
10
15
1f
eb
02
04
2a
1f
d7
fe
16
dd
17
0c
fe
08
ec
d9
fa
fb
e3
ec
18
cf
ec
08
c2
f2
00
2d
fd
0c
f6
0f
d1
e5
22
d7
0d
d0
14
0c
00
30
f7
02
0b
1a
1d
e6
4a
05
05
21
0f
e2
e3
2d
fc
ee
f1
ef
eb
24
cc
ea
23
f8
08
13
03
44
19
1d
d6
f1
24
25
17
25
ed
c4
ef
e8
41
e3
23
11
38
de
21
f4
d9
eb
db
22
f2
33
d1
cf
d0
27
fe
03
fe
ed
c6
f1
2a
27
dd
f8
e2
fb
35
f5
ed
04
f6
24
10
12
e8
2c
13
f2
ff
b8
f7
f8
1e
05
05
0c
e3
d8
21
1d
fd
62
e8
e9
ea
e3
14
ea
f5
f6
0d
d4
e3
13
f7
ea
14
f6
02
e8
e2
1f
0d
ef
d4
07
2e
f5
2b
dc
0e
0c
fe
c6
22
28
f9
1a
f0
f4
b4
01
0c
cb
1c
ef
f7
dd
0b
08
1c
ef
f3
12
e2
db
12
d8
31
0e
dc
01
ff
26
f0
0f
19
b8
09
d2
2b
0a
f2
ff
f7
e4
31
e7
ff
24
de
17
eb
4f
fa
13
c7
dd
2f
0d
f8
eb
ed
f9
33
02
e5
0e
df
e3
09
d7
fb
14
c9
ec
e1
e4
f5
21
f6
e7
20
e1
09
18
d9
14
0e
24
d9
f7
da
28
1b
e4
08
1d
15
0d
f5
1d
27
eb
d4
0c
ff
eb
0d
f9
df
23
0d
05
25
11
0d
fa
01
d0
fc
11
04
df
ea
e6
2f
08
24
ed
11
ed
01
17
f5
03
c3
20
23
f2
ea
1c
20
11
1c
17
45
03
e4
d6
f1
e6
0c
24
e5
14
fd
f4
d9
0b
fc
10
27
cb
ef
15
d4
e1
dc
d9
05
09
ea
f0
fe
e9
fb
e0
1f
38
0e
db
00
f4
29
d9
0f
20
fa
f0
ec
f0
ec
e1
ff
2b
14
ef
fa
05
e9
0c
da
09
31
0c
2b
e5
1d
02
fc
ec
ed
04
0e
ff
19
f0
05
5a
02
08
0d
02
dd
03
d5
2e
2a
fa
f4
cf
0c
d7
08
ed
f5
04
00
0a
ec
03
fa
fd
c7
09
fa
04
07
04
f0
09
ff
ee
cb
09
fa
de
ed
e9
0c
ec
11
20
f4
06
ee
d6
24
df
df
0c
18
fc
f6
0a
ec
19
e8
13
cb
20
06
02
f5
f2
08
19
1a
e4
f4
1e
01
20
e9
0a
33
fb
e0
13
0e
07
ef
d7
f8
0c
17
04
3e
13
ca
0c
d7
ec
e7
04
0d
fe
19
de
31
0e
02
14
17
e5
13
d3
f1
2b
f7
f2
f8
e6
22
f3
04
f4
10
0a
1b
ff
41
08
d0
f2
fa
2d
00
19
f5
d5
19
19
36
20
12
13
04
e3
00
db
03
e6
f0
28
39
ec
c6
13
e9
29
1f
dd
e3
06
f3
d4
05
cd
0a
df
fb
11
13
08
03
0b
fe
0f
02
d2
f0
ef
ff
0e
f6
e6
54
24
f4
26
04
0c
1d
14
d2
f1
e2
26
f7
22
dd
de
d8
10
ed
29
fd
e6
39
2e
ee
fd
35
10
d0
12
08
dd
d5
df
f1
df
09
d6
f8
f8
e7
e6
46
09
02
fd
26
f3
f2
17
d5
fa
0d
e3
2e
0f
1c
fb
05
df
01
d8
13
0d
28
0c
12
f5
d8
b8
0a
e7
ed
ec
fa
d9
e1
29
1a
06
eb
de
20
23
e9
ee
f0
3e
00
ee
f5
24
fc
da
13
08
17
ec
0b
e7
fb
fb
fe
f7
24
19
1c
2a
03
e6
0c
2f
b0
18
0f
10
d1
e5
29
1f
0a
0d
e4
de
fe
fb
ff
0e
04
f0
e0
e1
05
fc
20
ce
f7
dd
12
0b
f3
08
0d
43
04
ef
fc
17
09
ef
01
0e
34
dd
ed
d8
0a
22
28
2d
26
f6
11
1e
0a
0a
19
39
00
20
14
d8
21
07
eb
da
29
c2
e9
ff
17
df
c7
d0
0f
ed
d5
f4
ec
11
fa
e8
09
28
04
fe
fe
fd
1d
b0
e2
0a
26
26
f8
fd
ee
13
b8
f3
17
0e
43
0d
c8
15
ea
f9
ea
24
f8
08
f8
05
ea
2f
1e
ea
04
02
e9
03
fc
04
fb
d7
e8
10
04
0b
c8
fe
48
26
ff
22
c4
1c
45
1d
da
14
2a
d5
07
0d
04
28
e3
fb
fb
ed
df
ea
f2
fa
19
10
0b
f7
02
03
09
02
e9
01
03
ed
d6
c8
cf
f2
23
2b
04
01
03
15
37
ec
f0
fd
30
40
cc
f3
f7
fb
d5
09
1a
e2
dd
f1
0a
05
cb
30
c6
e9
21
e9
ee
1f
d0
f7
3f
0a
d6
d6
10
ce
1c
fa
1f
25
e5
09
0b
39
f6
19
f7
17
0c
e9
27
03
fd
d7
10
01
22
eb
e5
50
d8
06
03
2d
d9
b2
fe
08
04
f8
e5
fc
f5
f8
f9
d8
1a
cd
16
f6
02
c3
2e
f6
15
1e
ff
fa
fb
23
06
f6
dc
f5
f2
33
f0
e9
ff
1d
d5
03
2e
13
ef
0d
e9
36
e8
0c
fc
18
ff
22
fa
1d
db
d6
09
d9
07
e3
e1
20
2a
cc
e3
dd
10
db
bf
b8
ee
fd
d8
0b
1e
f1
17
ff
cc
05
e6
11
f4
ff
40
14
da
df
0b
01
03
d7
f9
0b
c0
d8
e3
f6
f4
f3
ea
22
d3
1c
db
cf
08
ee
e9
f0
d6
ca
1b
f8
e0
13
12
ff
f8
07
fb
f5
d7
fc
17
36
ec
d7
cf
ea
15
ef
e2
f3
12
2a
f7
02
08
cb
26
0e
20
cc
ed
ec
17
f0
38
22
d7
fd
02
ee
ed
1c
00
0e
1d
28
07
10
11
d1
05
16
08
e8
06
02
d6
e0
1f
e9
0c
10
f2
15
f0
e2
06
f2
db
ea
e6
41
07
03
eb
dc
08
fd
1e
d2
11
f0
f5
31
df
27
01
d5
e7
35
0f
e4
fc
ec
1d
ec
d4
05
ef
2d
ea
ea
08
f4
f5
f8
1a
0d
f6
fc
05
f2
e8
f1
b8
01
ec
e1
dd
ec
15
11
f8
29
0a
ee
f4
fb
09
cb
fb
13
d2
2d
16
07
de
ef
16
e6
ae
f3
b0
10
d0
e5
ff
3a
f3
15
1b
fe
ff
fa
fa
09
b5
fc
28
fd
e3
f2
f6
1d
28
26
cf
db
00
fe
1e
f9
03
16
f6
f2
d1
0c
f1
0e
07
09
d6
00
24
d3
e5
ee
13
3f
ee
13
23
21
ed
02
e7
ef
1e
18
0c
e4
2b
4b
2d
13
1c
f6
22
1b
f0
18
ea
05
15
ec
ef
00
18
2a
cf
d9
f5
0b
ea
11
cf
00
10
0b
e2
f4
e1
06
12
ed
17
e5
25
e4
0e
eb
f2
d3
e2
f8
de
e6
03
d7
ff
01
fd
10
fc
0d
d5
ea
f9
e1
e6
ea
05
ee
01
03
0b
19
fc
f6
f3
08
0e
17
41
d9
27
df
45
fc
39
10
13
f5
f3
ff
1c
d6
3c
21
0d
ec
d3
28
07
2a
00
d0
f1
e4
fd
fc
c3
17
f8
eb
08
0b
f2
e7
16
13
e8
db
d8
eb
1c
f6
13
22
f2
db
fc
15
e3
db
2b
d4
10
f5
01
fb
15
c2
00
06
ed
1f
07
0e
da
11
e1
01
d1
fe
e5
ed
17
f2
16
f1
11
1b
1c
14
fc
0d
1c
fa
e5
26
19
30
11
c7
2d
d6
fb
10
27
19
d9
fc
29
27
09
32
06
e2
eb
b9
e7
e3
eb
0e
f9
ec
02
04
17
bc
f2
1d
fc
05
09
f8
fa
0b
25
f1
08
fa
e2
22
3b
29
22
f4
d6
35
40
0a
0a
fb
f8
e1
0a
ea
e2
03
cd
3d
e4
f1
02
f4
23
fc
2c
37
e5
de
e6
04
09
ef
fe
07
0c
1c
fb
e6
d1
1a
20
26
eb
15
ee
04
e8
ed
21
f9
04
0b
13
e5
05
de
0c
e9
31
0e
31
dd
29
3b
10
0a
ed
c8
fc
06
12
fb
3e
0d
0b
c4
f6
11
f9
07
e4
0c
24
04
fa
02
0f
13
ef
ee
d3
ec
9e
ee
e3
ef
fd
da
05
08
f9
28
08
14
bb
fa
f4
1a
1c
09
29
d6
f8
fe
21
19
ca
ce
14
01
39
04
f2
10
cd
f9
d7
05
30
28
05
e8
ee
2b
0b
16
26
1a
23
dc
0e
ef
e1
e2
f0
d5
f0
0e
d1
d7
1e
e1
e9
0d
db
de
e2
e4
e6
c7
d4
c7
05
f6
37
03
f7
0f
0e
ca
fb
39
ff
bd
0c
e6
fa
fd
06
12
f6
0d
2f
e1
ec
eb
d1
fe
d9
1d
f0
dd
f5
06
19
10
18
f8
f4
cd
0c
0a
ed
3a
25
e8
eb
e4
04
e5
18
ff
06
03
16
1e
21
f5
24
2b
19
eb
15
0f
fd
23
ec
fc
e4
34
e5
ff
f2
1c
f5
df
d8
03
e5
2c
0b
0c
e8
b5
16
f6
25
fc
fb
da
fd
f2
01
02
1f
01
08
14
12
d2
fc
f5
e3
d2
1b
e6
33
05
f0
07
0a
fa
df
f6
14
03
f9
e5
dc
0d
f8
c7
21
f0
e9
08
10
14
e2
f7
f1
cb
e2
0a
10
e8
f5
09
f7
e1
e5
e6
f7
36
14
08
12
25
ce
17
0c
de
18
e3
0b
15
e5
20
f8
1d
ff
00
ec
17
04
01
0b
13
f4
f7
01
32
e9
29
e5
15
0c
ff
e7
23
07
e0
03
2d
08
36
ec
13
2e
e3
05
ce
da
f4
04
0b
e8
f9
d6
fb
28
27
33
01
f2
02
ef
f6
22
23
d9
aa
fa
e4
f5
02
df
f0
10
12
0a
18
05
eb
ec
e7
e0
e6
cf
1c
f1
dd
1b
1d
da
da
b4
0c
fc
f0
1c
01
dd
11
b8
f4
ef
b3
26
0e
19
14
1b
08
f2
e0
fd
04
df
d4
09
27
0b
fc
f1
03
09
1a
16
ef
2d
00
06
3d
fc
e9
e3
da
f9
f2
f6
39
c4
ea
c0
d4
ed
e8
e3
d0
d4
2e
ff
30
ee
1e
fe
be
e7
d3
ec
f4
ff
f4
1c
31
0c
2d
e2
38
ef
f8
f6
10
19
b9
17
01
f0
f6
e5
d4
29
17
f1
0a
e8
20
fa
d6
e9
f3
12
d0
c0
f1
06
da
d5
f3
de
1e
e8
c4
ee
00
16
d9
13
e6
02
fc
11
f0
06
eb
ed
11
1c
ef
da
0f
e5
15
12
dd
ff
dc
f9
35
fb
1b
43
fa
13
15
d1
07
e2
f5
09
ef
08
fd
e5
0d
d8
02
f8
ef
41
f8
e3
f7
02
f4
0d
03
ce
d1
08
f7
17
e8
db
f7
05
0a
03
ee
f2
01
1b
0e
13
1c
05
ed
d5
f7
d4
14
f0
d5
04
e6
39
fe
df
3f
16
05
eb
25
38
f9
e4
04
08
11
32
0d
db
f9
07
15
fa
f1
12
1c
f4
f7
25
ee
e0
07
f8
10
0f
fb
19
d7
06
26
20
ea
43
28
db
cb
f0
fd
f5
0e
14
13
2a
d7
05
e7
27
fd
0d
34
c8
09
f4
cc
e3
ee
08
f2
d3
35
3f
f6
01
16
e3
f1
eb
0f
33
25
d4
da
d0
08
18
03
fa
f3
0d
12
e9
10
3e
e1
fd
c9
f8
33
23
2a
f7
11
00
f8
fb
ee
0a
ec
ed
fe
fe
02
2e
01
fd
21
1b
03
08
18
fc
21
ee
07
04
f4
de
f4
f1
e0
16
ee
34
df
02
11
eb
f7
05
0d
1d
06
bf
26
01
0b
13
15
df
1a
0c
e9
f0
00
f6
13
5d
f7
d8
08
e9
fc
1d
cf
14
0f
e1
2d
13
11
03
08
0d
03
2f
11
38
39
12
c7
fe
21
04
f9
12
1f
21
f2
f6
e4
17
e8
f8
e1
fb
fb
f4
22
e0
dc
ac
d4
00
f9
0d
1d
ca
17
08
f0
01
0f
ef
29
e3
1e
02
db
0c
20
1c
fe
c0
04
1d
9d
09
01
dd
0d
e3
14
ff
f7
0f
17
00
f5
04
18
fc
cf
f1
05
07
0a
f5
ea
17
13
1c
07
11
1f
13
06
ef
1a
23
03
02
05
1a
f0
f6
20
00
03
02
03
00
bc
13
25
fe
f8
d6
10
ef
29
08
e7
13
13
1a
0a
12
fd
e0
f8
ea
19
19
1f
ee
db
10
18
fc
e8
0b
e8
03
dd
ff
12
3a
02
35
fe
1f
ed
0f
26
f4
dd
ce
0d
1d
27
e5
01
08
22
08
07
11
02
05
ee
dd
19
11
d4
f4
f6
e9
ec
36
ec
f4
10
0b
28
19
36
00
36
03
e3
f1
10
1c
03
fe
06
04
0f
e7
0a
cb
e3
0b
1c
03
2d
0d
25
0a
c1
e7
ff
15
f8
e9
2a
dd
ea
14
df
20
fe
f2
2a
fc
4e
eb
f0
1b
e9
fe
1a
e6
d1
ec
fa
06
00
2c
e5
ee
ff
0b
f5
c6
f5
e3
d8
0c
e4
c7
f5
e3
f8
0d
e1
f8
40
e8
ca
36
c5
2a
1a
10
e1
07
fd
03
f2
10
36
fa
f2
03
f1
e9
0e
1c
e8
fe
32
e6
15
14
04
df
21
11
0c
09
03
05
eb
f9
f8
04
d4
11
e9
f9
04
ed
d5
fb
f2
e2
f4
e1
ed
db
de
16
14
e9
f3
28
2d
12
ef
de
27
e6
16
20
ef
13
06
12
ea
db
00
e1
28
3c
06
11
d8
eb
1e
01
f7
e0
fa
15
0e
15
ed
f8
ce
e7
e2
e5
0f
fc
20
ae
08
ee
fe
fd
e9
0d
f9
09
da
2b
0b
fd
d2
ce
dd
38
08
e1
05
07
fa
04
ea
e9
2c
ea
66
22
00
df
30
06
1b
db
f0
e4
f3
0c
fc
2f
11
fe
12
ed
ef
e1
d7
f9
f8
da
1b
d2
f9
09
2e
e5
00
e6
ed
c9
e6
f0
0e
17
01
f4
d0
15
11
1d
31
20
0d
fa
ee
2a
03
11
38
d9
fe
10
04
08
2a
e0
f8
ff
e4
f6
09
fc
eb
f8
fa
eb
12
db
f1
19
fe
31
d5
30
0f
e6
d7
12
bb
26
fb
00
f7
ec
e3
1e
ec
0b
fe
0f
10
03
06
37
1f
c6
1a
f2
de
f5
19
f8
27
f9
e3
14
f2
12
0f
00
06
02
e0
0c
fd
cb
04
0f
00
12
f4
0b
e1
08
03
29
0d
ed
fe
e2
27
0c
f1
c4
eb
e3
e9
e8
01
fc
23
28
00
fc
34
ec
0d
f8
14
ef
d4
0d
13
33
2c
da
de
07
44
fe
d6
25
04
07
05
ee
01
dd
02
dc
1a
34
eb
21
04
d4
50
e7
1a
25
f9
b3
22
ee
fb
e0
01
06
cc
08
ea
0f
db
fc
e5
e9
db
15
ca
04
db
16
13
df
e8
0f
c9
f9
f5
0d
0e
ee
fc
bc
12
f7
06
18
1f
0f
d2
e5
29
ff
02
fb
2d
00
fb
01
3b
08
2d
c4
03
fb
1c
0d
f6
36
d9
e8
dc
ec
e0
21
06
cb
eb
e6
e7
e6
09
2e
fa
e3
2a
0e
26
f5
01
17
39
e7
10
f0
fe
03
0e
e1
31
05
de
3c
28
0e
0f
1b
12
14
e5
dc
f7
05
f2
36
08
fd
f8
ef
09
09
f7
ff
02
fb
e7
2b
d6
ec
ff
bf
f6
ed
17
0e
18
f0
00
fd
fd
0b
34
0e
f6
0d
1f
03
26
eb
eb
1e
03
19
ca
f4
1d
e4
e5
32
0c
ec
03
20
02
e4
29
09
ee
03
04
06
11
05
00
10
d8
33
f7
fd
18
22
fb
de
ef
ea
30
17
e2
2b
bf
1f
ec
1c
f3
39
ef
21
3a
f0
13
be
fa
e2
f3
42
fa
3f
f5
ed
f2
fe
23
ec
d2
09
27
14
d6
fd
eb
14
f5
00
f8
0a
45
08
02
e7
1e
e7
14
1b
e1
f0
13
08
d8
f2
0d
2d
d9
f7
ef
ac
28
d5
30
f0
10
ff
f2
18
f9
28
23
dc
03
f2
e0
1d
30
d5
25
f8
25
1a
ff
05
f3
f0
e2
2d
18
07
fb
01
08
25
03
1a
e2
23
f7
ee
2a
d9
cf
04
cf
25
fa
09
1e
2b
fd
20
de
11
17
f8
f5
d2
20
d6
f2
00
0e
f7
31
2c
fc
0f
18
fc
27
0d
f4
bd
cb
f1
d9
fa
11
03
ee
fb
1c
13
0f
09
f2
13
24
20
29
ee
12
ee
f4
f1
d6
04
fb
22
cd
f6
e8
01
34
50
ea
0f
19
f2
10
1e
04
c4
11
0d
bc
c0
1c
0b
24
24
38
0b
25
d5
0f
05
04
1a
f3
22
f2
fe
0f
f9
0e
f3
fc
e4
03
0e
e8
05
e1
12
cc
c7
f0
0f
18
dd
2d
04
eb
f8
de
dd
0a
c4
cb
0c
f4
1f
f5
16
e5
e6
01
34
07
d9
01
0d
0a
fb
d4
cc
37
f6
ff
0b
f7
f3
f3
d6
05
09
f8
14
f0
ee
08
04
e2
33
06
fc
13
32
e9
0e
1e
e9
de
07
01
dd
30
f2
0a
f6
d5
01
29
13
e4
ed
16
f6
f2
e9
10
0f
fa
df
d0
ee
d0
05
27
f2
b6
06
25
25
1b
00
20
03
18
06
fd
f0
d9
d9
04
2a
c8
d9
1d
e1
03
ed
e5
03
fd
0b
f3
04
f9
e2
1c
dc
da
1c
f2
0e
2f
f6
18
3b
d0
ea
2d
df
16
f5
f8
d6
0a
0b
15
37
14
e4
15
ed
d9
f0
1c
ca
37
0a
fd
f7
fd
0d
0d
4d
12
f9
da
21
f7
08
cd
18
ff
02
18
0a
f1
f7
e5
2d
37
26
f0
0a
2a
f5
12
03
cb
ef
e0
24
f8
e1
e7
f7
fb
cc
16
f3
e1
0f
24
ec
f6
dc
03
ca
fe
f9
e2
f8
0a
26
1d
37
05
f2
d9
0f
0a
dd
02
da
14
ec
f0
f1
0f
e8
eb
09
d0
2a
c3
f7
1b
15
13
08
f9
fc
1a
fd
fb
ea
b7
ff
1e
13
ec
2b
23
e3
08
0c
ef
19
1c
fa
dd
11
de
1f
0a
09
d4
2a
16
ec
14
f5
cd
36
d6
13
0e
25
10
fc
11
e3
13
11
f4
01
35
0b
df
bf
21
32
41
14
05
e1
b7
28
0d
f1
05
10
fb
35
0b
0b
00
10
e1
0c
df
f5
e2
2e
31
07
d6
fe
e3
02
fc
39
fa
12
15
f2
dc
15
f2
34
09
0f
01
e8
fb
27
ff
27
ef
11
e0
0f
f2
e9
d4
f7
e0
f6
e7
d2
d0
37
f9
0e
db
fc
da
f0
cf
1c
17
d5
03
c6
e7
15
f9
e6
21
fc
15
f4
12
c3
ea
e3
2d
1a
f1
14
1d
f2
19
f2
b5
f1
f7
e5
f8
1b
d9
04
ff
30
ef
0b
38
f1
e0
ed
c9
ff
0b
01
cf
07
e0
ec
21
12
f2
dd
03
f9
fa
04
d8
f2
e8
cf
e6
f8
0b
fd
21
ef
eb
e7
d1
f8
01
fc
39
ed
e7
2c
e3
12
03
35
f9
30
11
21
ec
fb
ec
fa
03
0a
0b
01
df
12
f0
e3
e4
06
06
e8
d2
03
f9
1c
ed
f4
e3
1c
2e
01
00
fb
f3
f1
14
f4
fa
32
15
12
08
00
23
2e
1b
41
1d
f0
e5
f0
d3
f3
52
39
15
02
27
f4
db
0a
33
00
f8
0b
fb
cb
ee
cf
d4
41
15
1e
03
f1
f3
05
f8
01
dd
f7
fa
0f
d8
23
10
de
f0
28
30
0d
01
0e
0e
0c
0a
c5
1c
c9
28
fa
16
d0
19
de
28
1d
d8
e6
f8
36
ca
f8
1e
0f
e8
1f
f0
df
eb
f9
ed
e1
f3
04
06
f6
e3
e3
f8
dc
e6
05
da
fa
29
43
ee
0d
04
09
d0
0f
24
28
f9
9e
0a
f3
17
eb
03
51
c7
16
0c
01
2e
e8
ff
e4
df
ef
f5
06
df
f0
3c
e7
ed
0d
1d
09
17
f8
1e
e7
09
00
01
f6
fc
13
f8
25
1a
1d
00
13
f0
0c
c9
3c
31
f4
0b
3a
ce
09
00
f5
f6
21
09
e2
fc
ea
07
fe
e3
3c
15
d8
db
fb
0b
cd
de
1d
1e
03
d0
02
10
19
ee
06
f2
0f
26
11
02
f6
01
ff
eb
07
f1
e9
de
e7
fe
e4
ce
ec
09
d8
f1
00
f5
ff
17
fe
f2
e3
f9
18
23
18
ea
ef
16
f4
fd
ed
e8
d8
1f
f9
1c
1b
fb
f9
fc
14
0a
ed
f5
05
09
ec
f7
ef
47
f2
e2
14
0d
1a
f4
cd
f0
2b
d4
1d
fc
1c
cd
0c
13
1b
e4
0a
08
21
20
ee
06
d0
08
cb
ef
b7
2f
1c
13
0a
08
0b
f3
fc
e4
fa
ed
25
f7
22
07
21
e2
f0
28
fe
da
e0
ea
14
cf
e9
13
f6
27
dc
05
20
2c
19
15
d7
17
ff
0c
ea
de
1e
eb
0e
f3
f3
fa
04
0c
07
11
e7
ee
0b
ee
17
05
d1
0f
10
ce
ee
fb
da
fe
e5
fe
fd
f8
04
06
f2
1e
f7
fa
d3
1e
29
24
19
c9
21
18
e6
e8
cb
f9
0a
f0
12
17
22
f4
f0
f1
1f
11
0f
f4
23
17
03
0e
2b
08
14
19
2e
0f
01
e5
0c
dc
e5
0a
de
f0
2e
00
e2
fb
2f
19
e4
12
ed
ec
e9
0a
21
09
e4
0d
25
f3
e5
20
ec
da
d0
03
36
d2
0d
e9
06
20
14
e8
11
0c
0f
1e
0d
1b
21
06
02
00
05
2d
d7
e1
04
0b
cc
12
cd
ee
0a
ed
0e
cf
d3
fd
f8
dc
42
0c
21
13
dd
ff
07
fa
ca
0f
03
1a
ca
bb
1e
22
e8
f8
20
11
ff
1f
12
c4
26
00
fc
dd
1b
2f
19
22
cf
24
15
18
19
da
ef
15
00
f5
16
16
d7
fb
d6
1d
1a
eb
ce
f8
11
e1
e5
10
12
27
14
f9
07
df
12
1f
00
f7
17
e0
1b
eb
04
12
ee
2b
ef
20
0a
e5
f6
05
1c
01
c4
c2
f3
f4
0d
ff
00
f4
f0
ec
10
30
06
2d
3b
e0
03
10
18
08
05
f7
d4
24
06
f9
fd
f2
f6
e7
fa
f6
27
06
22
03
1f
dc
f8
fc
ef
cb
f5
d1
ea
27
20
0c
f6
0f
f3
ff
d0
13
fa
c7
0f
e7
cb
08
f9
df
29
16
fc
00
f9
f3
1e
30
02
12
d8
e3
12
04
f9
09
dd
22
06
0b
db
f1
e6
d4
f2
12
05
0d
06
12
fc
e9
1c
eb
39
e4
eb
10
26
e3
1c
14
f5
d3
31
07
3e
08
16
e0
f8
0c
03
08
33
fe
31
10
e9
2c
ec
ec
ca
26
f4
da
f0
31
03
06
de
d9
05
fe
19
08
30
11
dc
30
f9
0e
eb
f8
1c
f7
0b
4f
0b
29
08
fd
fe
00
d6
16
12
fe
00
4b
14
e5
f8
f3
0c
02
1e
f4
f5
04
10
08
f0
1a
0d
0e
e1
d6
e3
12
ef
f5
e8
12
1d
06
f9
2f
0b
06
17
3c
f2
14
13
c7
0c
de
f3
e1
f6
03
23
05
f1
14
20
f0
d3
ee
eb
dc
eb
ec
1c
04
fc
ed
11
f1
22
12
18
ea
ff
f9
f2
f5
23
38
e5
0d
18
ff
f1
e5
10
11
fc
16
f3
fd
ed
fe
14
01
ba
f9
d5
db
00
03
0f
1d
cf
e3
4e
25
0b
f3
04
de
e3
fa
03
b4
16
04
05
13
eb
d8
0d
e3
08
14
28
14
f4
f8
ff
e0
e1
fe
d7
ff
29
f7
15
30
f8
12
1a
1b
e4
1c
06
11
bd
ed
f6
0b
21
07
13
06
13
ef
f5
f2
23
fe
f9
f4
d4
05
08
03
ed
2e
11
ff
fa
b2
1a
31
a6
23
cc
d8
02
e4
f7
15
e0
0c
fb
2f
2c
22
fb
1b
f1
fe
db
1f
03
d2
2b
07
02
4d
25
01
19
14
18
0b
18
d5
d6
e8
d2
2a
fd
b6
0f
db
f7
ee
e9
13
ec
13
02
fa
fe
f8
33
04
ee
f2
25
f3
fd
fc
09
13
01
19
fe
3a
fe
08
f7
e7
d8
05
f2
e9
02
15
fc
ed
06
04
ec
ff
fe
00
21
1d
f0
e8
36
2e
09
e6
33
be
ea
d5
f4
04
ef
dc
df
12
0d
f8
01
ea
07
1e
d5
f2
fd
b8
e0
16
1b
1a
03
d9
26
29
05
41
f7
27
31
00
eb
1a
ef
23
19
32
1c
0d
e4
ee
05
02
29
c1
13
dc
f5
e7
11
f2
08
13
1c
ed
12
d4
df
d4
08
ea
ea
f1
0a
03
ff
ef
04
02
0e
e0
11
d8
f6
bf
f3
e6
e7
23
f6
f5
d6
08
fd
f6
29
1c
11
f5
ee
df
dc
f9
17
00
e5
f9
03
1f
0a
20
ff
d8
ef
e5
e0
1d
ff
fc
dd
30
0e
eb
f9
e5
f9
ed
f9
06
d8
02
fa
05
fb
fb
c8
f8
e8
14
c0
f1
0b
17
ff
26
c1
09
0f
02
11
eb
e8
d9
f1
f2
f4
02
d5
e2
fd
e1
ff
e4
f1
19
19
0f
fc
16
00
e6
06
00
29
2e
2b
e3
07
fd
f3
13
0a
2d
10
1d
11
09
1c
e8
11
03
30
1d
32
e8
e7
04
09
fc
eb
fc
fb
fa
13
15
f6
fe
f3
0d
15
ef
08
e7
f7
36
f6
29
f7
f1
24
10
0f
f8
ee
e7
00
08
f2
d9
09
16
dd
20
20
ea
0a
f8
0e
08
e0
0a
21
e4
26
b6
d5
e4
ea
19
1a
e7
0d
ea
fd
0a
f9
11
29
de
06
ee
dc
1d
f6
0b
05
fb
f1
15
2e
2d
10
2b
39
02
0c
f8
cd
03
f9
07
f7
28
f0
19
f6
27
fe
de
ee
e2
d0
e7
e2
da
0f
f7
04
e3
fc
f5
15
02
e8
fa
06
05
da
d8
ba
31
fa
d6
f9
1b
f2
33
d1
c9
df
ee
f6
ea
13
00
ca
f2
f7
0e
d8
f6
e4
d9
d0
13
01
26
f0
0e
fc
19
23
06
fc
0d
33
16
02
03
f6
f2
e3
ed
f7
06
0f
e9
f4
0a
ee
f1
f2
ff
ff
0b
da
11
01
fb
f9
04
2c
fc
d9
fb
f4
f4
ee
ea
da
f3
24
ed
e3
0d
25
d3
f1
fe
06
15
23
30
cd
e1
f5
d8
22
16
09
e2
43
06
c6
fc
11
12
05
ec
ed
d8
f9
21
f0
24
0e
35
22
e2
ed
09
28
e8
ff
f7
d2
0e
fa
fc
fc
04
cc
38
30
f4
24
19
05
20
d6
fc
d6
dc
d5
01
dc
01
ec
f4
1f
ec
fa
fe
0a
ed
1f
fd
de
15
45
e2
b5
f9
23
f1
0b
15
02
dc
d4
15
f3
f1
f6
05
0d
0f
f7
05
f3
09
2a
2c
05
fc
e2
fa
fa
00
1d
d4
26
2d
ea
ef
01
18
14
28
e6
fe
e3
24
f1
cb
fd
db
0c
36
08
27
12
15
02
d4
f4
f7
08
e3
ef
0e
fb
f6
e6
ef
06
f5
00
ef
ec
d8
21
31
fe
06
1e
08
12
25
39
31
1e
e7
23
ff
fb
08
30
d1
f9
02
ec
cc
f2
31
02
fa
23
eb
0a
03
ff
f7
23
e5
46
f8
12
de
16
05
15
1a
0a
3d
d9
0f
0e
c8
f5
10
0e
de
0e
16
e9
f1
ea
eb
f7
00
0f
23
1a
26
18
e7
e3
f5
0c
e5
fe
16
fc
13
fe
15
01
37
eb
12
01
15
ef
01
2a
03
f5
0a
fa
12
f6
e8
0f
0e
fa
ee
bb
a8
3c
f7
18
f6
dd
d6
07
21
c6
e8
fb
0e
df
f1
d7
d9
ed
13
e5
fe
fc
fd
e7
e0
f2
1c
0e
14
ea
19
d9
1c
1c
da
ea
08
10
1d
00
e4
de
f0
1f
08
e6
d3
ef
30
43
09
0f
06
09
12
2a
fc
eb
20
e9
06
11
f7
0a
dc
fa
0f
f2
27
f9
07
36
f4
dd
f6
21
1a
fb
f6
2d
27
1b
0d
df
04
07
fa
06
1d
bf
04
ef
11
c7
fe
09
d8
f6
de
c4
0f
fe
2e
19
24
50
1d
f6
34
0b
18
2c
cf
fe
30
06
39
0c
0e
f3
d6
d8
14
f0
ea
e9
e5
fc
00
cc
f6
e7
2a
09
12
b5
fc
f6
ea
1d
e4
13
fe
cc
0f
2a
05
f9
e9
06
02
14
f6
c8
f7
e1
09
e1
d5
11
10
b7
1d
18
cc
18
d9
04
ee
e2
eb
f6
3b
0e
f4
35
34
b2
da
e7
f3
cc
24
cd
10
cf
d6
7d
04
32
1c
10
ee
d9
23
10
e8
d7
1b
ee
ee
e7
3b
13
06
11
df
00
06
00
fd
41
dc
f5
df
18
f9
fe
1a
fc
f8
06
5d
f1
d7
13
00
1f
fb
fb
1d
0c
f1
be
fd
e4
f9
11
f5
0a
f6
14
f7
01
f2
26
17
1e
d2
08
0f
fa
0d
d8
03
2e
eb
dd
d5
e5
0a
1b
1a
28
e3
eb
04
fe
45
1b
ef
f9
fa
d2
f0
e9
04
f4
e6
2a
05
14
fb
12
00
ff
13
cd
e2
f1
fc
1b
fa
fe
07
e2
d5
fc
09
2c
fe
01
18
02
f4
d1
f1
ed
26
35
09
07
1b
07
f7
00
e6
0c
31
21
1f
1c
3f
0a
06
f4
f4
0c
e9
2d
fe
09
12
fa
ef
00
e6
0d
05
f4
1c
f6
28
be
ff
e0
25
24
19
0f
0e
dd
10
15
20
01
0b
eb
b1
db
0c
ff
4a
1a
f0
ec
43
cb
16
f0
2a
1c
14
e7
3e
2e
21
e8
06
13
fc
16
ec
19
db
d6
f9
fa
10
06
d4
f7
fb
d8
c8
ff
f2
0d
04
17
14
f0
d2
2b
fd
05
f6
0f
fe
f3
ee
f6
f6
3c
fd
f5
eb
08
16
01
11
bb
e9
ea
07
da
e6
eb
02
0b
1d
ee
f2
10
aa
09
11
f9
ee
10
27
c0
1b
cc
cb
ff
fb
16
f7
0a
fe
fa
24
ee
fa
22
f5
c2
31
fa
1c
ee
c1
d3
eb
dc
df
0c
d1
de
15
e1
da
0d
1a
fa
0e
07
30
10
fb
f0
00
e9
05
02
f1
18
23
fe
ec
1e
18
4d
25
0c
fe
1a
3b
fe
04
03
16
06
21
ec
ea
11
dd
de
f9
10
08
11
e6
17
24
cd
20
00
df
d9
0f
1a
fd
e9
0d
fe
ef
c9
fc
df
13
e1
01
d9
f0
f7
e5
36
03
3a
c8
ee
39
1c
ec
04
26
14
db
e1
c2
fb
16
ef
c8
0f
e5
10
f9
18
0a
e7
10
00
12
f0
26
e2
28
01
04
f4
32
20
ff
f7
2a
fb
16
e6
28
18
16
2a
06
1c
01
fa
10
1e
f6
24
06
08
fc
0d
ea
f2
f6
12
37
1a
f4
f1
0d
d6
f3
e4
13
02
e2
19
1d
f3
02
fa
fb
28
27
0c
02
cf
e2
ee
e6
0e
cf
ec
fa
00
0f
f2
ba
03
20
06
0c
13
18
f4
02
3e
0e
01
16
f5
16
e0
d6
44
05
f3
e2
fb
5a
20
21
f6
15
c4
c7
ca
0e
03
17
0e
e9
f5
dd
00
fd
1d
0a
1a
ec
ba
12
d8
11
ff
06
0f
44
15
a8
e9
03
d5
d5
f3
f9
0f
f1
14
ec
05
1e
00
14
0c
f8
2a
e8
18
11
09
e3
17
f8
2b
1b
0c
0a
e9
06
c6
ef
c9
0b
fc
07
35
fc
23
f8
bc
0d
d9
f7
fe
fb
c6
f8
21
e3
0d
d4
f9
f7
ee
26
e5
03
e7
24
f3
15
e0
cc
c1
f3
d8
e4
fe
db
0b
e9
07
0e
f1
14
02
18
fd
ee
ed
43
dd
f6
f3
ef
e2
f0
e4
23
ee
14
e6
2f
36
f6
17
04
08
45
f1
f2
0e
ff
f5
db
0e
19
3d
2b
08
28
10
ea
e4
12
25
26
1b
d9
0f
fd
1b
f4
fc
f7
15
dc
cf
ef
2a
0e
cc
f5
ec
20
28
e1
08
e9
06
eb
f6
3f
2c
35
c1
d2
18
f9
ef
12
ea
2d
e6
03
fb
0a
10
0d
c8
df
f7
10
2c
0e
ec
19
1e
f3
12
07
e0
ec
35
04
ef
1c
ff
fe
05
05
20
f3
fd
1a
22
df
d7
17
de
21
05
0a
fb
fb
2a
f8
1a
0a
e8
d7
01
ff
11
23
11
06
fd
d5
de
ff
13
14
ef
02
10
d7
ea
1d
10
d5
ef
27
f5
fc
28
d7
10
3c
11
00
e3
f2
12
39
ae
dc
ec
0d
09
1f
12
fb
e0
e8
e7
07
fe
13
ca
e2
07
02
e1
f6
ea
15
02
fb
f3
f0
2c
0d
f8
1a
f8
ec
ec
f7
00
04
18
ed
08
f4
0b
e8
03
19
13
2b
18
d6
ed
e6
00
17
64
f0
00
0f
0e
12
1f
25
c8
04
e3
0f
02
00
cb
e3
f8
1a
05
0d
12
f3
27
01
f4
2b
fd
fc
13
06
12
09
f3
f2
e4
e5
d9
1d
10
fa
f1
d7
ef
3f
1a
04
34
cf
3b
1a
09
f0
32
b8
0d
f6
f3
1e
dd
0d
1e
e5
1b
f7
e8
30
0c
18
31
ec
ef
e5
e3
ff
17
04
d4
f4
19
fe
b4
ee
f7
02
f1
0e
f3
f2
ff
0e
bf
0e
ed
06
eb
39
e6
d9
31
c1
ed
fb
25
29
2f
37
05
0a
09
fb
1c
0a
cf
d3
22
dc
fd
09
fd
15
f8
14
10
ef
16
ff
17
14
00
f1
30
20
19
c1
2f
05
fa
ed
10
10
04
34
0b
1c
12
f2
fa
4b
dd
f7
f5
d6
d8
e0
f0
f4
f8
10
f6
12
07
f8
fa
0e
e8
01
fd
f5
e4
12
ef
0d
23
d9
10
f4
fe
10
f9
25
06
e0
0a
14
0a
25
1e
0d
f4
11
1c
f3
29
2c
e7
06
05
17
e2
0f
fd
0d
da
fb
f9
ff
e8
f5
e4
fe
f8
30
05
fd
ec
f5
17
eb
00
08
e2
1c
fd
f8
03
ef
01
14
11
f6
1a
1b
fb
14
03
02
21
14
11
c0
e6
13
fe
27
1b
07
04
03
ec
1e
03
ee
08
29
14
00
3f
21
e6
0a
02
f3
f5
46
f3
d7
e2
0a
0f
0f
10
0d
e8
d2
25
0c
86
af
13
04
f9
27
13
f0
23
e0
eb
e5
11
fd
10
e8
dd
01
1d
0f
13
c4
29
ee
e9
10
13
f6
07
fe
2e
0d
1f
30
0b
0c
f2
04
d6
e9
13
19
fe
e7
c4
19
fe
f9
f6
fd
08
ef
09
ee
fd
0b
fb
33
e3
17
f6
f6
ef
d8
15
d9
2f
ea
f2
28
f8
d1
11
c7
0a
13
1a
1d
dc
f8
0e
0b
ff
e0
14
08
f2
26
07
f6
07
f5
f8
cc
16
eb
0d
18
1c
3e
dc
07
f8
f0
10
15
e0
e0
14
23
2c
ff
0e
e5
0d
f7
d1
1e
ef
09
07
29
ea
ee
ee
05
14
ce
0a
0a
04
07
21
06
0a
ff
fb
03
18
f3
e6
fe
ee
28
ea
0b
f4
bd
42
fb
16
f9
e1
f4
f8
fd
e9
f8
11
03
0d
21
03
db
eb
e6
02
25
e7
02
f3
ed
0d
dd
0d
30
e9
f7
22
f2
49
0b
e2
fe
fc
f6
27
eb
f0
f1
f9
f2
23
e3
fa
0b
1a
1b
e4
0b
13
03
e0
e1
09
0c
d7
0a
0b
11
f6
04
e9
e8
ef
d0
d6
1a
fc
1e
de
ce
0c
01
c3
d3
30
d0
13
02
f6
02
05
05
d5
21
2e
ed
e5
22
f5
e0
da
d3
0c
fb
26
eb
21
01
ed
fc
17
02
02
d6
25
f3
f1
c1
20
f3
e8
06
e7
0f
d9
06
06
11
2c
f5
e6
ea
02
dc
25
13
13
20
45
06
0d
fe
e0
08
d7
28
16
fe
fe
16
f9
e9
0d
05
e5
f2
e2
d5
11
5f
0d
15
12
f8
f0
06
c2
fe
de
f5
f7
0d
f3
f7
09
02
0b
00
e9
f3
09
0d
28
11
f4
02
d2
19
04
12
0b
d4
f6
3a
1d
f3
18
0a
2d
bd
27
09
17
eb
03
e8
ef
f3
ee
de
06
f2
36
53
e0
0f
ff
0f
f2
36
03
0c
c4
e4
ea
f3
e0
0f
01
e4
f3
ec
00
d8
fe
e7
f0
d5
17
de
e3
f2
0c
06
e8
31
03
11
43
fc
20
0b
fe
1b
e5
05
fc
31
d6
e4
e5
ff
ce
f3
23
1c
1e
0f
fd
11
01
e3
fd
0b
f8
02
14
1a
df
00
01
f1
0c
17
df
0d
f1
14
1c
e9
fe
14
fe
1a
0f
2f
ec
05
ff
cf
16
d8
1a
fb
02
fb
e1
19
0c
ee
fc
f3
22
0e
ee
0e
10
e9
01
20
10
f0
fc
08
0b
ef
f3
19
23
25
05
b2
2d
b6
eb
ce
ee
22
07
f2
01
44
07
f6
f2
06
08
e7
fa
09
ff
ef
f0
fb
0b
ea
fb
04
02
03
fe
fe
1e
f9
d2
07
fd
18
f1
f7
24
2e
17
bc
ed
f0
f8
0e
21
2c
2b
21
da
28
f0
f4
d9
1a
2b
1c
08
e8
03
2e
16
0a
ed
f3
df
d8
2d
0c
07
f7
02
ff
f0
22
05
03
fa
d6
ed
1a
d3
ee
ce
25
d5
fb
0d
c7
18
0d
cf
35
dc
d9
de
fd
1e
05
05
cb
df
0e
06
11
d6
cc
09
f6
d5
08
20
e7
e9
03
1a
09
0f
0e
f8
1b
11
f0
d0
38
03
f6
11
1d
07
12
03
f0
14
18
f2
fc
0a
fd
06
17
fd
e6
1c
f4
0b
f1
fb
05
25
fd
0c
13
02
c8
13
0d
d3
e7
f5
d9
1f
f0
28
22
06
15
0c
df
1f
18
1f
e2
01
05
ea
0c
f1
1c
22
47
1f
0e
07
1b
09
10
fa
f1
12
12
ef
ba
b8
18
da
e7
0d
f1
1f
0e
d1
43
ef
fc
f8
f2
10
0e
e8
17
0f
f1
f0
0b
0c
19
da
11
00
01
0c
ef
1b
e8
e4
f0
f5
fb
02
07
05
08
01
eb
01
f2
fe
f8
fe
02
f4
07
de
e7
fc
e8
e3
fe
01
e3
db
d4
23
15
0e
e6
15
06
02
00
06
07
e4
d2
f8
12
26
e4
13
25
0c
1e
15
e3
15
08
f1
2a
f2
07
02
05
dc
f9
f7
01
f8
0c
0f
ea
eb
01
f3
1d
0e
02
06
da
16
f8
0f
f8
0a
2a
02
37
fe
e4
f4
f8
e6
10
1c
32
d0
2b
ee
fa
f0
e3
47
06
d2
1d
08
e0
ee
07
15
d2
44
d3
0c
05
28
e2
ee
ec
0f
e0
1b
c3
0b
31
15
03
07
c1
00
12
f0
08
1f
eb
0a
fe
fa
fc
35
25
ff
f9
fe
01
22
eb
00
00
d8
ff
ee
11
06
e1
1d
2e
fc
d2
2a
18
e6
f6
26
fb
d4
e5
04
fd
0c
fc
27
e9
e7
fa
09
f5
2f
f7
f8
ec
1d
ff
ed
e0
12
0d
e3
34
0f
e1
d5
0a
24
ee
fd
df
ef
f7
10
ee
10
00
30
09
e5
32
d9
e0
07
e8
fe
d2
f9
f6
f1
d7
01
1c
e3
15
c8
0f
e0
01
10
d0
21
f5
dd
ec
0c
0d
f2
12
23
f4
33
db
fc
04
1a
c0
1b
0c
0b
f5
06
2f
f2
0a
1d
fb
0f
eb
e6
29
e6
0a
1a
00
f1
04
f4
03
ef
fc
c9
1d
06
eb
f9
13
cd
11
ef
db
13
0d
ea
20
cc
2a
03
e2
07
dd
f4
18
f1
ec
22
14
d9
f1
0b
d7
d9
3e
15
00
0e
e1
fe
27
2a
f9
fd
d3
ea
e0
24
1c
16
f5
e5
df
e9
0b
1d
f4
11
0f
f8
de
0f
16
e7
15
e7
f1
2a
17
d6
e6
de
14
f3
b7
1f
d7
33
c1
05
e5
e5
fe
e1
c3
e8
f6
c2
3c
07
12
0b
02
1a
d2
e3
fb
d2
f8
15
fa
fe
dd
04
dd
ef
14
18
f0
2c
ce
db
2b
33
f3
13
09
37
04
e7
eb
9c
09
15
dc
2a
d7
dd
02
f5
24
00
29
1f
23
05
fe
fe
de
f8
ff
26
ce
27
13
08
db
f7
0a
0f
18
02
f0
46
ba
fb
18
07
28
14
0c
0f
d9
fd
fb
27
36
f6
f0
0a
da
f7
e9
db
10
17
04
bd
08
37
07
ec
e6
fe
e1
11
fa
0b
1a
02
1f
fe
2c
00
e6
19
ec
1c
e3
fb
02
e2
14
e9
bf
3b
d1
0b
07
ef
d4
0d
20
eb
f4
17
f7
24
f4
f5
1f
e4
f3
23
07
d7
e0
62
10
1f
3e
e1
fb
05
e0
fa
e1
e8
07
0e
d9
e7
0c
f8
fd
21
ea
ea
f3
32
cd
17
f5
0a
eb
e5
e9
09
d6
1e
db
13
05
49
fb
f1
ed
18
f2
e7
d4
f6
fc
07
1c
0a
10
e5
33
ef
fd
ea
ff
fa
f5
31
0a
05
34
db
1e
0e
20
49
20
07
17
e8
ff
ec
df
20
da
27
e8
f2
1c
d5
07
05
0a
eb
e5
e5
03
40
d9
ed
f6
e9
0f
e8
15
f6
f6
08
02
0e
0c
14
30
e5
1b
cd
c6
ef
ea
f6
f6
cb
04
e9
0b
e4
1e
03
d3
f6
ba
02
f2
f5
30
f4
f3
f7
f3
0a
f6
ff
fc
01
00
07
f7
04
bb
ea
26
e5
d0
e7
f7
0f
09
0b
e0
03
eb
ec
e3
f0
14
24
f6
52
f0
fa
f9
eb
05
e5
dc
fd
c6
0a
2d
e9
cf
2f
03
e3
e1
08
fd
17
f6
e9
0b
c5
0e
cd
03
fc
22
f7
13
05
ff
f5
2f
10
12
16
fc
fc
30
ba
29
e1
ea
e9
3a
db
24
fc
0e
e2
f0
f2
d2
f7
31
02
fe
1c
f9
0f
06
09
ff
ed
c0
e2
2e
fc
fc
00
32
3c
03
ec
d6
2a
19
00
07
dd
f9
1b
00
e1
2c
06
27
13
19
04
f2
1a
c4
f2
d5
f7
21
de
c5
fc
0f
df
22
e2
f7
de
f7
e2
d2
17
0d
3f
16
ee
f5
00
ed
50
e1
1e
d5
2e
c6
1e
2b
fe
11
f3
12
04
e3
09
12
f8
ef
f7
df
1d
11
f0
e7
03
f9
fe
1f
3e
e3
f6
08
d0
cc
d0
17
e2
06
fc
26
fd
ee
f7
08
e3
1d
0a
15
21
19
06
4e
09
07
01
09
e6
20
fa
0e
39
05
d5
06
1c
30
1e
df
23
02
0c
ef
02
0e
f0
2e
f5
9c
ea
10
02
da
da
1c
b6
04
20
23
dd
e5
c9
f2
e9
f2
fa
27
fe
fe
08
bb
e9
d6
f9
24
fc
f8
d7
07
07
ff
07
ea
e3
13
e4
ec
d0
2f
f3
d9
f4
e7
18
25
ec
f1
1f
0e
ee
04
03
f6
15
06
ee
fb
0d
00
db
11
06
1f
1e
07
f7
d7
d3
d8
fd
e3
18
eb
19
21
40
10
06
16
13
de
d5
0b
ea
00
e4
fe
10
08
de
01
d8
fb
17
12
0b
fb
d8
15
22
1e
1e
0c
fa
2b
33
f7
48
fc
e7
05
d4
de
39
f7
05
26
16
ff
17
1b
d8
2a
dd
04
af
ff
f6
0b
fb
bf
f1
21
0b
05
e0
2a
25
33
ea
0c
fb
f0
20
0a
fc
25
44
db
be
1f
df
ed
1e
0a
cf
09
16
e9
d9
e4
ff
2e
ed
fa
1b
ed
ee
0b
32
1c
ed
ea
18
fd
e4
4f
ed
0e
13
de
f8
dd
03
21
11
25
0e
d8
e0
f0
16
0f
fa
ed
f3
c4
f8
1b
0c
05
05
02
fc
15
e9
eb
07
ef
18
fc
e3
f6
f9
e3
0c
fb
1c
10
21
f9
00
12
1b
01
f9
11
11
20
fc
d4
eb
04
f2
da
fe
f6
04
08
1b
05
cd
e2
e9
f1
0a
03
2e
db
0c
08
cb
f7
ed
01
f4
0b
e3
39
0d
ee
fd
08
08
d7
0d
d2
ff
f3
c0
ec
d5
ec
e9
ec
e6
0b
2e
40
29
e7
12
ef
15
13
ff
ed
dd
f1
0b
08
f1
09
0f
f1
2b
25
ff
10
1d
d3
19
13
1b
12
02
10
07
fa
c9
eb
f3
da
d0
d0
18
f3
01
f9
1b
f7
1c
f8
17
d8
e8
ea
2c
18
f4
bb
e6
f3
11
ff
00
c5
1c
f2
1f
07
f8
1b
f2
1e
12
16
e3
eb
ea
f7
1e
cb
17
ea
0a
fe
d3
19
2b
ec
df
08
ee
06
0c
df
f0
f8
f7
f4
15
0a
1c
0f
20
cb
d3
04
f7
59
00
16
eb
06
e5
f9
0f
fb
1f
0d
fc
f5
1f
e9
35
e6
d7
e5
ff
ed
e4
14
eb
2a
2d
fc
f4
f2
ff
f8
ec
e6
10
e9
f1
15
00
ee
ec
25
17
1b
14
2d
09
08
3c
04
eb
0b
21
1e
e2
cd
ee
16
13
06
fd
fb
f1
e1
18
ee
0b
05
11
2b
dc
ec
3a
0c
d0
09
01
2b
0d
05
f6
e8
dd
13
f8
0b
ff
07
ec
04
f9
f4
18
d8
f1
ff
d8
b0
18
fe
f0
dc
ed
e9
10
03
f1
08
ca
1b
29
e9
08
31
12
01
ef
ef
f8
e8
f5
e9
1b
fe
40
0c
17
b6
0c
02
01
45
3f
04
ea
33
08
ee
fa
ff
17
2d
21
05
12
f9
2a
dd
2d
39
11
e6
35
f5
03
db
e2
2b
0c
fc
29
00
f3
ff
4d
d8
e2
1b
19
0a
fe
e1
12
08
e4
20
f0
fd
d5
f2
22
06
d9
e8
f5
26
09
37
e7
34
b7
e8
2d
1d
07
e6
1e
e7
00
00
1b
40
f6
ec
00
ef
01
08
dd
11
df
e7
0b
f0
d6
f5
10
fb
cf
fb
ce
fb
13
1a
06
13
f0
30
f9
1d
f9
fa
d0
b6
14
ed
c3
39
d3
06
11
d0
c4
f3
da
0d
e4
e0
17
07
2e
13
27
c7
0c
26
cc
ff
e1
fd
05
c8
1d
00
06
ff
f9
08
d9
05
c9
f8
08
14
ea
e0
19
ff
09
f2
35
f9
02
db
fc
d8
f4
09
0d
c8
e3
0e
ea
16
fc
01
0d
35
0f
22
dd
d7
13
f8
cc
de
00
15
23
fb
ef
1c
25
dd
32
df
3f
28
de
01
00
ff
e7
0c
1c
19
02
fa
de
07
f5
e0
27
f7
fd
11
e1
b5
ed
fe
f4
ff
f3
11
1d
d8
0b
11
d7
0f
f4
f0
e2
02
f7
2e
0b
f2
e8
f5
f1
10
21
cd
cb
04
fe
ef
d5
05
19
d0
2d
e4
e6
0a
07
d5
06
11
ed
ff
f8
c8
0c
ef
f9
0a
e4
ef
23
d8
fa
0e
06
f7
02
29
f7
e8
25
cc
13
e7
eb
d9
1d
d5
0e
0c
c7
e9
ec
23
ee
ff
db
0a
fa
de
13
0a
08
d4
07
ea
03
fa
09
d4
f2
04
08
0d
fd
ee
f0
02
e5
0b
d3
ea
e4
f1
e8
f0
f1
f1
f8
f1
27
f9
04
db
1d
e2
eb
e7
05
08
08
df
00
ed
e0
08
d8
e8
0a
09
1a
02
ba
06
df
e3
0e
d3
38
1a
d9
d5
22
d3
fe
c0
27
d8
df
22
18
f8
30
ff
cd
18
e2
16
f5
06
39
f5
14
27
f9
1e
39
00
f5
13
e6
fa
30
32
cd
f7
06
21
f6
02
fc
cf
05
47
1d
f9
e9
13
fd
bc
f5
12
f0
f5
fc
b9
2c
e5
31
0d
ee
04
fb
0a
ea
f5
f3
0b
fd
ef
f6
0e
1c
0c
e5
14
26
fc
10
f9
dd
ff
f7
fa
12
13
03
de
fd
28
00
f3
1c
fc
0f
f0
0a
fb
ff
f8
00
ef
34
0c
e2
19
03
f5
29
d9
e8
fb
28
f2
20
27
d8
05
07
ff
0b
fe
2c
13
fb
20
05
0b
15
eb
03
fb
d7
f2
1d
e0
47
f8
2b
df
18
18
fb
e8
f2
e9
3c
e4
04
0d
fa
07
0b
06
fd
2a
fb
32
07
f7
23
e8
55
f6
e7
ed
0e
fb
fc
eb
db
0b
c3
f1
f9
18
0c
e3
dd
ff
f9
cb
f7
f8
1f
eb
fd
02
20
04
f9
b3
0e
ee
f2
fa
10
09
08
0a
f9
dc
23
f5
1a
e5
09
ef
04
fa
f8
fe
11
14
f4
28
f9
fe
f7
e9
34
35
22
ee
f8
13
fd
03
f6
f3
0f
ee
0e
14
10
06
26
28
12
11
02
18
fd
e9
13
f6
07
fc
f5
05
f7
e0
f1
fe
ee
fb
fd
da
f4
ef
25
0e
fd
01
13
03
fe
19
55
19
00
1a
fb
03
44
dd
e6
f4
eb
30
ef
e9
d6
18
d1
1f
e7
dd
25
19
08
fe
f7
25
d5
05
1d
35
1e
08
13
36
28
0e
0a
03
fd
ff
fe
11
2e
f0
03
10
20
15
f5
ec
ef
19
f6
fc
bd
2b
07
de
ec
f3
e9
13
11
f3
ef
02
fe
ce
1a
08
e8
09
e5
dd
0b
ff
05
09
0a
27
28
06
1c
ef
dd
f7
f5
19
08
13
1d
3a
31
14
27
f1
e7
24
eb
db
ee
f3
13
f6
05
2a
0f
fa
18
05
f1
f8
d8
03
e0
10
fc
ef
2d
05
09
fc
08
12
27
de
1f
07
f8
07
fe
ff
f3
28
fd
13
08
f5
ff
fc
0e
e1
fe
f6
ab
04
d1
14
ff
33
3b
1f
f7
f8
ee
24
06
fe
05
f9
1c
0a
ef
25
55
e3
f7
1e
f8
06
0e
d1
17
20
df
15
08
15
06
13
04
2a
28
f9
06
f2
1d
ea
0e
07
0e
06
fc
ef
11
c2
24
f2
24
dd
01
10
0c
35
05
29
ef
fe
0c
e7
f5
27
16
fc
df
0a
f7
e5
fb
e3
0e
28
1e
e6
15
0d
ea
28
d7
d8
fd
f1
fd
e6
11
e0
e2
00
e8
00
e6
12
09
10
01
df
1b
de
f8
e7
fa
da
c8
40
10
2a
52
27
15
f7
f9
00
f2
63
1f
34
f5
f6
20
13
05
2a
3f
15
0b
f3
ef
07
06
35
26
e3
07
f0
05
02
f6
11
f7
0c
35
f6
fd
ec
c8
fb
07
fa
f5
fa
2c
ff
f8
f2
d9
0b
1b
f2
03
fb
06
29
01
e2
10
db
d2
11
ec
f0
31
11
d7
0e
20
15
08
07
24
e8
f1
e0
05
0b
e1
1f
25
d1
39
ce
02
fb
21
c1
fc
28
de
0a
f8
fc
f3
df
02
01
e4
f5
fa
f3
f6
e8
13
0b
0d
22
10
0d
2e
24
e3
e4
ef
f3
26
db
fb
0a
1f
f5
08
14
1d
15
f9
fa
1b
09
ed
1f
f2
fe
14
17
03
17
e1
1a
da
d5
14
1b
d5
08
2a
42
14
1b
c0
fe
36
0f
fc
ee
dd
01
e8
09
05
e6
d7
fa
e6
25
d4
d4
f7
1a
ed
bd
df
06
0d
da
ed
2c
02
f2
1d
db
f8
e4
26
2f
ff
12
f7
2f
fa
0b
12
f2
0b
fe
d8
e7
01
30
1c
1f
0d
ed
f1
f7
09
0b
1a
18
d7
28
16
fa
db
3a
09
e9
14
2c
dc
26
e1
e9
0c
06
12
20
e8
e1
ff
0a
fd
ed
05
e2
d8
ed
e7
17
24
be
f2
06
13
1a
ef
fb
0c
05
fb
f9
19
f4
d4
a7
f4
20
15
f2
ea
f7
ef
0f
98
2a
d6
e0
ef
da
38
e7
13
fc
fa
ed
23
1b
09
10
fe
ff
f4
18
f3
26
fa
14
f6
fc
1a
0e
20
e1
f4
0a
eb
35
d9
ee
12
eb
22
31
ec
2b
f4
0d
0b
d4
04
03
cd
dd
f8
1d
13
f0
07
ff
ee
d7
c8
ff
24
ff
ed
f8
10
30
f2
be
e1
13
1d
f9
09
f7
39
de
e4
06
1d
e6
0e
fa
0a
20
fb
e5
0f
0d
18
1b
da
c1
02
12
18
00
01
d5
f1
eb
f1
fb
21
13
02
f2
01
dc
e3
fc
ee
d0
d2
fd
e4
1e
e6
e9
ff
f8
e4
09
f7
fa
14
06
00
e5
03
48
bb
1d
19
d2
2d
0d
fb
1e
0a
d5
e5
eb
fe
1d
0f
0a
26
ea
ef
ea
fd
f5
fb
ef
0f
db
e3
1a
18
f5
f4
24
e5
f7
e6
de
ee
17
06
f0
e9
eb
09
05
05
f2
fe
e1
f8
2d
12
d6
f4
de
d5
14
09
18
1d
08
34
ea
f6
02
28
e9
ef
2d
f7
0b
db
20
24
f7
f4
eb
df
0f
ff
a0
27
13
09
1c
e8
cf
14
17
fa
0d
02
33
16
56
e1
e4
c4
db
01
21
08
22
f6
f3
17
03
0d
2d
30
f5
1c
0c
c7
01
fd
d6
2b
49
d6
e7
22
16
e8
1a
fa
0d
f7
ff
4a
09
fa
09
10
f1
33
24
ed
1e
0c
c5
f4
0e
0b
12
e0
16
07
03
0a
06
34
05
14
e1
bd
22
eb
0b
db
dd
e0
18
26
03
01
ea
1f
0d
23
0a
f4
c3
05
04
fc
31
0a
26
f2
ea
10
fa
fe
fb
10
f1
f3
0c
f8
2b
03
f3
cf
34
23
db
10
ff
0c
f3
09
ee
f1
f3
e0
f6
0f
0e
2a
bc
ea
17
1b
fc
11
0b
1b
fd
df
0f
05
ed
ff
fb
38
da
20
c7
f6
f8
0a
f6
fd
1a
19
32
fd
2c
33
ee
f2
f4
01
ef
07
e6
f0
f3
05
de
fa
f9
ed
fc
34
f7
f6
d8
1b
fb
08
f9
08
10
15
fc
ec
06
f9
1c
31
13
eb
e3
19
0b
ff
ee
de
2f
21
d5
13
0b
33
0e
4c
09
fa
0e
24
12
f8
f5
f0
e6
0d
d5
02
07
f9
cb
0a
e2
06
e8
fd
28
06
e3
16
0c
e1
07
ee
ea
e2
f2
ec
09
22
d3
dc
f3
3b
ec
ea
04
25
0d
1b
fc
dc
0c
0a
fa
16
f9
f7
17
fb
0a
ee
05
c8
dd
05
d5
ef
fd
e5
06
d0
da
ef
25
ef
00
f7
2d
ed
cb
f9
15
03
0d
17
d6
03
09
07
0e
3a
05
e4
21
29
1b
1c
ff
0d
0d
38
02
29
fe
d5
2a
f5
f8
f8
09
11
ea
1d
ed
ee
30
01
0d
1b
f6
e0
fd
1b
fe
fb
f5
1c
07
ec
1a
0f
12
fe
09
18
1c
cc
e2
1b
f1
ee
03
03
43
35
16
0e
ee
e8
15
03
1d
f3
e9
04
0c
de
ea
1f
fd
fd
01
03
0f
2f
0a
01
fd
04
0a
0d
fe
f6
d5
1e
36
f9
ce
fe
ff
e1
19
00
e0
04
d8
ee
e3
ea
f1
0e
07
38
f2
19
e7
1d
f2
27
20
21
2e
e9
2d
21
f1
24
01
df
03
0a
e8
1e
e6
c8
0c
e4
06
0c
10
14
d7
ef
08
27
e8
f3
d7
0b
00
35
c7
f1
1f
e3
eb
03
09
ec
0d
02
18
fe
0c
26
e4
27
fe
fe
0d
15
10
16
02
20
fd
e8
19
0e
06
f3
0d
f5
02
db
19
06
fb
f4
fd
e7
ec
0c
01
08
09
03
12
c7
13
02
02
df
1a
df
01
17
3c
eb
0a
fa
de
eb
fb
23
1c
07
fd
ec
20
15
1d
18
11
ee
fd
ed
fb
09
f8
e0
f3
0e
08
10
ef
10
e1
f0
fb
fc
08
1a
10
f3
f3
00
cf
1d
0f
1b
5d
22
fa
0d
23
14
06
0e
10
0e
14
fb
ea
f6
0a
f7
04
f1
fe
e6
e2
f8
1e
f4
fa
de
1a
eb
da
00
f0
0b
2c
ff
e5
1c
21
18
fa
fc
0e
0a
07
07
13
15
02
05
e6
f8
f3
24
02
0a
f7
00
0d
fb
d9
1a
36
10
f8
ea
fd
17
04
29
06
08
17
4d
02
0b
c5
fd
3c
e8
09
eb
0a
20
fc
f3
28
27
e8
10
05
1c
1c
eb
00
11
e5
0e
05
cb
f0
05
09
27
fd
0e
d2
14
d2
cf
08
15
00
dd
04
ff
15
19
ec
00
e1
ef
f5
09
05
0c
dd
1c
00
05
15
2e
22
fd
d3
29
23
12
f2
d2
ed
e5
f6
ec
36
22
ff
e9
ee
fa
f1
22
1c
20
29
ed
fa
f8
10
33
eb
09
09
ec
ed
16
fd
fb
f6
04
0f
f7
d4
0e
01
16
11
e1
32
fa
f1
23
15
34
0b
e6
e2
db
0c
17
11
54
f7
20
da
ee
1d
12
06
08
ea
22
0a
e7
d9
cc
f0
00
18
09
d5
17
e5
e1
17
fa
12
f6
38
2c
1a
dd
d5
07
06
f2
10
00
05
34
fd
fc
03
c8
fe
12
dc
ee
f0
df
26
e9
ea
f5
25
1c
10
f1
04
fc
fa
28
0e
e4
04
d0
01
ee
e6
00
f5
1e
2b
de
32
0d
f3
f0
f7
ea
fa
ff
2f
07
03
c7
d2
09
14
ee
f8
f4
e6
02
17
12
14
3d
14
0f
02
ed
e8
29
ca
e7
05
e7
0c
ef
18
e4
dc
0c
15
17
ee
00
1f
08
d9
30
ff
f6
1f
f6
1c
05
ec
27
fd
08
05
0e
13
1c
0c
f8
d6
e1
0e
ce
0a
fe
26
ea
10
d1
02
f2
10
dd
0b
cb
e8
df
1a
12
12
fa
db
1e
fc
c3
23
ba
03
ee
f1
23
e5
c8
ed
11
18
1b
d9
03
0c
01
fb
e3
1f
08
0f
ed
2a
18
0d
ee
f7
15
d8
ef
10
08
fb
2d
11
2a
f8
1f
15
06
07
16
20
e1
df
bc
c4
f5
06
0a
17
c8
08
ff
0b
c9
09
15
d5
f0
1c
01
40
f2
f9
29
01
f0
fb
c4
21
0b
e2
14
fc
f0
47
fd
eb
ec
d2
e8
c0
3c
eb
07
1b
fc
19
d3
22
f8
f7
0e
e5
f1
0b
19
f3
08
0a
09
f0
2a
0c
cd
f5
fd
d4
1e
ff
fc
e8
f7
0e
29
fe
eb
05
e1
04
0e
fc
b2
dc
1a
f2
26
2d
0f
39
f6
2c
01
52
f0
10
1f
fc
b0
09
f5
1c
07
f5
f3
ec
05
f3
dd
04
ed
11
d8
14
0e
01
cf
d0
01
e5
15
f0
f0
e0
23
06
27
14
fa
f9
30
f3
ee
f9
26
c7
16
e7
1d
42
1c
0a
ff
e0
f5
c9
c6
e8
10
0c
11
fd
df
17
f8
d8
d3
e9
27
ea
07
06
02
1f
d5
e0
28
f9
36
3d
39
f8
1e
11
db
2c
07
f7
db
fa
22
1d
0c
04
ff
0a
fa
36
0b
ff
ff
f7
f8
f1
3a
f8
cf
ed
e7
e7
39
dc
f4
06
f6
f9
ca
f2
2e
fa
d9
29
1d
ea
08
e5
f9
ee
e8
02
00
31
10
2d
1a
fc
f7
1b
2a
11
17
18
f3
dc
18
cb
06
25
03
0c
e3
fe
d4
00
f9
fb
f8
fc
f8
ef
fb
f8
ea
fd
06
f7
fb
09
29
04
12
ce
fa
15
f6
16
f9
38
08
09
f9
f0
e8
02
00
f8
3f
06
40
13
35
0c
1e
e1
e4
21
04
29
d4
2c
e9
ed
2c
fa
14
04
07
26
25
da
22
e8
d4
fc
06
ed
1a
c4
fa
f9
f7
04
08
d9
21
06
e9
e1
02
38
0f
22
fe
29
0b
0d
25
d1
fe
11
de
fc
f9
15
23
0d
f9
db
e7
11
20
24
07
f3
cc
fd
e0
10
26
11
12
f3
25
11
07
01
0d
e9
02
f6
36
08
36
ea
e9
eb
05
f7
df
0d
2c
1b
04
e1
1a
e0
e0
1a
d2
e5
0f
0c
f0
f9
19
0f
05
2f
fa
fb
df
fc
dc
1e
1a
32
ee
04
1c
ee
ff
d3
ee
0e
de
f5
f7
01
fe
17
f8
09
16
24
1a
fe
ea
e3
db
15
0e
03
08
f1
2d
0f
2e
f2
23
e8
fc
33
16
27
0f
f5
14
10
f1
22
f0
cd
ec
35
21
d6
0d
d7
48
11
01
26
ff
e6
d5
03
0d
de
d4
ea
20
2a
04
f9
ee
e0
02
cf
27
f9
f9
13
c1
10
f8
2a
1f
e0
19
f6
e5
14
0a
47
ff
e6
39
0c
14
ee
f8
02
fb
f4
fc
27
e0
fc
fb
0e
e3
f3
15
f0
0d
36
fb
e7
2a
f6
0e
23
eb
fa
cd
03
f5
0d
19
ff
3f
db
0c
25
fc
e6
00
18
fd
3b
36
f6
02
ff
ed
28
1a
36
2b
06
34
e5
f6
07
0a
35
13
e0
0f
df
3f
f7
22
25
f6
db
02
ec
fc
0c
0a
fb
31
05
e8
f4
e2
1e
3d
06
ef
f7
17
fc
f8
1a
fa
0c
ea
ee
05
2b
09
d0
05
0d
00
39
09
f4
2f
de
e3
45
16
f0
02
b9
c6
08
0b
ee
ed
0c
02
17
fb
ff
f0
f4
0c
e2
f6
ea
0b
0c
f2
fe
20
e8
dc
13
bb
1c
fa
ec
e0
0f
23
0f
f8
09
08
ee
0d
04
05
f6
dc
d0
ca
1a
f2
08
fb
01
e6
09
f6
dc
f6
d8
00
32
cd
f2
24
f7
e0
15
0d
f8
27
f6
dc
fb
fd
21
e5
f2
1c
e6
d0
d3
06
e9
13
ec
0d
13
07
f7
3e
ee
23
00
18
1f
48
1b
0c
08
f8
13
da
fb
e3
dd
11
06
ff
06
eb
b7
e5
0f
f3
08
2f
d2
11
08
ef
f4
35
09
c9
e6
05
29
16
20
18
c3
08
fb
f2
0d
ff
07
c8
25
f0
da
d6
09
fa
0b
0a
e3
fc
09
04
b0
d3
f1
f8
1e
14
d4
03
0e
0e
de
fe
2d
e5
ec
f7
e8
f8
9d
f6
21
eb
d9
ee
ec
fc
f2
08
2d
2d
fb
2a
1f
23
43
11
fd
08
05
cf
0f
e2
d9
da
13
da
f5
de
1d
e7
e4
00
e0
07
15
e4
ff
0f
d4
0e
0d
d9
df
d7
05
f8
10
fe
d3
d5
f7
f6
04
fa
19
ee
e4
1b
f0
15
ee
2b
f0
19
05
e7
10
a6
f7
22
22
de
36
00
da
ec
1b
03
18
0f
af
df
f3
44
fd
17
20
0d
c5
0b
13
2a
fd
0c
f7
14
27
20
ea
d1
aa
f8
f4
f9
2f
fd
f1
19
fc
3b
06
08
03
db
07
da
fa
d8
d2
ab
02
07
ea
07
05
fb
22
f6
fd
22
f2
fd
ed
e8
f9
db
19
12
f4
e6
0b
e8
dc
f9
0c
ee
ef
15
06
ea
05
04
ef
eb
2b
d1
f9
18
f1
e6
de
0e
10
db
05
09
f4
c9
f0
eb
14
ee
f8
ed
f7
e2
06
28
0b
15
2a
24
18
ce
f0
ee
9b
02
0f
fa
07
01
12
39
ce
04
1b
e6
3b
2c
14
c5
1e
0e
25
cd
e8
5f
e2
07
01
0f
fd
f0
06
1c
f2
18
0b
0c
e9
ef
0a
f3
4c
35
09
27
0c
fb
33
02
2e
07
04
fc
2b
ea
04
ed
fe
ee
ee
f5
22
19
ea
e3
03
0e
f0
03
1a
06
11
f7
f1
13
10
dd
f2
ef
df
d8
3b
fe
1e
f8
1e
3d
e6
0c
fd
2b
db
ee
f2
ed
02
13
df
f5
0c
0a
27
e8
d4
dc
09
cf
f5
12
01
12
2b
e5
3c
f1
49
f0
f7
f2
f6
f1
03
f7
d4
f0
0d
f5
bc
13
12
14
ec
16
ef
f7
37
e1
06
0c
bf
12
34
ff
c8
02
00
0a
08
e9
f2
0b
f4
16
d6
f0
eb
10
db
25
f8
31
de
ec
ea
de
f8
e8
eb
dc
04
19
e2
0d
ee
d8
27
f5
ee
19
f1
fb
fa
26
c7
cd
fd
dd
e4
20
fc
0b
1c
11
07
f7
fd
28
29
fb
f0
10
df
e9
f0
2b
1a
09
e5
f9
fd
e4
fe
1a
37
fb
1a
f3
f6
e4
07
f5
18
e0
f6
e3
23
22
f0
2d
f5
f4
35
f5
2e
23
13
eb
22
03
29
02
3b
00
e1
08
10
d8
e3
27
dd
0e
13
0b
fb
1c
16
18
e3
01
00
ed
fe
0a
ee
e8
06
e8
07
23
17
c6
d6
af
e4
31
dd
f3
05
07
00
e7
d0
d9
0e
0e
f1
09
05
0b
14
f2
ed
25
f4
11
05
10
f3
0b
d6
05
17
da
ef
ed
f4
08
f6
d3
12
e5
d2
3a
eb
0a
db
d4
e2
e1
12
1a
cd
0a
fe
ea
00
eb
f7
e7
e2
13
04
02
eb
12
f4
06
0d
e4
f2
3a
3a
1b
25
04
fe
cf
fc
eb
05
e8
0f
f0
05
1b
3a
06
f0
f3
00
1f
f9
1a
ef
b2
08
fc
fa
2d
03
05
eb
e9
28
fe
20
12
fd
10
f5
29
f9
e7
e2
fe
cb
d1
ea
d6
07
d3
f5
f1
e5
15
09
0b
f4
1f
0d
08
10
1a
ff
fe
e8
10
2a
f9
00
f7
23
fb
55
0d
ed
0d
f2
01
07
f4
fc
de
0d
01
e2
c2
0c
19
de
e4
0a
dd
f9
f0
04
f9
eb
02
0f
d1
f6
e5
d7
1e
fc
fe
fb
1d
d2
e7
02
e5
02
11
fd
15
04
0f
13
00
0a
f4
06
f6
d9
f9
1a
e6
ef
04
ec
ee
11
db
fd
f5
0a
ed
d1
ec
00
0c
fb
16
f0
22
ea
11
02
f8
03
fa
15
f0
f6
21
20
da
fd
1e
fe
fa
16
fb
fd
19
fe
13
f1
00
f9
f3
ff
32
27
df
e6
07
02
db
e9
09
05
3a
ec
10
ea
e4
b7
0d
34
37
02
17
29
12
cf
21
fe
fe
f2
f8
06
1e
25
22
19
ff
d6
f5
f3
0c
d4
42
0b
e6
e4
e8
28
19
fd
03
ec
15
1a
06
25
3f
fe
31
da
13
23
1d
f2
11
fd
05
13
ee
11
26
e9
b8
0d
fb
f2
fe
eb
d6
10
ee
08
09
20
1d
09
e1
dc
12
20
f3
1a
fb
fc
1e
f7
b8
f3
0c
0f
34
fa
1e
14
fa
f7
0d
14
f5
f9
17
05
ee
03
22
16
0a
01
fd
28
0a
d6
cb
e5
09
e7
e1
ef
da
0e
33
1a
e7
02
e5
15
27
d2
c0
f1
20
e5
f6
07
e9
3a
fd
cf
e6
f5
09
e6
ed
12
ed
13
e0
0a
ed
16
20
02
27
32
cd
0e
01
db
ef
eb
12
0a
02
05
e9
f5
28
e0
0f
f4
fd
dc
0c
3e
dd
11
fc
e0
10
13
38
f0
e2
ce
d9
dc
16
0d
12
f1
f4
06
31
ae
f4
fd
03
05
f8
1d
2d
ed
e2
dd
f3
1b
31
ed
eb
0f
08
06
dc
fa
fc
fd
e9
fd
12
fb
e6
ee
03
e5
06
d2
38
34
e8
21
29
1e
fc
f9
33
e3
f1
ed
0c
fe
17
01
00
d8
0b
0b
22
08
05
f5
09
ea
07
2c
17
fc
0d
06
04
d4
08
03
12
01
c8
e5
35
c5
ed
0a
17
07
23
eb
f8
31
1b
36
d0
f0
04
e4
05
03
11
23
cb
f1
14
0d
f6
26
de
cc
e0
f1
fa
fb
1b
1a
18
e2
ef
d9
1e
07
d7
f7
cc
ec
01
db
da
f1
e6
d9
de
1b
57
d5
ec
0d
0e
01
c8
20
e7
ef
ec
3c
cc
19
0f
e9
3b
ff
c9
00
25
15
df
1c
07
e2
c4
16
1d
00
15
17
18
04
1f
33
10
0a
d0
10
0b
f4
fa
22
20
dc
0d
14
34
f1
33
07
cc
f1
fb
21
d7
bf
0b
dd
13
00
1a
1d
0f
f6
06
ff
c3
ed
26
d5
d0
e9
f1
f6
58
ee
e3
06
e9
fa
fe
cf
fb
fb
f8
f5
01
17
fd
d5
17
ed
02
e0
f2
18
eb
fb
e1
3c
cd
d9
14
04
27
d6
12
10
d0
17
ef
12
e2
0c
2f
0c
1f
f5
eb
32
fd
af
ec
f3
08
19
e8
0e
f5
06
e2
de
10
35
f3
ee
0b
00
c9
1d
fc
44
13
0f
f1
2b
4b
0f
06
0f
d2
f7
16
2d
03
22
ca
0e
4f
fc
ee
ff
fe
de
11
06
ff
dd
11
0e
c0
12
1b
11
2a
09
2a
e3
dd
f3
f1
c9
fb
0a
e2
06
c7
ef
29
fc
ee
f4
fa
f3
ea
cf
cb
d9
ca
03
04
ef
f8
fb
00
0b
1e
03
40
04
eb
0d
f8
fe
ea
d4
d1
f8
16
ef
e2
24
df
b4
f6
2e
d1
e2
00
2c
d6
15
fd
0a
d8
06
05
fb
fd
37
13
15
da
ff
04
13
f2
1d
e6
20
2b
e9
15
e9
ea
15
17
38
12
e7
d9
1c
0e
0d
1a
1a
06
08
0f
fa
f8
e6
27
23
31
fd
22
da
0b
03
2e
ff
f5
12
ee
17
29
34
f9
07
09
1e
ec
ef
06
d6
27
ef
fa
db
fc
00
ce
d6
11
ee
ec
eb
fa
d9
1b
4c
21
eb
e9
06
0d
32
33
eb
f2
de
e9
fd
0e
d7
3a
e4
eb
ee
15
0d
e8
ef
ec
2e
e8
f3
df
d8
2b
e4
e1
0f
18
06
ea
1c
14
f4
07
08
e1
2e
09
ed
30
e4
10
fe
0e
ff
03
0d
11
fa
f6
f8
f6
e9
01
e8
14
2f
07
d5
ea
09
30
3a
ea
d4
f2
f6
04
11
28
11
21
02
2b
df
40
2c
de
25
f1
f6
11
0c
07
f4
ea
09
02
15
02
f3
e9
36
e5
ce
0b
d1
cf
f0
f9
24
ea
32
fc
ec
e2
1a
10
ee
0e
de
fb
f7
e8
eb
1b
2b
13
31
1d
2c
fd
1f
1d
0b
de
f4
d0
f2
08
09
07
f1
d4
ed
23
f3
30
e8
fb
0b
fe
00
d7
ef
12
0b
06
ff
c7
10
fe
fd
b8
f6
29
0f
03
1c
04
ef
03
2d
e8
3c
01
0b
01
d2
e4
43
05
07
0e
15
f1
2c
13
f3
10
00
f3
de
f3
11
37
16
f1
22
eb
e9
e5
fd
02
07
1d
ff
ed
0d
b8
ff
f0
09
0d
f5
31
35
fc
30
ff
f6
e7
db
28
2a
3c
fb
f6
e4
ec
ca
01
0b
fb
17
f3
07
0a
0a
38
fe
1e
f1
1a
16
36
16
df
00
f6
f7
0b
3b
e7
e3
f2
fc
2a
0b
0d
2f
02
07
12
f0
0f
15
f6
eb
12
00
db
f9
b8
fd
15
13
15
fc
0b
eb
18
12
f7
e6
01
04
e7
dd
09
18
23
23
0d
01
e0
0e
02
0a
16
f9
0f
10
e7
0c
cd
f7
e2
13
e3
00
e1
08
c8
e5
24
1d
e1
12
f1
f2
fb
33
01
e9
e4
4a
fa
fd
f2
0d
0d
f8
ff
cf
0a
ca
0e
09
26
fa
c3
08
fd
bb
fe
ea
ec
fe
fe
0a
ec
2a
15
39
de
ff
f1
dd
f4
f2
d3
1f
f7
ea
01
20
f0
e6
c5
f1
f7
f4
f6
19
0b
e3
f1
04
03
08
cf
1c
12
19
e8
e8
f4
22
08
05
e1
e3
17
ff
e4
df
b4
0d
e0
15
03
31
04
db
ff
24
e6
cf
cf
d6
0b
fa
20
1c
d0
07
f9
1a
f8
da
05
ea
05
1a
df
02
f7
ef
13
4a
f7
e0
11
02
1d
1d
01
f7
e6
ed
0b
f4
f7
0e
fe
e8
fa
0e
f2
13
22
fa
de
ce
df
ef
e0
14
f1
ce
02
24
dd
3b
e1
e1
ee
13
0c
0c
01
07
c5
e2
06
c7
02
c9
00
fe
dd
f4
09
ea
e1
0c
df
b0
09
05
1e
38
d6
e6
e1
b3
f7
31
02
4e
18
ff
11
d1
f0
03
f0
f3
c1
1f
0d
f5
bb
f0
f4
ee
d5
15
19
fb
fe
f7
c3
42
3b
e9
0e
1e
0a
29
12
0c
ed
15
23
34
e9
07
fa
09
0a
15
0b
0e
2d
1d
e4
0c
0b
f4
04
f7
f6
ef
e8
1c
0b
df
f4
02
10
d4
12
02
ff
f1
05
2a
00
ff
f4
0b
0f
0d
f8
32
18
da
23
16
07
f6
e6
04
05
0d
0a
ed
0a
08
0b
f5
eb
fd
03
f3
0d
fc
1b
d6
3b
13
e9
07
1b
f5
e7
29
1b
16
13
04
07
e2
f9
15
ec
04
0c
d7
01
01
29
1b
fe
41
f6
04
0a
e8
f5
2a
fd
f1
e2
15
0c
1d
05
10
f7
1c
18
ff
16
d3
f2
de
f4
14
f8
00
17
f9
14
23
0f
ff
c9
2d
ea
eb
f5
04
e9
21
14
19
06
15
fc
1f
e0
dc
f6
05
05
20
1f
01
ff
f8
00
12
0a
fb
14
1e
ea
1c
ff
e8
22
e2
22
fe
16
0d
d1
c1
ec
09
e7
28
15
fc
d5
0f
fa
1f
e8
07
08
12
f0
05
ef
15
06
08
ed
28
c5
16
e0
e7
e9
da
23
09
e4
fa
15
ec
e6
ed
3c
0e
0b
e9
da
e4
eb
09
03
0e
e7
0e
11
19
35
d0
ef
0c
1d
25
e1
eb
de
dc
19
01
20
fc
12
eb
16
da
08
f6
ee
cf
04
f7
e1
2f
fb
1e
0f
ed
3b
fe
07
ee
12
e1
0d
fd
dc
01
f3
16
06
26
ee
fd
10
f6
d7
0d
1a
db
04
d2
e6
d9
e0
fd
0a
bc
0a
31
de
03
ed
fb
22
14
0f
21
d4
ef
fb
e9
27
f4
d8
b4
2d
f5
04
e4
0f
22
1c
d5
0e
3a
fc
1c
10
03
1c
0d
0a
12
d9
e5
ef
01
ef
f8
2d
f1
1c
e1
2d
1e
0c
f2
09
e6
13
08
eb
00
fa
0f
20
0a
09
f2
fd
31
d8
07
23
1a
f0
d3
1d
e4
df
f4
de
1f
e3
ff
10
1c
ad
0c
0a
f6
0e
c0
fb
e8
16
02
17
10
b9
e4
f5
f4
0f
25
eb
0b
2d
36
ed
18
f6
f4
12
ed
e6
e1
13
ee
e4
07
15
2d
f2
df
1c
f0
df
e2
15
c1
2c
01
e5
de
00
f6
e5
30
01
18
f7
dd
18
06
e1
0d
fb
3a
1a
14
f2
12
31
f8
0a
e5
e7
d6
07
06
0d
09
e3
17
db
13
f9
05
29
38
f4
0c
f3
0b
06
1d
1c
bf
d2
e2
f6
1e
06
02
fb
ee
fc
f5
13
0d
ee
25
ea
0b
c3
0b
00
13
eb
dc
e9
1d
1c
fa
0f
04
11
0a
05
fa
ed
ec
f2
e2
0e
15
41
15
e7
f5
07
39
de
ff
11
0e
07
fa
1f
f6
0b
f5
0c
0a
e6
f8
f5
0d
0f
fe
1a
1d
12
24
03
25
e9
fb
ca
3f
ee
14
e2
09
f7
29
f1
17
f6
1c
0b
0d
01
1a
ef
ed
11
13
1a
16
f3
14
ca
2d
13
0a
3e
14
df
15
0f
1a
e7
c3
02
e8
f2
48
f8
2b
f2
05
11
fe
22
11
01
16
2a
f1
ff
f7
01
15
0f
24
c6
1a
d5
f5
15
17
da
08
3d
2e
15
db
07
12
2b
00
e6
de
21
08
d6
09
f8
3a
04
38
0d
d9
01
10
ef
0e
f3
d8
f4
f9
e8
ed
2c
2b
ec
11
2d
00
f8
16
fb
e9
c1
fe
e1
ed
be
03
ec
f7
04
06
0e
e6
db
02
01
f0
2c
cd
d1
04
31
f9
d4
db
18
0e
e5
fc
23
df
ef
00
f6
1b
2d
ec
15
fa
f0
ef
16
27
c8
f4
ea
e5
d6
3e
1c
06
19
ec
06
0d
f2
f9
ef
0d
d0
fd
13
d8
c9
1b
e9
e3
f3
0a
f7
0e
14
32
fe
b2
13
1a
1c
f1
0c
1a
fa
0b
09
34
0e
37
f2
fc
0c
fa
fb
ef
fa
ce
e9
16
e7
1d
e5
1e
28
ed
f3
0c
27
09
07
1a
dd
0d
19
41
f9
04
01
fc
fe
0b
04
e0
e8
ce
14
e3
1a
1e
07
eb
16
d3
e7
fe
0e
18
e0
0c
3e
f4
f4
de
1f
f8
e2
ff
e8
cc
1e
14
df
19
ec
25
f9
08
d8
de
1d
20
26
10
fc
13
0e
f7
20
c7
f0
eb
1e
fb
2a
f0
f0
f6
27
16
22
2f
fa
1a
e0
18
f5
07
e8
07
c6
0c
f7
0c
f4
ec
d8
35
0b
fe
2d
24
02
06
e0
e3
29
fa
34
c7
19
1a
e3
0b
23
0e
df
e6
27
36
24
29
1c
f5
2f
02
f9
26
00
13
05
05
23
d1
0a
f7
17
12
f8
d6
14
19
f7
0a
0e
11
f9
18
1e
10
f9
21
02
cd
de
1f
f1
61
bc
09
fb
1c
de
34
e9
01
cc
ce
fd
ff
1b
05
e7
42
ee
f3
10
ce
01
15
ec
0d
07
d4
e5
1a
17
1a
04
c8
f9
09
e7
e4
e5
0a
04
f1
e5
14
ea
fd
fc
e4
e2
ce
0f
f9
e6
dc
f0
ee
eb
f5
0c
2b
0a
2b
06
13
08
d4
fb
02
ec
f1
16
3f
03
df
f8
ef
f3
f4
39
06
d4
da
06
2f
cb
14
01
0e
e9
04
e8
f1
d9
09
da
f6
e1
08
e8
e6
18
14
ff
fd
c9
2f
f6
49
fb
12
f0
17
e3
e3
f9
dd
3f
d4
da
f6
00
04
f7
11
10
e6
fc
e2
3f
bf
26
27
0d
f4
19
f9
3b
d7
0d
03
f8
d5
e2
e9
d5
d1
00
2f
f0
1b
00
29
d5
f9
01
f7
f0
0e
eb
05
18
f8
fc
ef
da
cb
26
ff
13
bc
f7
d3
c4
07
ea
e1
fa
12
0d
11
3c
40
fa
d9
0d
0c
ed
eb
ee
f6
f6
24
05
f1
09
f9
be
fa
0d
f9
1a
f5
08
0a
ea
18
12
f8
d1
0d
06
09
12
cc
f3
ed
fc
06
ee
05
1a
2b
21
ce
dd
e1
18
05
1c
09
0f
fa
09
07
f5
0c
14
0e
13
f1
ea
09
18
fc
41
ce
0c
08
14
f7
e9
ee
11
18
14
f9
22
e3
0e
f4
02
fa
dc
f2
ea
e5
19
e7
d9
ff
ef
10
f4
4d
e3
e4
25
fc
e5
13
d4
07
f9
02
00
11
0d
1a
2e
d9
24
13
21
f1
08
0a
0a
eb
17
12
c7
07
00
22
f4
14
eb
ec
ed
10
f0
ef
f8
0f
fe
18
02
15
f7
d2
06
af
ea
ec
fd
00
0c
ff
03
fb
1c
0a
37
ec
20
e5
eb
e8
c8
17
16
03
ec
0b
fb
20
1e
d0
16
ee
00
cf
13
1d
c8
02
f3
11
f2
f6
e9
d3
1f
f1
ff
13
f4
ff
e2
e2
e5
f2
d7
fa
35
21
1b
de
d1
de
1c
d6
f4
dc
14
f6
0e
25
15
ee
0c
08
12
f6
d3
00
29
fb
e4
ed
ff
f5
fd
f6
0d
ee
d8
07
ed
d8
46
35
05
f1
04
ef
eb
05
d9
e3
01
02
fe
15
e3
ea
09
f0
3f
ee
f3
fc
02
e9
26
3f
d8
e2
ee
ef
be
18
39
26
dc
d0
d2
f6
04
d8
0f
0c
d2
ed
21
1b
06
00
d7
05
43
23
0f
26
1e
42
09
19
db
d5
ef
eb
f0
1b
cf
d3
03
08
0e
d2
c3
dd
e6
10
2e
f4
f0
06
06
e4
e1
06
1a
ee
2d
39
f9
e5
09
fa
13
f4
1a
ff
e1
fd
ed
0e
fc
a6
bf
00
ea
fc
ce
f9
f2
13
fc
fd
e8
17
e9
11
1a
17
0a
02
fd
fc
11
00
09
2b
ce
ed
1a
22
14
30
16
f9
f8
d0
00
1a
fa
ed
13
ff
d0
f3
fd
07
e1
09
fa
0f
e3
f0
0a
04
14
21
cd
e4
f4
04
10
1f
1e
ff
fc
1a
fa
e0
e4
1f
34
f6
e5
e5
e0
fa
e7
e5
fb
ce
d6
07
d7
c1
22
12
43
02
08
ec
ea
1c
da
fc
18
07
16
f9
24
1e
09
04
18
fa
13
0b
05
fd
23
f0
f5
30
ea
df
09
3f
f1
19
ea
1e
f3
e5
da
f5
fd
19
1c
12
fb
f9
e9
08
ff
ee
d9
ba
0c
e5
c2
1f
16
fc
25
e4
f7
f1
15
f6
ed
e1
d5
d8
16
18
f5
e4
fc
ee
c2
ea
f4
d5
f9
fc
f1
eb
17
f6
03
f2
20
fa
15
f2
d8
de
18
27
1d
f2
25
ff
22
01
17
12
34
1e
dd
03
fe
03
e5
e9
0d
10
ed
19
00
25
eb
04
27
06
cc
e8
10
09
1b
fe
1b
f8
35
00
fb
f8
40
f7
de
e6
e3
ff
f5
e5
ff
26
d9
e4
20
12
e3
f1
00
d7
21
d2
ee
17
ce
f1
ff
24
2d
0b
f7
0f
2b
ca
f9
d7
01
d7
4f
02
04
e7
2a
e8
d9
0b
15
19
a8
f7
fa
02
f3
0d
ff
e2
0e
2a
f7
fb
09
1c
3b
b1
e0
03
0e
eb
0f
1a
fb
0b
04
ed
fa
fb
e3
ff
1e
f3
f7
ec
3a
06
f7
d2
00
ff
f0
f9
23
12
df
ee
16
f9
db
17
fc
f0
f7
f6
e6
d0
d9
f4
f5
ec
ff
d9
e8
d6
08
e2
10
19
1c
2f
39
d3
dd
11
15
eb
f6
1a
e4
02
ec
02
df
19
fc
2f
07
18
12
04
33
2d
de
fd
21
08
1d
20
d8
ff
fe
da
0d
ce
dc
e0
e5
e7
ea
ed
cd
0b
17
11
02
e7
2c
19
d6
d5
32
f3
19
fa
0b
d0
33
06
f7
fc
fb
45
ec
ef
15
fa
db
08
20
f9
f3
1e
10
1f
ea
0c
dc
00
06
05
01
ea
d5
23
1e
15
f1
1b
fa
0a
d7
e2
1e
f3
e9
db
d7
32
1a
0e
e7
0a
00
f9
06
e9
1d
e8
ff
1a
09
1e
24
f7
2f
e4
f0
d7
03
2d
12
d5
0a
1b
f0
dc
1e
00
f7
ef
ef
35
e3
f9
06
eb
03
12
f7
23
cf
e3
f8
0c
0b
f2
ea
dd
2c
d9
02
25
26
f0
0c
1d
01
ec
e9
fc
29
df
f9
41
00
f7
f0
e3
e2
d4
03
f3
fa
de
16
d4
e9
be
1f
42
c1
ea
2a
1f
03
35
ed
fd
f8
2c
ee
11
dc
fb
0e
00
de
e0
1d
f7
c8
11
f2
2c
f3
05
0c
1c
ce
ee
da
18
02
dd
f0
ff
ff
f3
12
f2
f0
f2
2a
28
e9
da
f6
fb
f3
fe
e7
2b
08
fc
21
fd
28
f3
e7
f6
0c
2a
f2
03
cb
14
1a
ea
07
08
ee
dd
ea
4c
ec
1d
e3
12
03
e8
fa
ef
19
0c
0b
1b
1e
ca
e0
f3
ff
e7
14
10
d7
e4
ee
f3
f2
06
1d
f6
09
05
f2
06
df
21
06
29
f9
13
04
ea
0c
21
eb
35
c3
05
12
f1
f9
c6
1d
e1
19
11
03
2b
f5
09
de
fa
2e
dd
1c
e2
02
04
fc
e2
c6
fe
25
03
03
14
13
fb
0a
f7
f9
f4
00
be
0c
e1
fb
d8
06
0d
fd
19
06
1c
03
20
dc
18
f9
e4
06
f7
4b
20
27
59
dc
12
cc
07
04
e5
ee
e3
13
0d
ef
f8
1f
1a
c7
13
f9
00
2c
e7
d6
f5
28
30
17
e2
02
f8
1d
d4
f6
e2
db
d7
1e
0d
cb
fc
dc
f6
17
ff
01
fb
1d
13
01
05
ed
24
db
03
d4
15
cd
f8
0b
26
ef
23
fd
00
f5
26
29
e6
e3
2b
e3
07
db
2a
fd
d5
12
e8
ee
f3
01
2d
0e
e9
ed
df
28
16
17
ff
f1
d8
f1
e1
36
20
f7
e7
fd
de
fd
f5
e5
c0
19
ff
1d
fc
37
1f
0e
e7
0d
09
0c
13
c0
1e
ea
0e
ea
1c
0d
e4
b2
fd
ec
1d
eb
1a
ec
0c
02
d6
eb
0f
10
e6
15
0d
f5
0c
0f
0b
22
29
f5
09
17
0d
24
26
0c
be
f1
0b
09
14
09
06
ea
fe
1e
00
f3
f8
1d
0b
22
f8
1e
e0
09
1b
24
f8
12
f9
26
e6
04
df
e6
df
1f
fa
fb
09
ff
18
f7
03
fd
fb
0a
0e
18
ff
fc
f7
0e
e6
38
fc
01
c8
37
fa
dd
fb
e4
da
ca
ff
10
ea
fe
06
f8
33
01
f8
e7
fe
fe
fa
f5
f8
f1
11
ef
11
f1
26
e1
24
32
ff
fb
18
0f
39
23
e5
0b
03
fb
17
21
ff
3c
c0
29
d7
12
01
ee
11
01
00
21
c0
20
d2
0d
1a
11
da
1f
23
10
20
dd
12
23
03
17
0b
0a
e8
04
1f
d7
c5
10
04
11
ff
23
c2
10
d8
ec
06
db
00
f7
e7
ff
f7
00
3c
05
06
f3
ff
f3
fa
10
12
d7
f6
01
f7
fa
10
d3
09
13
eb
15
22
41
2c
ed
c9
e9
0c
21
ff
00
20
14
ce
ef
e9
f1
0a
08
f0
2d
f5
01
dd
fb
23
e8
f9
3e
fe
e6
07
fd
fd
e3
11
23
d2
24
1d
eb
eb
19
f4
f2
05
21
10
f4
e3
c1
18
fe
00
16
0b
f8
1b
d9
0e
e3
09
0f
14
00
06
2d
ed
00
3d
0b
fe
f9
fe
2d
f5
d0
fa
17
03
16
df
10
19
07
11
f7
ed
03
d8
31
fc
06
10
18
df
ff
2b
f7
c9
fb
f9
0b
f4
02
89
15
da
df
de
ec
f4
f0
ce
0c
f4
25
0e
de
d5
30
fc
dc
3d
1f
07
23
1c
0c
0f
16
08
2e
e8
d9
fc
02
fd
06
df
24
2c
39
13
08
32
08
e0
f6
05
0d
f4
22
f2
07
f5
3f
f9
df
0a
09
d9
09
2e
f4
d1
2e
e4
f9
f7
02
0a
ed
4b
10
f6
ea
fb
e3
fc
f9
fa
24
2a
08
08
27
ed
1a
dd
fd
fd
e1
3c
df
40
e8
21
09
e3
fe
0a
13
15
3c
25
f7
c4
2c
fb
1d
fc
ea
13
e5
51
f4
17
39
01
f9
f2
fe
0b
04
ec
2e
16
01
ff
c5
1f
1b
fd
19
ef
19
12
fe
15
de
ec
0c
f9
eb
0f
e6
f9
00
e3
d2
17
2d
f8
01
05
f9
ca
f5
0f
1e
15
4d
1f
d9
ff
ee
0c
b3
e9
15
0a
f2
e2
e8
09
07
f3
1c
00
0d
32
0a
04
13
c6
f9
14
28
08
0a
e2
f7
fa
d5
ff
02
df
fb
f6
1d
18
0d
f1
c1
00
f3
22
fc
e8
62
f9
1d
14
13
cb
de
10
06
04
20
fb
19
11
ec
0b
f5
1a
08
fe
ff
fd
19
0e
56
de
fd
f9
eb
29
e8
18
f0
e9
e7
22
da
18
03
ca
da
0b
a7
dd
fe
fe
0c
e8
08
c9
fc
e8
25
ea
ef
16
46
0d
f4
03
f7
19
e9
ef
07
f3
0b
e9
0e
f1
1b
df
f9
e8
bc
2a
e0
0b
e9
f5
00
c2
e6
df
0e
df
04
09
e6
24
13
16
ee
1f
2c
0b
e0
0d
0d
08
f3
f6
30
0f
07
cf
f3
f2
13
d3
c7
15
ff
06
e3
cd
29
30
e4
d2
f6
e3
d0
17
05
1a
17
f5
cf
da
27
fd
01
e6
20
0f
09
fc
fe
f6
1a
e1
c9
e8
0a
03
fb
ea
ec
01
d7
dd
34
0d
e7
0e
17
38
1a
ec
0f
07
12
05
01
e6
f9
c7
19
f2
db
e5
f3
e4
04
1e
f3
18
de
f7
07
da
05
fd
13
23
01
1d
21
d6
09
22
f6
19
fc
10
e2
f1
0a
23
e8
fa
09
0b
dc
3c
f4
14
0d
fc
3d
19
13
12
13
e1
17
00
fb
26
f2
35
28
eb
1b
ec
f2
f9
e2
fd
fb
03
d4
0f
01
f5
f4
c0
ff
f3
10
db
1b
35
04
13
f7
07
1a
01
fe
eb
ee
18
df
e7
40
e9
02
ed
03
bd
06
26
f9
f3
f7
f0
13
ed
9c
10
02
ed
0d
f8
09
29
f3
f5
f8
fa
f7
f5
de
e7
00
12
f7
40
21
2a
fd
29
22
28
eb
01
fd
07
0e
05
f0
0a
0c
f2
ff
dc
fe
dd
dd
c9
0e
19
d8
fa
09
0c
d6
0d
d5
e5
01
2c
fd
ec
f9
ea
3a
11
fd
da
df
f9
e0
01
e9
f3
14
01
2e
02
f5
f8
e3
e6
0b
19
d9
b8
05
06
c5
18
e6
f0
15
e3
13
e9
19
fa
27
ef
ea
24
24
08
e9
2c
0f
d5
10
d2
02
f0
ee
0e
44
fb
e5
11
0b
ef
ed
1a
07
ea
f9
fc
f1
f7
f5
e4
d7
3f
f9
e7
fb
11
27
1f
03
21
27
dc
2a
df
f5
18
26
e9
02
ee
f5
fd
f2
41
16
ec
41
ff
f7
06
00
10
1d
ef
1d
f9
08
e9
f3
0d
08
ed
f9
04
2b
16
f7
c8
f1
ef
07
07
0a
cf
e3
17
ef
0b
dd
ec
e8
03
f0
fe
15
07
1d
5c
0c
31
04
d8
11
1a
07
d9
ea
f3
00
e7
05
0c
2d
f3
e3
2f
0f
0c
0e
17
0d
24
27
05
02
13
10
ef
f2
06
16
d1
eb
39
12
0b
14
d7
01
18
16
ff
e9
04
e6
fd
f1
d2
fc
1e
dc
06
02
19
b9
1e
ee
eb
09
33
f3
11
eb
06
e1
e4
00
f5
fc
06
f9
eb
0b
06
ed
27
0a
06
b8
f2
12
0e
0c
05
5a
cb
39
0a
18
17
1d
09
13
e4
f5
03
0e
be
cb
f2
1c
01
d4
38
1e
df
03
d7
d9
f7
fe
f9
e6
e2
34
d8
2b
1b
ed
f3
16
f3
0e
f8
11
fc
f0
d2
ef
16
e6
d9
f8
15
32
ae
e3
fd
1c
28
e6
00
f2
00
0d
bb
0e
1e
fb
02
ed
1f
4f
01
0d
c4
16
ec
e0
11
e6
12
d9
00
3c
21
13
ee
ff
f1
f0
f0
0c
fc
ef
ea
17
eb
cf
09
0f
0e
e9
f8
f3
dd
ee
f5
f0
00
f6
08
01
e3
16
25
1a
d5
01
eb
00
f3
e2
f6
fb
eb
e2
0f
16
ea
d6
01
1e
f8
ee
03
04
11
15
11
1b
0a
07
08
f0
d3
04
00
fe
e4
dd
b7
22
ee
32
09
0e
03
28
d1
cd
f8
f6
17
f4
13
e4
08
f3
f4
08
02
ce
06
24
07
f3
2c
fa
09
fe
dd
d0
00
05
ec
24
fc
12
e8
e1
f1
04
dc
d9
ec
ea
e2
dd
02
d1
f5
c1
fa
0d
12
07
ee
df
ff
0f
07
fe
f0
e9
f7
20
16
21
cb
f1
f3
0e
d7
e9
1d
ff
fb
e2
14
1d
25
f2
04
08
f0
22
df
f7
00
3a
ee
1b
16
f3
04
14
21
0d
0f
38
13
e4
00
04
e2
06
fe
f5
e3
db
e8
54
23
17
05
f6
fd
13
e3
fe
e6
cc
12
14
18
3b
fa
06
08
f9
08
27
f5
06
f7
19
ff
07
c6
f7
18
c0
e9
20
ec
2a
18
2c
f0
b2
f7
d4
f6
c5
12
0a
f6
e0
27
fc
0b
00
d9
ef
f8
1e
0a
f8
d8
01
00
ec
ee
f2
2b
fa
09
24
f5
e3
e3
18
ff
fe
6d
01
09
ee
f3
22
29
0f
f2
11
f0
fe
ee
19
18
28
f7
e2
1e
02
df
f3
03
46
22
0e
f3
19
03
05
fc
2d
f3
27
d9
b9
08
df
e6
f2
28
07
ad
1e
f5
c4
22
0b
de
0a
f6
05
ea
f3
ec
01
11
e5
ee
f5
04
f9
e2
f2
2f
0b
12
ff
e2
1b
ee
f4
d9
fb
dd
e5
f8
11
23
46
05
ef
e4
0e
20
e9
f7
ff
f1
d9
07
f1
e3
31
00
0b
00
f6
f2
2c
f8
0a
0f
1a
00
22
ef
02
15
c5
06
e1
de
26
1d
d2
fd
26
cf
05
1a
f8
04
fa
28
00
25
05
d7
dc
24
c5
00
f6
0f
d9
fd
e8
22
05
29
07
20
e0
12
02
1a
f3
14
07
c5
eb
01
29
f9
f2
cd
05
be
25
16
2f
1c
0e
03
00
1e
22
0d
f9
f1
f1
18
09
f7
20
22
01
ef
c9
f4
01
d7
2a
fe
06
ce
4b
15
09
dc
fa
01
16
38
19
d6
1b
08
04
04
f1
11
c7
dd
0a
20
32
19
29
dd
db
03
fd
dd
0c
03
f0
16
09
d7
f9
1e
0c
f0
f6
0d
21
1d
f9
08
e1
0e
1e
12
fe
f4
0f
f3
08
13
f8
e4
24
f0
02
e7
0a
dd
ed
25
16
12
fc
1e
f2
f7
12
a0
14
07
e8
fd
e7
1c
dd
e0
e5
0f
2b
2f
2c
23
24
e0
07
da
23
e7
21
23
e9
0a
11
17
13
f9
1d
de
09
2f
fd
2e
dd
de
f4
fc
fe
e4
c9
15
e0
e2
d8
c4
e4
0d
1b
ff
21
fa
ad
15
d8
f0
37
e8
e9
c9
1f
cd
26
1c
fc
02
0d
12
ee
17
f6
3a
01
fe
14
fe
06
39
e4
09
13
e4
13
e9
1a
19
ef
06
2e
e2
cd
ec
17
e6
f7
e6
eb
fd
eb
e4
1e
f2
00
13
2c
26
21
0e
19
09
e3
25
df
f2
19
0f
fc
02
db
f6
06
14
e8
ec
d9
2b
20
26
19
0f
3d
ff
ce
f6
09
26
f7
03
11
03
0d
ec
31
dc
0e
fb
ed
29
46
f0
e6
14
17
02
fd
ef
f5
f1
ff
eb
50
f2
00
03
1e
23
48
e8
10
f7
d7
e9
3b
e0
e3
11
19
ef
14
1b
4f
18
e8
16
df
ed
13
f5
ec
1c
15
0b
0c
12
e5
12
11
e7
1b
0b
ff
a6
1c
f6
0b
f8
2c
f5
12
15
09
df
f9
00
e9
1a
e2
19
eb
ed
f3
df
1f
1f
f0
12
ec
2b
da
12
fc
fd
ea
2a
dc
f0
f0
ce
f8
ee
2e
01
e3
1a
fe
11
fe
1c
cd
2b
0f
24
24
f9
0c
05
02
f0
f1
04
f5
d8
20
f2
d7
fc
20
30
1a
05
fb
05
cc
f9
0f
e5
df
25
3b
f8
f3
d7
18
25
f1
e5
29
f0
1c
fe
e6
06
f4
b8
e5
e8
11
c2
e6
2b
19
24
07
fe
11
4c
f7
20
01
05
fb
02
1d
42
ec
e2
fd
57
0f
3b
06
ee
1a
e3
f8
10
e6
ff
06
d9
fc
1c
ea
f7
d1
fb
34
fc
fe
d0
ee
0f
2b
fa
13
22
14
e1
d0
e3
f5
e0
c2
07
0b
14
02
03
15
f1
eb
00
e8
e1
25
15
f8
07
f1
f9
04
cc
e7
f1
ff
29
0b
eb
f5
04
15
f4
d9
1a
f7
e4
04
03
07
f6
21
e0
22
e0
0c
2d
02
fb
2b
0b
df
21
e8
16
f2
1d
17
0e
0a
f9
20
20
01
19
05
28
10
f6
ee
f6
14
d5
08
1d
f2
25
10
de
21
ef
f3
00
e9
dd
0d
20
09
e7
1d
19
f9
36
ed
e8
22
28
2b
ee
2b
f6
09
29
f1
2c
07
e5
07
0b
12
27
e9
cd
18
02
eb
26
f7
f2
f2
dd
02
0e
fc
de
4b
ea
1c
21
f7
d9
0b
2e
f8
29
05
14
e1
2c
17
00
f6
13
07
ec
fc
f6
e1
d7
00
ee
1e
fa
d3
0b
28
10
2f
0c
f3
ca
ff
20
dd
d9
f9
02
19
fe
e6
d6
2f
33
0d
e0
ff
1d
c8
db
f1
fa
16
e8
fd
20
12
e4
db
f7
d0
fd
12
37
05
ec
08
08
1a
f6
1c
03
13
ea
34
0f
d9
0a
15
17
01
fe
e9
37
00
f7
ee
18
29
da
20
02
57
15
33
29
1a
50
2e
15
dc
35
da
aa
f2
08
34
fc
03
e7
01
04
fb
05
f2
06
0a
28
2c
fd
05
f5
37
05
e9
0e
fe
f6
03
bb
fb
07
fa
1e
18
f8
f5
01
d9
1d
fd
0f
fa
e4
38
e5
fb
d4
f5
31
1f
1a
d7
09
08
cd
07
0b
f9
05
e6
2b
ef
e0
1f
09
e0
fb
dc
0c
13
fa
22
cd
25
1e
ff
33
41
00
e5
f0
13
0f
fd
e0
fb
32
f9
09
f3
0e
fb
14
0e
1d
d9
22
1d
e5
01
d7
1b
ea
f2
13
15
24
cf
d9
f1
1c
ef
0a
1e
f5
ff
10
fe
e1
1b
e2
d5
e7
e0
03
2d
08
ff
e6
eb
f6
1c
29
ff
03
ef
27
c8
fa
f2
e0
27
f2
ea
33
d1
e5
0c
d6
12
ff
e4
fd
06
ee
da
fa
01
dd
14
e7
dc
fc
fb
ff
fe
f5
d3
d7
db
00
f9
f7
f5
0d
ef
04
1f
fb
f2
f1
e5
c9
09
19
06
0b
e5
10
06
25
f5
0f
37
0f
0f
f5
e9
27
e8
f1
eb
f4
0f
00
df
0f
0b
22
ef
1e
f6
08
26
05
0c
28
08
f1
04
fb
04
e7
29
e3
11
f3
ed
f3
f3
05
45
fe
aa
ee
42
05
e9
1e
0c
27
0e
04
ce
29
30
f4
c1
17
f4
0e
fa
29
e6
16
15
13
14
fe
17
e7
eb
ea
23
f8
1a
f8
33
fa
ea
01
23
cc
e3
f6
c8
e7
29
f1
dd
18
14
00
19
ff
e8
42
fd
f7
de
f7
47
e4
06
11
02
da
1f
16
1f
dd
f1
1a
d5
f8
03
e9
f7
1d
24
f2
11
03
0e
01
f5
0d
f9
03
ef
29
e0
21
ff
0c
0c
dd
ee
f8
f7
de
0d
f4
ea
e9
24
0e
31
d4
0a
d9
30
fe
e8
2a
dc
00
2a
fd
d3
2e
03
2d
df
f4
eb
36
10
ee
09
d6
fc
ee
e8
ef
f4
18
1a
f0
0b
06
ff
17
f0
fd
dc
ee
16
f6
da
35
09
07
2d
eb
e1
fa
f3
16
f3
f3
32
20
e1
fd
df
0e
11
d9
cc
05
21
16
d7
df
2a
11
ee
02
0c
08
e1
f8
27
03
12
04
01
d5
17
f8
ff
11
07
fc
0c
e2
04
27
e9
17
c8
f5
09
f0
17
f7
11
d4
cd
08
f7
24
08
2a
db
d3
30
be
2a
1b
f8
35
1d
d2
13
40
fd
3c
12
06
e7
1b
fb
fc
f8
de
fe
1e
f1
de
19
b4
df
f0
e1
0a
03
0f
3b
f1
de
dd
e8
c5
10
f6
13
06
ea
0c
13
f4
da
15
36
1e
47
fa
fe
ec
fa
18
f8
c3
d8
05
40
d5
e3
f2
fc
10
d1
da
13
19
f8
0b
e5
ec
ce
ef
08
fb
33
fb
1d
27
ff
eb
0d
0d
f9
1f
16
02
fc
21
08
2f
f2
ea
f6
ef
34
09