ed
3b
03
e8
df
19
05
fd
06
e8
f4
06
29
0e
15
13
f2
f1
09
9f
be
25
f2
e8
0c
10
0b
00
dc
e5
0c
f4
23
fa
e4
f9
36
f1
13
d4
f9
5f
e5
c7
2c
1b
22
13
26
09
3d
de
10
f3
3e
e5
0f
04
bd
e5
ea
e4
ee
d1
f2
ec
3a
12
f5
0e
fa
5a
de
0a
ea
1b
df
09
14
a3
04
f1
e7
0c
38
0f
fc
ee
f6
ee
e0
0c
ea
09
fc
0d
0d
fb
16
11
ee
27
ed
c6
27
10
c3
2b
c4
ff
e2
fd
df
ea
c8
3e
0d
fe
fb
1e
ff
4a
d2
10
0a
17
08
eb
f5
0c
eb
19
e6
0c
03
06
e1
25
f4
f4
f0
d0
42
e0
02
6a
0a
33
31
f7
ed
1a
1e
f1
d8
04
fe
fb
0c
fa
e5
e9
19
1a
fa
ed
23
16
44
39
16
10
18
05
19
f4
ce
09
09
1a
9f
11
07
fe
18
0d
f2
35
11
11
ff
db
16
33
22
fd
e8
03
00
d8
f3
01
47
0f
e7
e3
f5
2c
5b
01
28
ee
f3
fd
fa
0a
22
00
e7
fb
00
08
0c
2b
cb
0a
f8
e6
f5
20
23
ea
d6
05
0a
16
c9
eb
2c
fd
e0
e3
f3
1d
13
c5
e8
1f
ef
cd
73
db
f3
13
0b
e6
f6
e5
fa
0d
d8
c6
ec
04
f9
c4
0b
18
f8
50
f1
2c
03
fa
34
41
0a
01
09
f5
22
08
ff
f4
0e
0f
13
e3
1c
f6
e2
fd
02
f1
f5
e0
15
f7
e4
c9
25
1b
4b
fc
00
4d
d5
ea
e0
1d
f7
df
ea
05
27
07
d1
36
02
4a
08
09
12
04
71
d6
06
f3
f6
05
e6
1a
e3
fb
dd
d7
ee
ec
01
d5
1e
2c
db
12
e2
d3
17
11
0b
01
cc
25
10
18
db
e1
15
c3
15
ef
01
51
04
e9
11
f6
e9
f5
f3
ec
d3
d7
08
e9
29
0a
c7
eb
ff
18
1b
08
c7
da
c0
fa
18
df
da
15
15
f1
01
06
0c
19
12
e3
00
fa
fe
05
19
dc
3b
69
f2
27
f7
e3
23
31
10
18
fb
08
1d
f5
0f
04
f6
ea
d7
07
f8
06
07
1c
0c
f7
01
25
f9
27
d6
e8
13
e8
ea
f1
35
f7
26
3e
17
f9
01
12
e5
15
25
d5
26
e4
f3
ff
33
dd
e7
12
2a
08
db
30
e0
49
13
1c
cd
d8
df
28
11
f6
d3
15
f8
0d
c9
a5
22
f2
11
07
ec
b8
df
11
eb
f6
d5
20
0c
df
f9
1b
01
df
2d
21
ef
f5
e0
32
16
fc
19
ea
f7
e9
0b
f6
d5
f5
e2
f5
ea
1a
09
17
e4
b4
3f
f9
02
1d
05
de
13
03
d3
13
e0
0e
18
05
1f
ae
f5
e6
1b
01
1b
47
cc
e6
35
5c
e9
1e
e7
4f
c2
ed
22
12
fa
0e
05
08
f2
2e
fb
e8
e2
f9
fd
2c
e9
e2
19
07
ce
09
ce
f5
2b
23
22
02
f1
0f
e3
03
f6
e8
e6
ef
fa
df
fd
15
f6
21
22
35
38
f9
e9
26
22
12
04
e5
f4
0c
08
2b
fd
e6
44
d9
02
cf
0c
02
28
11
26
f7
23
ba
d8
04
ac
0b
d8
2f
f5
07
f8
da
04
ce
24
44
36
07
09
f6
f8
04
0f
e8
cb
42
d0
24
20
eb
1d
0d
d8
1f
ba
04
42
2e
26
f9
0b
b8
fe
24
2b
1b
ee
fb
e7
dd
14
1b
06
f6
36
ee
31
d3
2a
24
e7
d5
57
d5
e1
03
0d
0b
fa
08
2e
2b
17
0a
04
fd
ed
4c
d8
e4
fa
ce
ed
ec
06
ef
37
d1
dc
03
3d
dd
de
5c
f5
e0
1f
11
d9
cb
ee
0b
fc
11
39
ed
cd
0b
50
f3
4f
01
55
de
ef
cc
1e
ff
14
f8
47
fd
03
0c
e3
2b
c9
ba
1d
d2
e4
1c
fe
0a
dd
c6
f3
1a
14
20
19
ea
2e
01
f3
08
e7
02
48
27
00
e7
f2
43
e3
e0
19
37
16
f2
1d
f8
dc
cf
14
07
cc
2b
f5
fe
0b
03
10
0b
f4
fc
fd
2e
e9
f6
2c
ff
1a
12
ee
ff
19
ef
f5
c1
f4
e6
e6
e3
17
0e
fa
23
f7
fa
1f
11
1b
27
04
d0
e4
15
ba
e3
9e
3c
33
f3
40
12
01
ec
0d
19
03
08
44
04
13
28
e0
0e
f4
dd
0f
0b
21
ee
09
f7
f1
19
44
ff
28
e9
f3
fe
e9
fa
13
11
db
d8
26
24
04
f7
ff
e9
f9
de
1f
2d
ee
be
07
34
fa
08
05
11
18
dc
d9
da
e1
fd
fd
f1
01
00
f5
28
1e
f7
13
08
ec
21
15
f5
19
11
d1
e0
09
c9
bf
1d
1f
14
fc
17
04
13
26
37
08
0d
f1
0b
23
fb
fa
de
ee
ee
07
03
24
eb
ff
02
3e
ef
0f
fa
0b
f0
db
e3
e4
03
ed
fa
da
bb
56
21
ea
10
f2
f8
0b
00
00
e2
fc
c6
cb
3b
03
31
e8
0a
f8
22
09
f7
1d
14
f1
05
00
ea
44
24
0d
06
0a
03
03
d9
08
d6
42
e1
f1
fc
fb
be
8e
e4
17
f4
ea
0d
71
25
15
e0
f6
17
4e
4d
3e
f6
00
e6
c5
ef
08
f3
3e
06
f8
5b
ea
fd
0a
d1
a4
17
fd
13
1c
04
d3
0d
fe
dd
26
c7
0b
1a
11
04
eb
d7
b8
52
07
f6
c9
03
eb
03
1c
31
0f
51
12
e1
c4
d0
e8
f5
fb
fb
c7
17
2d
fe
0b
f3
ed
f8
fa
16
fc
12
d6
2e
fa
e2
0f
22
ec
1f
fe
e2
d5
18
25
38
cc
03
29
20
2f
db
dd
c7
1f
15
0b
1e
bd
c8
19
e8
05
f0
0a
01
e8
01
f0
00
dc
0d
3b
01
0b
fb
bf
30
16
29
e9
26
09
e2
1d
fd
39
f4
02
0a
b5
16
f5
35
17
fe
f7
f4
e7
ea
e0
ff
01
e9
0a
fd
0e
ec
ec
fa
4c
fb
22
dc
f7
f4
cf
e0
f7
03
0c
75
fa
1f
c1
11
03
f3
db
02
b6
f4
e5
fc
05
de
d2
c0
f1
0c
e6
10
27
fc
18
dd
dc
e9
17
ef
ca
0f
e5
1f
01
1f
eb
1f
e8
21
f2
f8
02
fc
cc
f6
f9
03
e2
0d
f9
fc
35
2c
f5
23
22
f2
0e
ef
ea
da
3a
0c
cc
50
0a
fb
b7
1f
ed
3d
fb
fc
fb
08
d6
dc
01
20
f5
0c
e5
13
2a
32
cd
e6
d9
fa
09
ff
0a
0b
d7
4e
27
01
19
11
ee
d3
e7
2b
06
51
19
13
0c
b5
b8
1f
e9
19